{
  "version": "1.0",
  "truncation": null,
  "padding": null,
  "added_tokens": [
    {
      "id": 0,
      "content": "[PAD]",
      "single_word": false,
      "lstrip": false,
      "rstrip": false,
      "normalized": false,
      "special": true
    },
    {
      "id": 1,
      "content": "[UNK]",
      "single_word": false,
      "lstrip": false,
      "rstrip": false,
      "normalized": false,
      "special": true
    },
    {
      "id": 2,
      "content": "[CLS]",
      "single_word": false,
      "lstrip": false,
      "rstrip": false,
      "normalized": false,
      "special": true
    },
    {
      "id": 3,
      "content": "[SEP]",
      "single_word": false,
      "lstrip": false,
      "rstrip": false,
      "normalized": false,
      "special": true
    },
    {
      "id": 4,
      "content": "[MASK]",
      "single_word": false,
      "lstrip": false,
      "rstrip": false,
      "normalized": false,
      "special": true
    }
  ],
  "normalizer": {
    "type": "BertNormalizer",
    "clean_text": true,
    "handle_chinese_chars": false,
    "strip_accents": false,
    "lowercase": true
  },
  "pre_tokenizer": {
    "type": "BertPreTokenizer"
  },
  "post_processor": {
    "type": "TemplateProcessing",
    "single": [
      {
        "SpecialToken": {
          "id": "[CLS]",
          "type_id": 0
        }
      },
      {
        "Sequence": {
          "id": "A",
          "type_id": 0
        }
      },
      {
        "SpecialToken": {
          "id": "[SEP]",
          "type_id": 0
        }
      }
    ],
    "pair": [
      {
        "SpecialToken": {
          "id": "[CLS]",
          "type_id": 0
        }
      },
      {
        "Sequence": {
          "id": "A",
          "type_id": 0
        }
      },
      {
        "SpecialToken": {
          "id": "[SEP]",
          "type_id": 0
        }
      },
      {
        "Sequence": {
          "id": "B",
          "type_id": 1
        }
      },
      {
        "SpecialToken": {
          "id": "[SEP]",
          "type_id": 1
        }
      }
    ],
    "special_tokens": {
      "[CLS]": {
        "id": "[CLS]",
        "ids": [
          2
        ],
        "tokens": [
          "[CLS]"
        ]
      },
      "[SEP]": {
        "id": "[SEP]",
        "ids": [
          3
        ],
        "tokens": [
          "[SEP]"
        ]
      }
    }
  },
  "decoder": {
    "type": "WordPiece",
    "prefix": "##",
    "cleanup": true
  },
  "model": {
    "type": "WordPiece",
    "unk_token": "[UNK]",
    "continuing_subword_prefix": "##",
    "max_input_chars_per_word": 100,
    "vocab": {
"[PAD]":0,
"[UNK]":1,
"[CLS]":2,
"[SEP]":3,
"[MASK]":4,
"!":5,
"\"":6,
"#":7,
"$":8,
"%":9,
"&":10,
"'":11,
"(":12,
")":13,
"*":14,
"+":15,
",":16,
"-":17,
".":18,
"/":19,
"0":20,
"1":21,
"2":22,
"3":23,
"4":24,
"5":25,
"6":26,
"7":27,
"8":28,
"9":29,
":":30,
";":31,
"<":32,
"=":33,
">":34,
"?":35,
"@":36,
"A":37,
"B":38,
"C":39,
"D":40,
"E":41,
"F":42,
"G":43,
"H":44,
"I":45,
"J":46,
"K":47,
"L":48,
"M":49,
"N":50,
"O":51,
"P":52,
"Q":53,
"R":54,
"S":55,
"T":56,
"U":57,
"V":58,
"W":59,
"X":60,
"Y":61,
"Z":62,
"[":63,
"\\":64,
"]":65,
"^":66,
"_":67,
"`":68,
"a":69,
"b":70,
"c":71,
"d":72,
"e":73,
"f":74,
"g":75,
"h":76,
"i":77,
"j":78,
"k":79,
"l":80,
"m":81,
"n":82,
"o":83,
"p":84,
"q":85,
"r":86,
"s":87,
"t":88,
"u":89,
"v":90,
"w":91,
"x":92,
"y":93,
"z":94,
"{":95,
"|":96,
"}":97,
"~":98,
"¡":99,
"¢":100,
"£":101,
"¤":102,
"¥":103,
"¦":104,
"§":105,
"¨":106,
"©":107,
"ª":108,
"«":109,
"¬":110,
"®":111,
"¯":112,
"°":113,
"±":114,
"²":115,
"³":116,
"´":117,
"µ":118,
"·":119,
"¸":120,
"¹":121,
"º":122,
"»":123,
"¼":124,
"½":125,
"¾":126,
"¿":127,
"À":128,
"Á":129,
"Â":130,
"Ä":131,
"Å":132,
"Æ":133,
"Ç":134,
"È":135,
"É":136,
"Ê":137,
"Ë":138,
"Ì":139,
"Í":140,
"Î":141,
"Ï":142,
"Ð":143,
"Ñ":144,
"Ò":145,
"Ó":146,
"Ô":147,
"Õ":148,
"Ö":149,
"×":150,
"Ø":151,
"Ú":152,
"Ü":153,
"Ý":154,
"Þ":155,
"ß":156,
"à":157,
"á":158,
"â":159,
"ã":160,
"ä":161,
"å":162,
"æ":163,
"ç":164,
"è":165,
"é":166,
"ê":167,
"ë":168,
"ì":169,
"í":170,
"î":171,
"ï":172,
"ð":173,
"ñ":174,
"ò":175,
"ó":176,
"ô":177,
"õ":178,
"ö":179,
"÷":180,
"ø":181,
"ù":182,
"ú":183,
"û":184,
"ü":185,
"ý":186,
"þ":187,
"ÿ":188,
"Ā":189,
"ā":190,
"Ă":191,
"ă":192,
"Ą":193,
"ą":194,
"Ć":195,
"ć":196,
"Č":197,
"č":198,
"Ď":199,
"ď":200,
"Đ":201,
"đ":202,
"ē":203,
"ĕ":204,
"ė":205,
"Ę":206,
"ę":207,
"Ě":208,
"ě":209,
"ğ":210,
"ġ":211,
"ģ":212,
"ħ":213,
"ī":214,
"į":215,
"İ":216,
"ı":217,
"Ķ":218,
"ķ":219,
"Ĺ":220,
"ĺ":221,
"ļ":222,
"Ľ":223,
"ľ":224,
"Ł":225,
"ł":226,
"Ń":227,
"ń":228,
"ņ":229,
"Ň":230,
"ň":231,
"ŋ":232,
"Ō":233,
"ō":234,
"ŏ":235,
"Ő":236,
"ő":237,
"Œ":238,
"œ":239,
"Ŕ":240,
"ŕ":241,
"Ř":242,
"ř":243,
"Ś":244,
"ś":245,
"Ş":246,
"ş":247,
"Š":248,
"š":249,
"Ţ":250,
"ţ":251,
"Ť":252,
"ť":253,
"ũ":254,
"Ū":255,
"ū":256,
"ŭ":257,
"Ů":258,
"ů":259,
"Ű":260,
"ű":261,
"ų":262,
"ŷ":263,
"Ź":264,
"ź":265,
"Ż":266,
"ż":267,
"Ž":268,
"ž":269,
"ſ":270,
"Ə":271,
"ƒ":272,
"ơ":273,
"ư":274,
"ǎ":275,
"ǐ":276,
"ǒ":277,
"ǔ":278,
"ǝ":279,
"ǫ":280,
"Ș":281,
"ș":282,
"Ț":283,
"ț":284,
"ɐ":285,
"ɑ":286,
"ɔ":287,
"ə":288,
"ɛ":289,
"ɡ":290,
"ɣ":291,
"ɪ":292,
"ɲ":293,
"ɾ":294,
"ʁ":295,
"ʃ":296,
"ʊ":297,
"ʒ":298,
"ʰ":299,
"ʲ":300,
"ʹ":301,
"ʻ":302,
"ʼ":303,
"ʾ":304,
"ʿ":305,
"ˆ":306,
"ˇ":307,
"ˈ":308,
"ˌ":309,
"ː":310,
"˘":311,
"˙":312,
"˛":313,
"˝":314,
"́":315,
"̃":316,
"̆":317,
"̥":318,
"̮":319,
"̯":320,
"̶":321,
"͡":322,
"Ά":323,
"Α":324,
"Β":325,
"Γ":326,
"Δ":327,
"Ε":328,
"Η":329,
"Θ":330,
"Ι":331,
"Κ":332,
"Λ":333,
"Μ":334,
"Ν":335,
"Ξ":336,
"Ο":337,
"Π":338,
"Ρ":339,
"Σ":340,
"Τ":341,
"Υ":342,
"Φ":343,
"Χ":344,
"Ω":345,
"ά":346,
"έ":347,
"ή":348,
"ί":349,
"α":350,
"β":351,
"γ":352,
"δ":353,
"ε":354,
"ζ":355,
"η":356,
"θ":357,
"ι":358,
"κ":359,
"λ":360,
"μ":361,
"ν":362,
"ξ":363,
"ο":364,
"π":365,
"ρ":366,
"ς":367,
"σ":368,
"τ":369,
"υ":370,
"φ":371,
"χ":372,
"ψ":373,
"ω":374,
"ό":375,
"ύ":376,
"ώ":377,
"І":378,
"Ј":379,
"А":380,
"Б":381,
"В":382,
"Г":383,
"Д":384,
"Е":385,
"Ж":386,
"З":387,
"И":388,
"Й":389,
"К":390,
"Л":391,
"М":392,
"Н":393,
"О":394,
"П":395,
"Р":396,
"С":397,
"Т":398,
"У":399,
"Ф":400,
"Х":401,
"Ц":402,
"Ч":403,
"Ш":404,
"Щ":405,
"Ъ":406,
"Э":407,
"Ю":408,
"Я":409,
"а":410,
"б":411,
"в":412,
"г":413,
"д":414,
"е":415,
"ж":416,
"з":417,
"и":418,
"й":419,
"к":420,
"л":421,
"м":422,
"н":423,
"о":424,
"п":425,
"р":426,
"с":427,
"т":428,
"у":429,
"ф":430,
"х":431,
"ц":432,
"ч":433,
"ш":434,
"щ":435,
"ъ":436,
"ы":437,
"ь":438,
"э":439,
"ю":440,
"я":441,
"ё":442,
"ђ":443,
"є":444,
"і":445,
"ї":446,
"ј":447,
"љ":448,
"њ":449,
"ћ":450,
"ў":451,
"џ":452,
"ѣ":453,
"ѧ":454,
"ѹ":455,
"҃":456,
"ғ":457,
"Қ":458,
"қ":459,
"ҧ":460,
"ҭ":461,
"ү":462,
"ҳ":463,
"ә":464,
"ө":465,
"Ա":466,
"Հ":467,
"ա":468,
"գ":469,
"ե":470,
"ի":471,
"լ":472,
"կ":473,
"մ":474,
"յ":475,
"ն":476,
"ո":477,
"ս":478,
"վ":479,
"տ":480,
"ր":481,
"ւ":482,
"ք":483,
"ְ":484,
"ֲ":485,
"ִ":486,
"ֵ":487,
"ֶ":488,
"ַ":489,
"ָ":490,
"ֹ":491,
"ֻ":492,
"ּ":493,
"ׁ":494,
"ׂ":495,
"א":496,
"ב":497,
"ג":498,
"ד":499,
"ה":500,
"ו":501,
"ז":502,
"ח":503,
"ט":504,
"י":505,
"ך":506,
"כ":507,
"ל":508,
"ם":509,
"מ":510,
"ן":511,
"נ":512,
"ס":513,
"ע":514,
"ף":515,
"פ":516,
"ץ":517,
"צ":518,
"ק":519,
"ר":520,
"ש":521,
"ת":522,
"״":523,
"ء":524,
"أ":525,
"إ":526,
"ئ":527,
"ا":528,
"ب":529,
"ة":530,
"ت":531,
"ث":532,
"ج":533,
"ح":534,
"خ":535,
"د":536,
"ذ":537,
"ر":538,
"ز":539,
"س":540,
"ش":541,
"ص":542,
"ض":543,
"ط":544,
"ظ":545,
"ع":546,
"غ":547,
"ف":548,
"ق":549,
"ك":550,
"ل":551,
"م":552,
"ن":553,
"ه":554,
"و":555,
"ى":556,
"ي":557,
"َ":558,
"ُ":559,
"ِ":560,
"ّ":561,
"ْ":562,
"پ":563,
"چ":564,
"ک":565,
"گ":566,
"ہ":567,
"ی":568,
"ܐ":569,
"ܝ":570,
"ं":571,
"ः":572,
"अ":573,
"आ":574,
"क":575,
"ग":576,
"च":577,
"ज":578,
"ट":579,
"ड":580,
"ण":581,
"त":582,
"थ":583,
"द":584,
"ध":585,
"न":586,
"प":587,
"ब":588,
"भ":589,
"म":590,
"य":591,
"र":592,
"ल":593,
"व":594,
"श":595,
"ष":596,
"स":597,
"ह":598,
"ा":599,
"ि":600,
"ी":601,
"ु":602,
"ू":603,
"े":604,
"ो":605,
"्":606,
"।":607,
"॥":608,
"া":609,
"ি":610,
"ா":611,
"்":612,
"ు":613,
"್":614,
"ง":615,
"น":616,
"พ":617,
"ม":618,
"ร":619,
"ล":620,
"า":621,
"ิ":622,
"เ":623,
"་":624,
"ཁ":625,
"ག":626,
"ང":627,
"ཆ":628,
"ད":629,
"ན":630,
"བ":631,
"མ":632,
"འ":633,
"ར":634,
"ལ":635,
"ས":636,
"ི":637,
"ུ":638,
"ེ":639,
"ོ":640,
"ྱ":641,
"ု":642,
"်":643,
"ა":644,
"ბ":645,
"გ":646,
"დ":647,
"ე":648,
"ვ":649,
"ზ":650,
"თ":651,
"ი":652,
"კ":653,
"ლ":654,
"მ":655,
"ნ":656,
"ო":657,
"რ":658,
"ს":659,
"ტ":660,
"უ":661,
"ფ":662,
"ქ":663,
"შ":664,
"ჩ":665,
"ც":666,
"ძ":667,
"ხ":668,
"ჯ":669,
"ត":670,
"រ":671,
"ា":672,
"្":673,
"ḍ":674,
"Ḥ":675,
"ḥ":676,
"ṃ":677,
"ṇ":678,
"ṛ":679,
"ṣ":680,
"ṭ":681,
"ạ":682,
"ả":683,
"ấ":684,
"ầ":685,
"ắ":686,
"ế":687,
"ễ":688,
"ệ":689,
"ị":690,
"ố":691,
"ồ":692,
"ộ":693,
"ờ":694,
"ợ":695,
"ụ":696,
"ủ":697,
"ứ":698,
"ữ":699,
"ἀ":700,
"ἄ":701,
"Ἀ":702,
"ἐ":703,
"ἰ":704,
"Ἰ":705,
"ὁ":706,
"ὐ":707,
"ὶ":708,
"ὸ":709,
"ῆ":710,
"ῖ":711,
"ῦ":712,
"ῶ":713,
"‐":714,
"‑":715,
"‒":716,
"–":717,
"—":718,
"―":719,
"‘":720,
"’":721,
"‚":722,
"‛":723,
"“":724,
"”":725,
"„":726,
"‟":727,
"†":728,
"‡":729,
"•":730,
"…":731,
"‧":732,
"‰":733,
"′":734,
"″":735,
"‹":736,
"›":737,
"€":738,
"ℓ":739,
"№":740,
"™":741,
"⅓":742,
"⅔":743,
"←":744,
"↑":745,
"→":746,
"↓":747,
"↔":748,
"⇒":749,
"∀":750,
"∆":751,
"∈":752,
"−":753,
"∙":754,
"√":755,
"∞":756,
"∪":757,
"≈":758,
"≠":759,
"≡":760,
"≤":761,
"≥":762,
"⋅":763,
"⋌":764,
"─":765,
"│":766,
"└":767,
"├":768,
"█":769,
"■":770,
"▪":771,
"►":772,
"●":773,
"◘":774,
"☉":775,
"☼":776,
"♀":777,
"♂":778,
"♠":779,
"♣":780,
"♥":781,
"♦":782,
"♭":783,
"♯":784,
"あ":785,
"い":786,
"う":787,
"お":788,
"き":789,
"く":790,
"さ":791,
"し":792,
"た":793,
"と":794,
"な":795,
"の":796,
"ま":797,
"み":798,
"ら":799,
"り":800,
"る":801,
"ん":802,
"ァ":803,
"ア":804,
"ィ":805,
"イ":806,
"ウ":807,
"エ":808,
"オ":809,
"カ":810,
"ガ":811,
"キ":812,
"ギ":813,
"ク":814,
"グ":815,
"ケ":816,
"ゲ":817,
"コ":818,
"ゴ":819,
"サ":820,
"シ":821,
"ジ":822,
"ス":823,
"ズ":824,
"セ":825,
"タ":826,
"ダ":827,
"チ":828,
"ッ":829,
"ツ":830,
"テ":831,
"デ":832,
"ト":833,
"ド":834,
"ナ":835,
"ニ":836,
"ネ":837,
"ノ":838,
"ハ":839,
"バ":840,
"パ":841,
"ビ":842,
"ピ":843,
"フ":844,
"ブ":845,
"プ":846,
"ボ":847,
"ポ":848,
"マ":849,
"ミ":850,
"ム":851,
"メ":852,
"モ":853,
"ャ":854,
"ヤ":855,
"ュ":856,
"ョ":857,
"ラ":858,
"リ":859,
"ル":860,
"レ":861,
"ロ":862,
"ワ":863,
"ン":864,
"・":865,
"ー":866,
"一":867,
"七":868,
"三":869,
"上":870,
"下":871,
"东":872,
"中":873,
"之":874,
"九":875,
"二":876,
"五":877,
"井":878,
"京":879,
"人":880,
"代":881,
"会":882,
"佐":883,
"信":884,
"元":885,
"光":886,
"八":887,
"公":888,
"兵":889,
"動":890,
"北":891,
"十":892,
"南":893,
"原":894,
"古":895,
"台":896,
"合":897,
"吉":898,
"和":899,
"四":900,
"国":901,
"國":902,
"地":903,
"型":904,
"城":905,
"大":906,
"天":907,
"太":908,
"女":909,
"子":910,
"学":911,
"安":912,
"宗":913,
"宮":914,
"家":915,
"寺":916,
"将":917,
"小":918,
"少":919,
"山":920,
"島":921,
"川":922,
"州":923,
"市":924,
"帝":925,
"平":926,
"式":927,
"成":928,
"戦":929,
"手":930,
"政":931,
"文":932,
"新":933,
"方":934,
"日":935,
"明":936,
"春":937,
"時":938,
"書":939,
"朝":940,
"木":941,
"本":942,
"李":943,
"東":944,
"林":945,
"株":946,
"機":947,
"正":948,
"武":949,
"民":950,
"水":951,
"江":952,
"河":953,
"治":954,
"法":955,
"流":956,
"海":957,
"漢":958,
"無":959,
"王":960,
"生":961,
"田":962,
"町":963,
"画":964,
"白":965,
"皇":966,
"直":967,
"省":968,
"真":969,
"石":970,
"社":971,
"神":972,
"空":973,
"立":974,
"第":975,
"等":976,
"自":977,
"航":978,
"艦":979,
"花":980,
"茶":981,
"華":982,
"行":983,
"西":984,
"語":985,
"軍":986,
"逐":987,
"道":988,
"郎":989,
"部":990,
"里":991,
"野":992,
"金":993,
"長":994,
"院":995,
"隊":996,
"風":997,
"飛":998,
"駆":999,
"高":1000,
"龍":1001,
"한":1002,
"ﬁ":1003,
"￼":1004,
"##a":1005,
"##f":1006,
"##i":1007,
"##á":1008,
"##n":1009,
"##c":1010,
"##ů":1011,
"##e":1012,
"##l":1013,
"##o":1014,
"##v":1015,
"##t":1016,
"##é":1017,
"##u":1018,
"##s":1019,
"##z":1020,
"##š":1021,
"##k":1022,
"##j":1023,
"##h":1024,
"##ř":1025,
"##í":1026,
"##d":1027,
"##y":1028,
"##O":1029,
"##X":1030,
"##ý":1031,
"##×":1032,
"##p":1033,
"##U":1034,
"##P":1035,
"##Ř":1036,
"##E":1037,
"##N":1038,
"##Í":1039,
"##C":1040,
"##H":1041,
"##S":1042,
"##V":1043,
"##1":1044,
"##0":1045,
"##2":1046,
"##4":1047,
"##5":1048,
"##m":1049,
"##r":1050,
"##w":1051,
"##g":1052,
"##b":1053,
"##ľ":1054,
"##Ý":1055,
"##Š":1056,
"##K":1057,
"##A":1058,
"##É":1059,
"##M":1060,
"##8":1061,
"##9":1062,
"##6":1063,
"##Q":1064,
"##I":1065,
"##T":1066,
"##ž":1067,
"##ď":1068,
"##ě":1069,
"##č":1070,
"##W":1071,
"##B":1072,
"##Z":1073,
"##Ě":1074,
"##R":1075,
"##D":1076,
"##ó":1077,
"##L":1078,
"##ö":1079,
"##Č":1080,
"##ü":1081,
"##´":1082,
"##7":1083,
"##ô":1084,
"##ť":1085,
"##ć":1086,
"##ä":1087,
"##F":1088,
"##3":1089,
"##J":1090,
"##x":1091,
"##ú":1092,
"##ň":1093,
"##Á":1094,
"##Ž":1095,
"##q":1096,
"##ñ":1097,
"##G":1098,
"##Y":1099,
"##е":1100,
"##л":1101,
"##о":1102,
"##д":1103,
"##и":1104,
"##ћ":1105,
"##Ť":1106,
"##Ú":1107,
"##Ů":1108,
"##ń":1109,
"##ʃ":1110,
"##ą":1111,
"##α":1112,
"##β":1113,
"##ά":1114,
"##λ":1115,
"##ς":1116,
"##õ":1117,
"##ł":1118,
"##ç":1119,
"##ğ":1120,
"##ו":1121,
"##ב":1122,
"##י":1123,
"##ד":1124,
"##Đ":1125,
"##р":1126,
"##у":1127,
"##т":1128,
"##с":1129,
"##я":1130,
"##Ì":1131,
"##Ď":1132,
"##®":1133,
"##ă":1134,
"##Ç":1135,
"##ר":1136,
"##ע":1137,
"##א":1138,
"##ן":1139,
"##°":1140,
"##ê":1141,
"##ì":1142,
"##ø":1143,
"##ß":1144,
"##ī":1145,
"##ə":1146,
"##й":1147,
"##к":1148,
"##バ":1149,
"##ッ":1150,
"##ト":1151,
"##â":1152,
"##Ð":1153,
"##ا":1154,
"##ج":1155,
"##و":1156,
"##ر":1157,
"##а":1158,
"##н":1159,
"##г":1160,
"##ę":1161,
"##ė":1162,
"##Ô":1163,
"##ח":1164,
"##市":1165,
"##щ":1166,
"##х":1167,
"##œ":1168,
"##ś":1169,
"##Ň":1170,
"##¯":1171,
"##ы":1172,
"##Ó":1173,
"##ë":1174,
"##צ":1175,
"##à":1176,
"##ű":1177,
"##ˇ":1178,
"##¨":1179,
"##之":1180,
"##è":1181,
"##ρ":1182,
"##ί":1183,
"##Ü":1184,
"##в":1185,
"##́":1186,
"##ő":1187,
"##ã":1188,
"##ε":1189,
"##ο":1190,
"##π":1191,
"##Ö":1192,
"##ン":1193,
"##パ":1194,
"##ῖ":1195,
"##ν":1196,
"##ֹ":1197,
"##ז":1198,
"##ֶ":1199,
"##ה":1200,
"##מ":1201,
"##Ä":1202,
"##ĺ":1203,
"##™":1204,
"##פ":1205,
"##ם":1206,
"##ː":1207,
"##ु":1208,
"##ल":1209,
"##ù":1210,
"##ж":1211,
"##Ĺ":1212,
"##Ś":1213,
"##Æ":1214,
"##À":1215,
"##˙":1216,
"##п":1217,
"##і":1218,
"##К":1219,
"##ه":1220,
"##ت":1221,
"##Ą":1222,
"##А":1223,
"##Г":1224,
"##Р":1225,
"##Д":1226,
"##ż":1227,
"##Ľ":1228,
"##˝":1229,
"##б":1230,
"##ǎ":1231,
"##Â":1232,
"##Ę":1233,
"##ラ":1234,
"##テ":1235,
"##ィ":1236,
"##ナ":1237,
"##τ":1238,
"##σ":1239,
"##κ":1240,
"##η":1241,
"##ō":1242,
"##ή":1243,
"##ş":1244,
"##ю":1245,
"##з":1246,
"##ь":1247,
"##ē":1248,
"##ц":1249,
"##Ţ":1250,
"##м":1251,
"##€":1252,
"##Þ":1253,
"##ŕ":1254,
"##ū":1255,
"##ā":1256,
"##ώ":1257,
"##ṣ":1258,
"##ṭ":1259,
"##ְ":1260,
"##ש":1261,
"##ָ":1262,
"##ׁ":1263,
"##ִ":1264,
"##州":1265,
"##ˆ":1266,
"##đ":1267,
"##Ć":1268,
"##γ":1269,
"##Ź":1270,
"##ò":1271,
"##王":1272,
"##Ê":1273,
"##ų":1274,
"##Ă":1275,
"##ɪ":1276,
"##ب":1277,
"##ی":1278,
"##国":1279,
"##נ":1280,
"##ف":1281,
"##ن":1282,
"##ม":1283,
"##น":1284,
"##ो":1285,
"##श":1286,
"##ि":1287,
"##ч":1288,
"##ל":1289,
"##ъ":1290,
"##ṛ":1291,
"##ı":1292,
"##ɑ":1293,
"##ŋ":1294,
"##ク":1295,
"##リ":1296,
"##ї":1297,
"##ð":1298,
"##ת":1299,
"##ش":1300,
"##ک":1301,
"##西":1302,
"##შ":1303,
"##ა":1304,
"##ფ":1305,
"##ი":1306,
"##ш":1307,
"##ё":1308,
"##э":1309,
"##υ":1310,
"##μ":1311,
"##ï":1312,
"##ּ":1313,
"##ק":1314,
"##ַ":1315,
"##ե":1316,
"##ն":1317,
"##ր":1318,
"##ա":1319,
"##լ":1320,
"##ﬁ":1321,
"##±":1322,
"##ź":1323,
"##画":1324,
"##家":1325,
"##ス":1326,
"##タ":1327,
"##ー":1328,
"##ṃ":1329,
"##µ":1330,
"##ג":1331,
"##ө":1332,
"##ә":1333,
"##ơ":1334,
"##เ":1335,
"##พ":1336,
"##ร":1337,
"##า":1338,
"##ง":1339,
"##ิ":1340,
"##å":1341,
"##ט":1342,
"##茶":1343,
"##ф":1344,
"##æ":1345,
"##ˈ":1346,
"##ǫ":1347,
"##ό":1348,
"##ι":1349,
"##ل":1350,
"##ح":1351,
"##د":1352,
"##ي":1353,
"##ة":1354,
"##さ":1355,
"##し":1356,
"##山":1357,
"##ق":1358,
"##Ł":1359,
"##ј":1360,
"##÷":1361,
"##ŭ":1362,
"##ֵ":1363,
"##њ":1364,
"##ா":1365,
"##்":1366,
"##Т":1367,
"##Ń":1368,
"##ס":1369,
"##民":1370,
"##û":1371,
"##ع":1372,
"##Л":1373,
"##ệ":1374,
"##Ò":1375,
"##大":1376,
"##型":1377,
"##人":1378,
"##م":1379,
"##س":1380,
"##ビ":1381,
"##ゴ":1382,
"##خ":1383,
"##ض":1384,
"##ļ":1385,
"##ầ":1386,
"##ར":1387,
"##皇":1388,
"##ω":1389,
"##井":1390,
"##î":1391,
"##ξ":1392,
"##χ":1393,
"##ņ":1394,
"##έ":1395,
"##Ŕ":1396,
"##್":1397,
"##ף":1398,
"##С":1399,
"##Е":1400,
"##Х":1401,
"##ץ":1402,
"##ύ":1403,
"##五":1404,
"##Ø":1405,
"##Э":1406,
"##ţ":1407,
"##ѣ":1408,
"##♭":1409,
"##þ":1410,
"##თ":1411,
"##ნ":1412,
"##ო":1413,
"##ვ":1414,
"##東":1415,
"##ŏ":1416,
"##ķ":1417,
"##ह":1418,
"##न":1419,
"##ा":1420,
"##き":1421,
"##み":1422,
"##џ":1423,
"##ケ":1424,
"##モ":1425,
"##რ":1426,
"##ე":1427,
"##ბ":1428,
"##女":1429,
"##学":1430,
"##海":1431,
"##ζ":1432,
"##È":1433,
"##寺":1434,
"##˘":1435,
"##ģ":1436,
"##文":1437,
"##М":1438,
"##φ":1439,
"##θ":1440,
"##δ":1441,
"##ʊ":1442,
"##ʒ":1443,
"##დ":1444,
"##უ":1445,
"##國":1446,
"##ђ":1447,
"##љ":1448,
"##帝":1449,
"##ș":1450,
"##−":1451,
"##द":1452,
"##्":1453,
"##भ":1454,
"##य":1455,
"##ं":1456,
"##ხ":1457,
"##行":1458,
"##政":1459,
"##本":1460,
"##法":1461,
"##ʲ":1462,
"##ɛ":1463,
"##پ":1464,
"##フ":1465,
"##े":1466,
"##स":1467,
"##ذ":1468,
"##七":1469,
"##式":1470,
"##機":1471,
"##©":1472,
"##̥":1473,
"##安":1474,
"##神":1475,
"##宮":1476,
"##地":1477,
"##ზ":1478,
"##う":1479,
"##र":1480,
"##ण":1481,
"##व":1482,
"##ज":1483,
"##त":1484,
"##Ñ":1485,
"##ط":1486,
"##გ":1487,
"##ძ":1488,
"##ি":1489,
"##¸":1490,
"##木":1491,
"##城":1492,
"##ी":1493,
"##下":1494,
"##吉":1495,
"##郎":1496,
"##Ъ":1497,
"##Ц":1498,
"##ɔ":1499,
"##ῆ":1500,
"##̃":1501,
"##ʁ":1502,
"##َ":1503,
"##ズ":1504,
"##ロ":1505,
"##ウ":1506,
"##ῶ":1507,
"##כ":1508,
"##無":1509,
"##ك":1510,
"##ى":1511,
"##ҧ":1512,
"##ҭ":1513,
"##成":1514,
"##南":1515,
"##省":1516,
"##Ő":1517,
"##Τ":1518,
"##ʹ":1519,
"##ḥ":1520,
"##བ":1521,
"##گ":1522,
"##春":1523,
"##シ":1524,
"##マ":1525,
"##イ":1526,
"##書":1527,
"##Ï":1528,
"##ế":1529,
"##ʰ":1530,
"##ḍ":1531,
"##部":1532,
"##Î":1533,
"##日":1534,
"##武":1535,
"##会":1536,
"##ܐ":1537,
"##प":1538,
"##ニ":1539,
"##メ":1540,
"##ɾ":1541,
"##サ":1542,
"##ǔ":1543,
"##動":1544,
"##Ν":1545,
"##Λ":1546,
"##Α":1547,
"##ノ":1548,
"##コ":1549,
"##Å":1550,
"##Н":1551,
"##語":1552,
"##ლ":1553,
"##ん":1554,
"##ز":1555,
"##қ":1556,
"##ғ":1557,
"##ț":1558,
"##Ε":1559,
"##江":1560,
"##Ë":1561,
"##グ":1562,
"##ヤ":1563,
"##ट":1564,
"##ら":1565,
"##म":1566,
"##ガ":1567,
"##Ο":1568,
"##≥":1569,
"##У":1570,
"##И":1571,
"##華":1572,
"##い":1573,
"##の":1574,
"##Ű":1575,
"##ア":1576,
"##カ":1577,
"##合":1578,
"##ル":1579,
"##Ż":1580,
"##В":1581,
"##О":1582,
"##Б":1583,
"##Ж":1584,
"##生":1585,
"##プ":1586,
"##り":1587,
"##チ":1588,
"##公":1589,
"##ས":1590,
"##ན":1591,
"##ს":1592,
"##ტ":1593,
"##道":1594,
"##ך":1595,
"##島":1596,
"##П":1597,
"##ʻ":1598,
"##ド":1599,
"##レ":1600,
"##კ":1601,
"##მ":1602,
"##ħ":1603,
"##ị":1604,
"##天":1605,
"##く":1606,
"##ʼ":1607,
"##ֻ":1608,
"##є":1609,
"##ミ":1610,
"##ャ":1611,
"##͡":1612,
"##З":1613,
"##ք":1614,
"##ս":1615,
"##្":1616,
"##រ":1617,
"##ǒ":1618,
"##ड":1619,
"##方":1620,
"##デ":1621,
"##ョ":1622,
"##里":1623,
"##ء":1624,
"##غ":1625,
"##ү":1626,
"##ポ":1627,
"##ツ":1628,
"##飛":1629,
"##ĕ":1630,
"##ắ":1631,
"##た":1632,
"##少":1633,
"##į":1634,
"##ُ":1635,
"##ِ":1636,
"##ّ":1637,
"##河":1638,
"##ْ":1639,
"##京":1640,
"##正":1641,
"##子":1642,
"##Γ":1643,
"##Ω":1644,
"##社":1645,
"##セ":1646,
"##̯":1647,
"##朝":1648,
"##一":1649,
"##ǐ":1650,
"##ང":1651,
"##ქ":1652,
"##ც":1653,
"##林":1654,
"##ׂ":1655,
"##ʿ":1656,
"##→":1657,
"##¤":1658,
"##ֲ":1659,
"##ム":1660,
"##º":1661,
"##ư":1662,
"##ब":1663,
"##ạ":1664,
"##十":1665,
"##九":1666,
"##한":1667,
"##手":1668,
"##ո":1669,
"##ի":1670,
"##花":1671,
"##Ρ":1672,
"##Ι":1673,
"##Σ":1674,
"##明":1675,
"##白":1676,
"##兵":1677,
"##Δ":1678,
"##Κ":1679,
"##ў":1680,
"##¦":1681,
"##ÿ":1682,
"##ṇ":1683,
"##҃":1684,
"##ѹ":1685,
"##長":1686,
"##ग":1687,
"##ボ":1688,
"##أ":1689,
"##ψ":1690,
"##ἰ":1691,
"##ả":1692,
"##る":1693,
"##軍":1694,
"##ὸ":1695,
"##川":1696,
"##流":1697,
"##二":1698,
"##ئ":1699,
"##ѧ":1700,
"##野":1701,
"##自":1702,
"##Ф":1703,
"##ấ":1704,
"##ピ":1705,
"##ू":1706,
"##̮":1707,
"##ظ":1708,
"##ʾ":1709,
"##古":1710,
"##ា":1711,
"##ត":1712,
"##ュ":1713,
"##Ш":1714,
"##上":1715,
"##将":1716,
"##थ":1717,
"##ི":1718,
"##ག":1719,
"##क":1720,
"##ོ":1721,
"##յ":1722,
"##Ş":1723,
"##ġ":1724,
"##̆":1725,
"##ộ":1726,
"##ष":1727,
"##ः":1728,
"##北":1729,
"##ུ":1730,
"##ལ":1731,
"##ҳ":1732,
"##八":1733,
"##艦":1734,
"##隊":1735,
"##治":1736,
"##和":1737,
"##三":1738,
"##ˌ":1739,
"##ܝ":1740,
"##ု":1741,
"##်":1742,
"##ص":1743,
"##ւ":1744,
"##ɐ":1745,
"##Υ":1746,
"##ہ":1747,
"##ố":1748,
"##龍":1749,
"##ª":1750,
"##ǝ":1751,
"##ồ":1752,
"##●":1753,
"##आ":1754,
"##高":1755,
"##原":1756,
"##ὐ":1757,
"##真":1758,
"##˛":1759,
"##田":1760,
"##ད":1761,
"##ེ":1762,
"##オ":1763,
"##إ":1764,
"##ハ":1765,
"##戦":1766,
"##ſ":1767,
"##া":1768,
"##代":1769,
"##Ч":1770,
"##ɡ":1771,
"##ァ":1772,
"##ễ":1773,
"##կ":1774,
"##Ю":1775,
"##ジ":1776,
"##四":1777,
"##⋅":1778,
"##ὶ":1779,
"##ま":1780,
"##時":1781,
"##平":1782,
"##ダ":1783,
"##風":1784,
"##町":1785,
"##ờ":1786,
"##石":1787,
"##エ":1788,
"##水":1789,
"##ध":1790,
"##航":1791,
"##空":1792,
"##な":1793,
"##太":1794,
"##ネ":1795,
"##ῦ":1796,
"##ブ":1797,
"##£":1798,
"##Η":1799,
"##ギ":1800,
"##վ":1801,
"##տ":1802,
"##キ":1803,
"##ợ":1804,
"##چ":1805,
"##ἀ":1806,
"##Щ":1807,
"##ũ":1808,
"##ŷ":1809,
"##Я":1810,
"##信":1811,
"##च":1812,
"##立":1813,
"##ث":1814,
"##Й":1815,
"##漢":1816,
"##新":1817,
"##գ":1818,
"##と":1819,
"##∙":1820,
"##ứ":1821,
"##李":1822,
"##ụ":1823,
"##光":1824,
"##宗":1825,
"##¹":1826,
"##お":1827,
"##等":1828,
"##駆":1829,
"##逐":1830,
"##あ":1831,
"##Π":1832,
"##ჩ":1833,
"##直":1834,
"##Μ":1835,
"##ゲ":1836,
"##小":1837,
"##中":1838,
"##ཁ":1839,
"##院":1840,
"##ล":1841,
"##մ":1842,
"##İ":1843,
"##株":1844,
"##ủ":1845,
"##Φ":1846,
"##ƒ":1847,
"##Χ":1848,
"##Θ":1849,
"##ჯ":1850,
"##元":1851,
"##½":1852,
"##ྱ":1853,
"##台":1854,
"##ἐ":1855,
"##ు":1856,
"##І":1857,
"##Β":1858,
"##≤":1859,
"##佐":1860,
"##─":1861,
"##∞":1862,
"##金":1863,
"##ワ":1864,
"##∆":1865,
"##♯":1866,
"##ɣ":1867,
"##Ξ":1868,
"##ɲ":1869,
"##∀":1870,
"##¼":1871,
"##√":1872,
"##Հ":1873,
"##ữ":1874,
"##↓":1875,
"##མ":1876,
"##²":1877,
"##¾":1878,
"##ཆ":1879,
"##≡":1880,
"##东":1881,
"##འ":1882,
"##Ā":1883,
"##Ō":1884,
"##Ј":1885,
"##³":1886,
"##Ș":1887,
"##≈":1888,
"##¬":1889,
"##st":1890,
"##ní":1891,
"##ov":1892,
"##ch":1893,
"##ou":1894,
"##en":1895,
"##la":1896,
"##ra":1897,
"##le":1898,
"po":1899,
"##ro":1900,
"##li":1901,
"na":1902,
"##te":1903,
"se":1904,
"ne":1905,
"##ře":1906,
"##ho":1907,
"##ce":1908,
"##sk":1909,
"je":1910,
"##in":1911,
"do":1912,
"##em":1913,
"##ak":1914,
"##al":1915,
"##an":1916,
"##ně":1917,
"##rá":1918,
"##at":1919,
"pro":1920,
"##ni":1921,
"##or":1922,
"##od":1923,
"##ři":1924,
"##ří":1925,
"##on":1926,
"st":1927,
"##de":1928,
"za":1929,
"##ci":1930,
"##lo":1931,
"##ku":1932,
"##ti":1933,
"##jí":1934,
"##ka":1935,
"##no":1936,
"vy":1937,
"##er":1938,
"to":1939,
"##je":1940,
"##it":1941,
"##ky":1942,
"##ad":1943,
"##ar":1944,
"##ých":1945,
"by":1946,
"##to":1947,
"##ší":1948,
"##el":1949,
"pře":1950,
"##il":1951,
"##né":1952,
"##av":1953,
"ro":1954,
"##cí":1955,
"##po":1956,
"kte":1957,
"##tě":1958,
"##na":1959,
"##et":1960,
"že":1961,
"##vě":1962,
"##va":1963,
"##ed":1964,
"##ck":1965,
"ob":1966,
"##mi":1967,
"##ek":1968,
"od":1969,
"##ého":1970,
"##ru":1971,
"##lu":1972,
"##ko":1973,
"zá":1974,
"js":1975,
"##ová":1976,
"##mě":1977,
"##ná":1978,
"##dy":1979,
"ve":1980,
"##lá":1981,
"##me":1982,
"ná":1983,
"##sti":1984,
"##mu":1985,
"##ob":1986,
"pod":1987,
"při":1988,
"##ze":1989,
"##dě":1990,
"kter":1991,
"tak":1992,
"vý":1993,
"##že":1994,
"pr":1995,
"##vo":1996,
"mě":1997,
"##ví":1998,
"##ez":1999,
"##by":2000,
"##vá":2001,
"##ji":2002,
"##ské":2003,
"##tu":2004,
"si":2005,
"##ové":2006,
"##as":2007,
"##es":2008,
"##ká":2009,
"##tí":2010,
"pří":2011,
"##ta":2012,
"ně":2013,
"##id":2014,
"##ým":2015,
"ko":2016,
"jak":2017,
"ale":2018,
"##lí":2019,
"##ním":2020,
"##ud":2021,
"před":2022,
"##ál":2023,
"##mo":2024,
"mo":2025,
"##rav":2026,
"##še":2027,
"##ova":2028,
"##ly":2029,
"##ist":2030,
"jed":2031,
"##is":2032,
"##nu":2033,
"roz":2034,
"##led":2035,
"##lad":2036,
"##tel":2037,
"sv":2038,
"##čí":2039,
"##nou":2040,
"ch":2041,
"##át":2042,
"nej":2043,
"##ční":2044,
"##bo":2045,
"##uje":2046,
"Po":2047,
"sou":2048,
"mu":2049,
"##lav":2050,
"##ště":2051,
"##ent":2052,
"##ny":2053,
"##ád":2054,
"##am":2055,
"##ný":2056,
"##ím":2057,
"##ém":2058,
"kon":2059,
"##hod":2060,
"##ri":2061,
"##kon":2062,
"##ne":2063,
"##ili":2064,
"##up":2065,
"mí":2066,
"##ty":2067,
"##stav":2068,
"##če":2069,
"##ních":2070,
"##lov":2071,
"##ali":2072,
"##ude":2073,
"##mí":2074,
"##ovat":2075,
"sp":2076,
"##nost":2077,
"##est":2078,
"vě":2079,
"spo":2080,
"##du":2081,
"##rov":2082,
"##ma":2083,
"##oru":2084,
"##vní":2085,
"##ží":2086,
"re":2087,
"ho":2088,
"##do":2089,
"##ků":2090,
"##bu":2091,
"ni":2092,
"##pad":2093,
"##má":2094,
"in":2095,
"ji":2096,
"##da":2097,
"te":2098,
"jsem":2099,
"le":2100,
"jako":2101,
"už":2102,
"Na":2103,
"##lou":2104,
"má":2105,
"##pe":2106,
"##pě":2107,
"##dá":2108,
"##kov":2109,
"kdy":2110,
"##ují":2111,
"##ick":2112,
"který":2113,
"##bě":2114,
"##sto":2115,
"##prav":2116,
"##ba":2117,
"##ran":2118,
"ví":2119,
"##jší":2120,
"##oval":2121,
"##zi":2122,
"ma":2123,
"které":2124,
"##ský":2125,
"##sí":2126,
"##sta":2127,
"##kou":2128,
"##ního":2129,
"ka":2130,
"##stup":2131,
"tr":2132,
"jsou":2133,
"Ne":2134,
"bude":2135,
"vz":2136,
"##vět":2137,
"##ec":2138,
"##vr":2139,
"##inu":2140,
"hod":2141,
"jen":2142,
"##ry":2143,
"dě":2144,
"##00":2145,
"##tá":2146,
"##vy":2147,
"##klad":2148,
"jsme":2149,
"##ského":2150,
"##se":2151,
"##či":2152,
"##ené":2153,
"##bí":2154,
"vš":2155,
"co":2156,
"##ve":2157,
"##di":2158,
"nebo":2159,
"ze":2160,
"##vod":2161,
"##ol":2162,
"##sled":2163,
"os":2164,
"##ování":2165,
"##nosti":2166,
"##jem":2167,
"##hu":2168,
"prá":2169,
"pra":2170,
"##alší":2171,
"##řed":2172,
"##ům":2173,
"##ných":2174,
"##cích":2175,
"Če":2176,
"jeho":2177,
"lid":2178,
"##pu":2179,
"19":2180,
"byl":2181,
"##zí":2182,
"bud":2183,
"Je":2184,
"##men":2185,
"vel":2186,
"##ově":2187,
"##ter":2188,
"##rát":2189,
"let":2190,
"také":2191,
"##om":2192,
"##ste":2193,
"tu":2194,
"##si":2195,
"tě":2196,
"##stí":2197,
"##ruh":2198,
"##lem":2199,
"##za":2200,
"##val":2201,
"##ská":2202,
"bý":2203,
"až":2204,
"Pro":2205,
"##re":2206,
"##ství":2207,
"##ot":2208,
"poli":2209,
"##žit":2210,
"##kem":2211,
"další":2212,
"##ena":2213,
"cel":2214,
"##ži":2215,
"aby":2216,
"##my":2217,
"##dí":2218,
"ří":2219,
"##ských":2220,
"pot":2221,
"##ovan":2222,
"##vi":2223,
"##ina":2224,
"##op":2225,
"če":2226,
"##sku":2227,
"##hra":2228,
"##lé":2229,
"##ový":2230,
"##ha":2231,
"moh":2232,
"vše":2233,
"To":2234,
"##oz":2235,
"##chá":2236,
"##leč":2237,
"di":2238,
"která":2239,
"pů":2240,
"##cké":2241,
"##iny":2242,
"však":2243,
"##ovi":2244,
"##ám":2245,
"##alo":2246,
"##rů":2247,
"##ného":2248,
"##tek":2249,
"##zna":2250,
"##sa":2251,
"##koli":2252,
"nep":2253,
"tře":2254,
"St":2255,
"mi":2256,
"než":2257,
"nap":2258,
"##raz":2259,
"##hy":2260,
"##ie":2261,
"bez":2262,
"##iná":2263,
"##ůže":2264,
"##řej":2265,
"##ir":2266,
"když":2267,
"de":2268,
"ži":2269,
"druh":2270,
"proto":2271,
"##há":2272,
"##stě":2273,
"##len":2274,
"##ši":2275,
"Do":2276,
"koru":2277,
"##ved":2278,
"au":2279,
"pou":2280,
"##ezi":2281,
"##ct":2282,
"ještě":2283,
"pa":2284,
"##lat":2285,
"Pra":2286,
"li":2287,
"##ální":2288,
"podle":2289,
"##nice":2290,
"##chod":2291,
"bylo":2292,
"##pr":2293,
"Pod":2294,
"##kt":2295,
"byla":2296,
"dob":2297,
"jin":2298,
"zp":2299,
"##čas":2300,
"##sob":2301,
"##oup":2302,
"##sko":2303,
"korun":2304,
"té":2305,
"ak":2306,
"##gra":2307,
"##spě":2308,
"##bor":2309,
"##čně":2310,
"přes":2311,
"poz":2312,
"nad":2313,
"##jich":2314,
"ani":2315,
"stá":2316,
"##itu":2317,
"##vat":2318,
"##ových":2319,
"Mi":2320,
"společ":2321,
"mili":2322,
"##tní":2323,
"zd":2324,
"##nes":2325,
"##hrá":2326,
"ško":2327,
"být":2328,
"##ič":2329,
"##ení":2330,
"své":2331,
"řek":2332,
"minu":2333,
"##sp":2334,
"##ala":2335,
"vla":2336,
"budou":2337,
"##stat":2338,
"dů":2339,
"zač":2340,
"##ys":2341,
"Ji":2342,
"první":2343,
"něk":2344,
"všech":2345,
"stra":2346,
"tý":2347,
"##rod":2348,
"##ená":2349,
"##zení":2350,
"bo":2351,
"kra":2352,
"##zd":2353,
"##ub":2354,
"tom":2355,
"kde":2356,
"##ček":2357,
"##nější":2358,
"pak":2359,
"##let":2360,
"vys":2361,
"rozhod":2362,
"hlav":2363,
"##ští":2364,
"##itel":2365,
"mož":2366,
"zem":2367,
"dí":2368,
"jedno":2369,
"roku":2370,
"##mé":2371,
"pě":2372,
"200":2373,
"či":2374,
"ku":2375,
"jejich":2376,
"##aro":2377,
"ten":2378,
"op":2379,
"##ké":2380,
"Za":2381,
"##nit":2382,
"něj":2383,
"sk":2384,
"##for":2385,
"Mar":2386,
"roce":2387,
"dva":2388,
"##ana":2389,
"##eno":2390,
"lé":2391,
"##jící":2392,
"čá":2393,
"není":2394,
"vá":2395,
"##tom":2396,
"##ani":2397,
"##um":2398,
"rad":2399,
"mezi":2400,
"##kra":2401,
"Mo":2402,
"##čit":2403,
"toho":2404,
"vo":2405,
"##žd":2406,
"##un":2407,
"sku":2408,
"hrá":2409,
"tři":2410,
"##tej":2411,
"kteří":2412,
"##stní":2413,
"záp":2414,
"##ovou":2415,
"##isí":2416,
"##ců":2417,
"##ším":2418,
"může":2419,
"##sté":2420,
"##kud":2421,
"Jak":2422,
"dost":2423,
"##vu":2424,
"hra":2425,
"##ového":2426,
"stav":2427,
"ex":2428,
"##řad":2429,
"##dr":2430,
"##tem":2431,
"##ár":2432,
"stře":2433,
"prost":2434,
"Ve":2435,
"##ený":2436,
"pos":2437,
"Ch":2438,
"již":2439,
"sa":2440,
"##hled":2441,
"##pl":2442,
"tím":2443,
"##ovali":2444,
"##eny":2445,
"##vé":2446,
"##án":2447,
"##ska":2448,
"nez":2449,
"ty":2450,
"##lan":2451,
"min":2452,
"svě":2453,
"vět":2454,
"##chu":2455,
"##eně":2456,
"20":2457,
"##nout":2458,
"##pa":2459,
"živo":2460,
"dv":2461,
"##ině":2462,
"jí":2463,
"Ko":2464,
"##co":2465,
"lo":2466,
"##chy":2467,
"čt":2468,
"##im":2469,
"##vý":2470,
"##ným":2471,
"##rg":2472,
"##ab":2473,
"nás":2474,
"proti":2475,
"##vro":2476,
"rod":2477,
"sy":2478,
"des":2479,
"##ech":2480,
"případ":2481,
"tisí":2482,
"zápas":2483,
"##ková":2484,
"čer":2485,
"##eme":2486,
"##ském":2487,
"několi":2488,
"##lní":2489,
"pat":2490,
"##ovala":2491,
"čty":2492,
"mno":2493,
"zí":2494,
"par":2495,
"##lep":2496,
"##ion":2497,
"pov":2498,
"##ych":2499,
"sto":2500,
"prac":2501,
"##bli":2502,
"uved":2503,
"##atím":2504,
"##vali":2505,
"nemo":2506,
"její":2507,
"posled":2508,
"##sá":2509,
"kom":2510,
"##cký":2511,
"##ej":2512,
"##kr":2513,
"##hem":2514,
"ta":2515,
"##lém":2516,
"tra":2517,
"představ":2518,
"neb":2519,
"##tra":2520,
"##tech":2521,
"##hla":2522,
"řekl":2523,
"##čka":2524,
"##ur":2525,
"leto":2526,
"##fi":2527,
"##řád":2528,
"##cky":2529,
"ru":2530,
"tam":2531,
"prav":2532,
"fir":2533,
"##aly":2534,
"více":2535,
"##ovní":2536,
"mají":2537,
"##cha":2538,
"Zá":2539,
"##rob":2540,
"##skou":2541,
"dá":2542,
"##stá":2543,
"##ané":2544,
"ní":2545,
"měl":2546,
"##ující":2547,
"##čet":2548,
"##čil":2549,
"##ření":2550,
"čas":2551,
"##lení":2552,
"##sky":2553,
"##žení":2554,
"stát":2555,
"žád":2556,
"##říklad":2557,
"##log":2558,
"##tor":2559,
"##tiž":2560,
"##tká":2561,
"proje":2562,
"##vají":2563,
"každ":2564,
"totiž":2565,
"Ale":2566,
"##edy":2567,
"hodin":2568,
"##us":2569,
"Kdy":2570,
"pla":2571,
"prob":2572,
"##slav":2573,
"slu":2574,
"##ati":2575,
"##kaz":2576,
"prů":2577,
"Bo":2578,
"Nej":2579,
"Ně":2580,
"bě":2581,
"##šení":2582,
"##ber":2583,
"##ické":2584,
"Při":2585,
"domá":2586,
"##rně":2587,
"Vy":2588,
"##kla":2589,
"##ver":2590,
"konce":2591,
"cest":2592,
"##čení":2593,
"##tiv":2594,
"stej":2595,
"sil":2596,
"##ném":2597,
"##luv":2598,
"vi":2599,
"ře":2600,
"so":2601,
"##ča":2602,
"Ma":2603,
"polici":2604,
"##děl":2605,
"tomu":2606,
"chy":2607,
"místo":2608,
"##vrop":2609,
"##nov":2610,
"##měst":2611,
"musí":2612,
"##nil":2613,
"##lád":2614,
"no":2615,
"ke":2616,
"spolu":2617,
"Li":2618,
"Podle":2619,
"Pře":2620,
"##vů":2621,
"star":2622,
"soutě":2623,
"bych":2624,
"dvě":2625,
"protože":2626,
"##hlá":2627,
"ved":2628,
"##čera":2629,
"př":2630,
"##ilo":2631,
"##ležit":2632,
"Ka":2633,
"##sed":2634,
"vod":2635,
"##pra":2636,
"nich":2637,
"klu":2638,
"nám":2639,
"nabí":2640,
"tisíc":2641,
"##tr":2642,
"##bra":2643,
"sob":2644,
"##ník":2645,
"Od":2646,
"##ut":2647,
"##čky":2648,
"obje":2649,
"##žel":2650,
"osob":2651,
"##az":2652,
"Tak":2653,
"##děli":2654,
"vů":2655,
"Pet":2656,
"##and":2657,
"##nění":2658,
"##stoup":2659,
"ur":2660,
"Ho":2661,
"##chni":2662,
"##ených":2663,
"##těz":2664,
"zna":2665,
"infor":2666,
"##enta":2667,
"sm":2668,
"asi":2669,
"##šť":2670,
"an":2671,
"##kové":2672,
"##roz":2673,
"##ými":2674,
"##ily":2675,
"##čer":2676,
"prov":2677,
"##cent":2678,
"##ing":2679,
"dlou":2680,
"##rch":2681,
"##tele":2682,
"##ort":2683,
"##ila":2684,
"##sou":2685,
"##ckého":2686,
"##mer":2687,
"##ady":2688,
"politi":2689,
"##ory":2690,
"Jan":2691,
"neby":2692,
"##ner":2693,
"nedo":2694,
"dom":2695,
"ov":2696,
"pop":2697,
"bod":2698,
"lidí":2699,
"##bal":2700,
"##ene":2701,
"týd":2702,
"##ůsob":2703,
"By":2704,
"stud":2705,
"milion":2706,
"sí":2707,
"tedy":2708,
"velmi":2709,
"##nici":2710,
"##mín":2711,
"##tkání":2712,
"##nám":2713,
"##káz":2714,
"##su":2715,
"například":2716,
"Kar":2717,
"15":2718,
"##emi":2719,
"změ":2720,
"fin":2721,
"vyš":2722,
"seb":2723,
"##ností":2724,
"mal":2725,
"třeba":2726,
"##teč":2727,
"##měř":2728,
"fot":2729,
"Mě":2730,
"##ost":2731,
"den":2732,
"10":2733,
"##hl":2734,
"dnes":2735,
"Vý":2736,
"Ná":2737,
"##liv":2738,
"##ale":2739,
"tří":2740,
"sch":2741,
"##ul":2742,
"muž":2743,
"sed":2744,
"##ís":2745,
"##nání":2746,
"čtvr":2747,
"##man":2748,
"##nika":2749,
"##lož":2750,
"problém":2751,
"##ori":2752,
"pomo":2753,
"dvou":2754,
"skup":2755,
"jim":2756,
"Jed":2757,
"##van":2758,
"##kod":2759,
"tele":2760,
"##yní":2761,
"několik":2762,
"mlad":2763,
"Když":2764,
"cí":2765,
"říká":2766,
"##ždy":2767,
"minist":2768,
"Te":2769,
"##ven":2770,
"připrav":2771,
"##nutí":2772,
"potře":2773,
"##pí":2774,
"kam":2775,
"##šem":2776,
"##ckých":2777,
"nějak":2778,
"30":2779,
"##ůj":2780,
"samo":2781,
"##eni":2782,
"18":2783,
"##šel":2784,
"mohou":2785,
"nech":2786,
"An":2787,
"podob":2788,
"byly":2789,
"##mou":2790,
"zahra":2791,
"dne":2792,
"##publi":2793,
"Br":2794,
"##stra":2795,
"krá":2796,
"##řejmě":2797,
"mod":2798,
"zatím":2799,
"města":2800,
"sez":2801,
"řed":2802,
"Vá":2803,
"bran":2804,
"##dal":2805,
"domácí":2806,
"nic":2807,
"##eb":2808,
"včera":2809,
"pouze":2810,
"##pět":2811,
"ote":2812,
"Ob":2813,
"pl":2814,
"vol":2815,
"##ání":2816,
"##ag":2817,
"svět":2818,
"##zor":2819,
"rů":2820,
"met":2821,
"##lici":2822,
"mít":2823,
"##zem":2824,
"ti":2825,
"fil":2826,
"##inou":2827,
"##rom":2828,
"měsí":2829,
"dokon":2830,
"##dení":2831,
"prostřed":2832,
"##rán":2833,
"kraj":2834,
"kole":2835,
"chtě":2836,
"nes":2837,
"součas":2838,
"čtyři":2839,
"odp":2840,
"##roj":2841,
"##ard":2842,
"##ráv":2843,
"plá":2844,
"Jo":2845,
"##til":2846,
"##RA":2847,
"199":2848,
"##las":2849,
"org":2850,
"##jde":2851,
"##nik":2852,
"##rou":2853,
"závod":2854,
"jeden":2855,
"době":2856,
"rych":2857,
"##ane":2858,
"progra":2859,
"získ":2860,
"rok":2861,
"zdra":2862,
"nov":2863,
"nik":2864,
"lidé":2865,
"##té":2866,
"##rost":2867,
"##bi":2868,
"náv":2869,
"In":2870,
"vyu":2871,
"republi":2872,
"##lově":2873,
"přede":2874,
"mluv":2875,
"pá":2876,
"Sp":2877,
"Pr":2878,
"způsob":2879,
"rek":2880,
"##lik":2881,
"šp":2882,
"##jeme":2883,
"##vůli":2884,
"##cet":2885,
"17":2886,
"##del":2887,
"##itua":2888,
"##rt":2889,
"měst":2890,
"řad":2891,
"Ten":2892,
"##tit":2893,
"cen":2894,
"finan":2895,
"Hra":2896,
"pořád":2897,
"nové":2898,
"Le":2899,
"tým":2900,
"##pla":2901,
"kli":2902,
"neu":2903,
"obchod":2904,
"##vad":2905,
"Co":2906,
"trené":2907,
"kterou":2908,
"##des":2909,
"Lu":2910,
"##sil":2911,
"fun":2912,
"staro":2913,
"letech":2914,
"##rat":2915,
"tvr":2916,
"##cká":2917,
"cent":2918,
"Jiří":2919,
"##ký":2920,
"##ceti":2921,
"##ato":2922,
"Fran":2923,
"uvedl":2924,
"nevy":2925,
"##kách":2926,
"##vid":2927,
"gó":2928,
"##řit":2929,
"12":2930,
"##rem":2931,
"nepo":2932,
"##esti":2933,
"nemoc":2934,
"##lez":2935,
"veřej":2936,
"##nad":2937,
"práce":2938,
"Pokud":2939,
"##lý":2940,
"##hle":2941,
"vlá":2942,
"oprav":2943,
"##sad":2944,
"##álně":2945,
"##pi":2946,
"této":2947,
"##enou":2948,
"stále":2949,
"utkání":2950,
"někter":2951,
"##áz":2952,
"právě":2953,
"pět":2954,
"zde":2955,
"##lice":2956,
"ode":2957,
"##dek":2958,
"těch":2959,
"situa":2960,
"sna":2961,
"výstav":2962,
"##ance":2963,
"##čních":2964,
"část":2965,
"něco":2966,
"##víc":2967,
"##vání":2968,
"měli":2969,
"České":2970,
"##ovo":2971,
"##vším":2972,
"informa":2973,
"postup":2974,
"jste":2975,
"uz":2976,
"vlast":2977,
"prv":2978,
"Pav":2979,
"Ví":2980,
"větš":2981,
"zů":2982,
"##ga":2983,
"což":2984,
"prez":2985,
"##sy":2986,
"Ro":2987,
"##emo":2988,
"##krát":2989,
"tento":2990,
"kou":2991,
"chce":2992,
"##kovi":2993,
"skon":2994,
"základ":2995,
"##gy":2996,
"##bav":2997,
"vítěz":2998,
"##pis":2999,
"kap":3000,
"měla":3001,
"zak":3002,
"led":3003,
"umě":3004,
"##met":3005,
"##liš":3006,
"nyní":3007,
"##ským":3008,
"##eti":3009,
"druhé":3010,
"děti":3011,
"##čan":3012,
"##nat":3013,
"zákon":3014,
"##anou":3015,
"vyso":3016,
"poslední":3017,
"člen":3018,
"##ktu":3019,
"00":3020,
"##šek":3021,
"##ráž":3022,
"Před":3023,
"Pří":3024,
"úřad":3025,
"zv":3026,
"##jed":3027,
"kont":3028,
"úspě":3029,
"##šní":3030,
"##stru":3031,
"byli":3032,
"##čku":3033,
"##kce":3034,
"reg":3035,
"oko":3036,
"##romě":3037,
"##tů":3038,
"mist":3039,
"šest":3040,
"##hlí":3041,
"##nů":3042,
"##bec":3043,
"kvali":3044,
"##děla":3045,
"##spo":3046,
"ča":3047,
"##mys":3048,
"##cti":3049,
"země":3050,
"##vis":3051,
"##ách":3052,
"mus":3053,
"##OV":3054,
"kvůli":3055,
"čin":3056,
"##ctví":3057,
"komu":3058,
"##zu":3059,
"##desát":3060,
"##telé":3061,
"##loven":3062,
"##ke":3063,
"míst":3064,
"##ari":3065,
"rád":3066,
"##bní":3067,
"především":3068,
"všechny":3069,
"tur":3070,
"půl":3071,
"kolem":3072,
"výkon":3073,
"##rál":3074,
"kri":3075,
"##městn":3076,
"16":3077,
"##ned":3078,
"##he":3079,
"##ůž":3080,
"postav":3081,
"procent":3082,
"##ovém":3083,
"provoz":3084,
"##větší":3085,
"Pl":3086,
"sta":3087,
"##jím":3088,
"tro":3089,
"du":3090,
"hist":3091,
"##hou":3092,
"uni":3093,
"##zku":3094,
"##lit":3095,
"svého":3096,
"##zeň":3097,
"##hov":3098,
"##eč":3099,
"for":3100,
"oby":3101,
"##zy":3102,
"vlastní":3103,
"##žil":3104,
"kni":3105,
"##ák":3106,
"##řilo":3107,
"##ované":3108,
"##peč":3109,
"doprav":3110,
"společnosti":3111,
"vždy":3112,
"dobře":3113,
"mluvčí":3114,
"##řil":3115,
"##letí":3116,
"letos":3117,
"ředitel":3118,
"otev":3119,
"pož":3120,
"up":3121,
"##stva":3122,
"Evrop":3123,
"úto":3124,
"určit":3125,
"##chází":3126,
"vyt":3127,
"dr":3128,
"##yslí":3129,
"##átku":3130,
"##bý":3131,
"##čin":3132,
"Kč":3133,
"##voj":3134,
"Mu":3135,
"Ni":3136,
"##šlo":3137,
"##ata":3138,
"##ář":3139,
"##sla":3140,
"##otu":3141,
"##aně":3142,
"11":3143,
"těž":3144,
"Praha":3145,
"Pa":3146,
"14":3147,
"trest":3148,
"##oví":3149,
"Re":3150,
"nem":3151,
"obla":3152,
"##cela":3153,
"kul":3154,
"svou":3155,
"##lil":3156,
"třetí":3157,
"##losti":3158,
"##lepší":3159,
"##dět":3160,
"##lekt":3161,
"##oto":3162,
"případě":3163,
"##kro":3164,
"moc":3165,
"hodno":3166,
"Vě":3167,
"život":3168,
"list":3169,
"dál":3170,
"soud":3171,
"##tivní":3172,
"Sou":3173,
"vyp":3174,
"##níků":3175,
"##teri":3176,
"##sah":3177,
"vysvět":3178,
"auto":3179,
"návště":3180,
"mé":3181,
"##gen":3182,
"##sem":3183,
"##šit":3184,
"##věd":3185,
"ci":3186,
"Par":3187,
"organi":3188,
"dobr":3189,
"##sty":3190,
"něm":3191,
"##ději":3192,
"ček":3193,
"ban":3194,
"soci":3195,
"lí":3196,
"##rní":3197,
"##znam":3198,
"##krač":3199,
"člově":3200,
"kr":3201,
"201":3202,
"nemá":3203,
"sice":3204,
"##rodní":3205,
"Mart":3206,
"##enci":3207,
"##eň":3208,
"jednot":3209,
"Petr":3210,
"##kono":3211,
"##lek":3212,
"zku":3213,
"##jít":3214,
"začí":3215,
"##tře":3216,
"nejen":3217,
"##dil":3218,
"vůbec":3219,
"##eníze":3220,
"podí":3221,
"##šti":3222,
"chod":3223,
"##ment":3224,
"teď":3225,
"##hru":3226,
"##yk":3227,
"sr":3228,
"##dob":3229,
"13":3230,
"Bu":3231,
"počí":3232,
"##aví":3233,
"nabíd":3234,
"býval":3235,
"##ický":3236,
"##stře":3237,
"##pozi":3238,
"dalších":3239,
"##zace":3240,
"##žně":3241,
"opět":3242,
"smě":3243,
"odbor":3244,
"##var":3245,
"##oda":3246,
"##aná":3247,
"připo":3248,
"##nem":3249,
"##ence":3250,
"hled":3251,
"##oucí":3252,
"zda":3253,
"och":3254,
"my":3255,
"Jaro":3256,
"mimo":3257,
"man":3258,
"prezid":3259,
"poč":3260,
"neza":3261,
"##ava":3262,
"rov":3263,
"kdo":3264,
"##ST":3265,
"hodně":3266,
"##ška":3267,
"zájem":3268,
"voz":3269,
"sport":3270,
"Roz":3271,
"růz":3272,
"téměř":3273,
"násled":3274,
"kultu":3275,
"##opak":3276,
"svých":3277,
"dos":3278,
"##lon":3279,
"zra":3280,
"Jen":3281,
"navíc":3282,
"##níci":3283,
"##bali":3284,
"##teg":3285,
"##ev":3286,
"fotbal":3287,
"elekt":3288,
"##ér":3289,
"spe":3290,
"úča":3291,
"##au":3292,
"##nými":3293,
"roční":3294,
"nemě":3295,
"části":3296,
"soupe":3297,
"patří":3298,
"poku":3299,
"##vyš":3300,
"##odu":3301,
"##ity":3302,
"zdravo":3303,
"##cho":3304,
"al":3305,
"##race":3306,
"##per":3307,
"hor":3308,
"osm":3309,
"##stvo":3310,
"Vel":3311,
"##ckou":3312,
"vrá":3313,
"##ovy":3314,
"So":3315,
"dop":3316,
"va":3317,
"školy":3318,
"Kon":3319,
"milionů":3320,
"Rad":3321,
"##ména":3322,
"svůj":3323,
"##én":3324,
"##dou":3325,
"sobotu":3326,
"her":3327,
"inter":3328,
"sedm":3329,
"peníze":3330,
"##nal":3331,
"služ":3332,
"prode":3333,
"stejně":3334,
"otá":3335,
"##čá":3336,
"zahrani":3337,
"dra":3338,
"##slu":3339,
"já":3340,
"komp":3341,
"##šet":3342,
"Ta":3343,
"Spo":3344,
"##sle":3345,
"každý":3346,
"##álu":3347,
"##hat":3348,
"##cem":3349,
"##éf":3350,
"##ig":3351,
"naše":3352,
"##lých":3353,
"výsled":3354,
"Prá":3355,
"br":3356,
"příští":3357,
"##onu":3358,
"zvý":3359,
"jist":3360,
"##stu":3361,
"##zv":3362,
"##stů":3363,
"hlavně":3364,
"výro":3365,
"##boru":3366,
"boj":3367,
"světa":3368,
"největší":3369,
"##ken":3370,
"víc":3371,
"akci":3372,
"pokud":3373,
"dokonce":3374,
"##nictví":3375,
"##dech":3376,
"ovšem":3377,
"jde":3378,
"Se":3379,
"nejlepší":3380,
"jiné":3381,
"##les":3382,
"##tal":3383,
"závě":3384,
"##cháze":3385,
"ČS":3386,
"pokrač":3387,
"##čního":3388,
"chví":3389,
"rá":3390,
"##kres":3391,
"##roveň":3392,
"techni":3393,
"##ňuje":3394,
"škol":3395,
"##cení":3396,
"větší":3397,
"během":3398,
"obyva":3399,
"##bou":3400,
"ostat":3401,
"##ia":3402,
"##št":3403,
"policie":3404,
"polov":3405,
"##py":3406,
"televi":3407,
"##ovým":3408,
"amer":3409,
"obě":3410,
"hráč":3411,
"##ely":3412,
"Má":3413,
"##mat":3414,
"takže":3415,
"léka":3416,
"podp":3417,
"vás":3418,
"##byt":3419,
"spí":3420,
"##nic":3421,
"Dě":3422,
"##kci":3423,
"##lů":3424,
"působ":3425,
"trenér":3426,
"snad":3427,
"Tře":3428,
"firmy":3429,
"nakon":3430,
"##žší":3431,
"Al":3432,
"řid":3433,
"##drž":3434,
"Ba":3435,
"nakonec":3436,
"sebe":3437,
"vedení":3438,
"##kům":3439,
"bře":3440,
"OD":3441,
"potvr":3442,
"##novu":3443,
"jas":3444,
"místě":3445,
"##tečně":3446,
"da":3447,
"##lín":3448,
"##lin":3449,
"Praze":3450,
"Di":3451,
"pi":3452,
"##ap":3453,
"čtvrt":3454,
"##nila":3455,
"##prez":3456,
"##osti":3457,
"Jose":3458,
"##ít":3459,
"##znamen":3460,
"praž":3461,
"jedin":3462,
"bar":3463,
"on":3464,
"zase":3465,
"##olog":3466,
"důvod":3467,
"zaměstn":3468,
"muse":3469,
"občan":3470,
"Vác":3471,
"##řů":3472,
"Já":3473,
"##stém":3474,
"vám":3475,
"##čila":3476,
"##teli":3477,
"strany":3478,
"##ony":3479,
"tradi":3480,
"##zni":3481,
"lze":3482,
"hosp":3483,
"pan":3484,
"foto":3485,
"mohl":3486,
"ČR":3487,
"##ín":3488,
"film":3489,
"zaji":3490,
"##lomou":3491,
"výrob":3492,
"##dělá":3493,
"##měr":3494,
"zná":3495,
"##dní":3496,
"##obil":3497,
"dis":3498,
"##náct":3499,
"ps":3500,
"speci":3501,
"dru":3502,
"zastup":3503,
"slav":3504,
"tohoto":3505,
"##letý":3506,
"sní":3507,
"původ":3508,
"##lost":3509,
"##koj":3510,
"##ond":3511,
"##poč":3512,
"25":3513,
"lá":3514,
"##plně":3515,
"lep":3516,
"Josef":3517,
"US":3518,
"polo":3519,
"##min":3520,
"pracovní":3521,
"květ":3522,
"##pení":3523,
"##hruba":3524,
"##zní":3525,
"##inále":3526,
"##prve":3527,
"často":3528,
"##hdy":3529,
"##kal":3530,
"práci":3531,
"##cen":3532,
"slov":3533,
"voj":3534,
"tady":3535,
"Už":3536,
"hlas":3537,
"med":3538,
"##dit":3539,
"podmín":3540,
"možné":3541,
"střed":3542,
"##ovaly":3543,
"##gi":3544,
"##řízení":3545,
"umí":3546,
"několika":3547,
"##zřejmě":3548,
"##hro":3549,
"zi":3550,
"##ických":3551,
"##hli":3552,
"##jní":3553,
"##art":3554,
"##vky":3555,
"vstup":3556,
"celé":3557,
"obdob":3558,
"naši":3559,
"##lech":3560,
"##konomi":3561,
"##klá":3562,
"##stech":3563,
"město":3564,
"červ":3565,
"svým":3566,
"těchto":3567,
"soutěže":3568,
"šéf":3569,
"jej":3570,
"deset":3571,
"##ovice":3572,
"Ku":3573,
"##žní":3574,
"autom":3575,
"##NÍ":3576,
"Sa":3577,
"dět":3578,
"zji":3579,
"Tomá":3580,
"Kra":3581,
"at":3582,
"nebude":3583,
"Něme":3584,
"ulici":3585,
"fak":3586,
"##graf":3587,
"Proto":3588,
"##prá":3589,
"ry":3590,
"výraz":3591,
"##gu":3592,
"smlou":3593,
"velké":3594,
"##jení":3595,
"##hrál":3596,
"poji":3597,
"produ":3598,
"##her":3599,
"Ru":3600,
"potřeb":3601,
"##ovalo":3602,
"večer":3603,
"##anci":3604,
"Ty":3605,
"##jímav":3606,
"hned":3607,
"Čer":3608,
"##sal":3609,
"akce":3610,
"##stal":3611,
"žen":3612,
"##žen":3613,
"##fer":3614,
"program":3615,
"loň":3616,
"roky":3617,
"##lán":3618,
"##poled":3619,
"##cím":3620,
"##šla":3621,
"koup":3622,
"zkuš":3623,
"spoj":3624,
"##mír":3625,
"týmu":3626,
"prof":3627,
"##koho":3628,
"tomto":3629,
"příliš":3630,
"##štění":3631,
"##ovatel":3632,
"##běh":3633,
"české":3634,
"bi":3635,
"##jet":3636,
"prý":3637,
"##voji":3638,
"divad":3639,
"reprez":3640,
"##ického":3641,
"systém":3642,
"divá":3643,
"dodal":3644,
"##ron":3645,
"Ti":3646,
"##prvé":3647,
"přitom":3648,
"velk":3649,
"díky":3650,
"##šli":3651,
"všechno":3652,
"dov":3653,
"poda":3654,
"##řel":3655,
"mez":3656,
"##bs":3657,
"ekonomi":3658,
"Martin":3659,
"využí":3660,
"##den":3661,
"gene":3662,
"##vest":3663,
"škod":3664,
"ter":3665,
"později":3666,
"blí":3667,
"zhruba":3668,
"čtyř":3669,
"zví":3670,
"Pavel":3671,
"doma":3672,
"##net":3673,
"oz":3674,
"Jeho":3675,
"Další":3676,
"pode":3677,
"##vyk":3678,
"ost":3679,
"podni":3680,
"su":3681,
"Vo":3682,
"##padu":3683,
"##spoň":3684,
"pěti":3685,
"##ává":3686,
"per":3687,
"tep":3688,
"##stli":3689,
"pár":3690,
"zástup":3691,
"Au":3692,
"ODS":3693,
"##SK":3694,
"##jte":3695,
"##šky":3696,
"možnost":3697,
"##teř":3698,
"##říve":3699,
"##mp":3700,
"znovu":3701,
"##hlé":3702,
"stří":3703,
"důležit":3704,
"##děj":3705,
"##stou":3706,
"##kami":3707,
"týden":3708,
"sám":3709,
"pořad":3710,
"##kam":3711,
"gól":3712,
"víken":3713,
"##dce":3714,
"##městí":3715,
"kar":3716,
"návr":3717,
"hlavní":3718,
"21":3719,
"něme":3720,
"##ER":3721,
"pohy":3722,
"##kva":3723,
"Cel":3724,
"##cház":3725,
"pora":3726,
"##pod":3727,
"použí":3728,
"##ant":3729,
"klubu":3730,
"Liber":3731,
"peně":3732,
"kontro":3733,
"pova":3734,
"minister":3735,
"##odě":3736,
"##něž":3737,
"maji":3738,
"evrop":3739,
"století":3740,
"vzta":3741,
"pozi":3742,
"prostředí":3743,
"Op":3744,
"premi":3745,
"##čním":3746,
"Lo":3747,
"září":3748,
"pohled":3749,
"přímo":3750,
"##rum":3751,
"##díl":3752,
"##dává":3753,
"##hor":3754,
"rám":3755,
"špat":3756,
"region":3757,
"předsed":3758,
"dota":3759,
"odpově":3760,
"vál":3761,
"náro":3762,
"##ován":3763,
"titu":3764,
"ba":3765,
"##ích":3766,
"##čné":3767,
"jednou":3768,
"stan":3769,
"##klady":3770,
"zt":3771,
"vytvo":3772,
"pri":3773,
"sam":3774,
"Du":3775,
"##lova":3776,
"zej":3777,
"jedna":3778,
"##vala":3779,
"Lid":3780,
"##kur":3781,
"lepší":3782,
"zejména":3783,
"##dění":3784,
"##ge":3785,
"hři":3786,
"trochu":3787,
"turna":3788,
"zcela":3789,
"kilo":3790,
"jedn":3791,
"máme":3792,
"##líb":3793,
"lety":3794,
"##žuje":3795,
"##ruš":3796,
"schop":3797,
"První":3798,
"##dat":3799,
"pom":3800,
"##cou":3801,
"histor":3802,
"pís":3803,
"vypad":3804,
"##rie":3805,
"##LA":3806,
"##yslím":3807,
"dopl":3808,
"##der":3809,
"##ická":3810,
"dětí":3811,
"obec":3812,
"chvíli":3813,
"##mít":3814,
"nav":3815,
"vši":3816,
"Ber":3817,
"nikdy":3818,
"Zatím":3819,
"##zemí":3820,
"počet":3821,
"##zá":3822,
"celý":3823,
"##HA":3824,
"##stala":3825,
"zřejmě":3826,
"##zra":3827,
"##skyt":3828,
"##prac":3829,
"##jíž":3830,
"dlouho":3831,
"mohli":3832,
"Něk":3833,
"##kup":3834,
"všichni":3835,
"vítězství":3836,
"znamen":3837,
"##ovaný":3838,
"##řá":3839,
"nový":3840,
"##átor":3841,
"vole":3842,
"##čen":3843,
"čís":3844,
"prvním":3845,
"##vil":3846,
"zastupitel":3847,
"##lová":3848,
"##kti":3849,
"##ice":3850,
"##vit":3851,
"nev":3852,
"dobu":3853,
"Mí":3854,
"vyj":3855,
"##čili":3856,
"základní":3857,
"##rý":3858,
"##ince":3859,
"opravdu":3860,
"##dra":3861,
"nedá":3862,
"##álních":3863,
"minut":3864,
"poh":3865,
"hrát":3866,
"žá":3867,
"ar":3868,
"##jezd":3869,
"pros":3870,
"společnost":3871,
"##any":3872,
"##ají":3873,
"bychom":3874,
"Slav":3875,
"nut":3876,
"republiky":3877,
"prohlá":3878,
"sko":3879,
"##ovací":3880,
"##ovky":3881,
"vyz":3882,
"##stit":3883,
"##atel":3884,
"obra":3885,
"manžel":3886,
"přij":3887,
"klub":3888,
"##hnout":3889,
"kro":3890,
"mistrov":3891,
"náměstí":3892,
"mám":3893,
"##ara":3894,
"vznik":3895,
"Amer":3896,
"sva":3897,
"uzav":3898,
"Olomou":3899,
"##iče":3900,
"zahá":3901,
"správ":3902,
"ce":3903,
"Tr":3904,
"dostal":3905,
"##iči":3906,
"vra":3907,
"stě":3908,
"svém":3909,
"##čem":3910,
"stojí":3911,
"##kají":3912,
"poch":3913,
"Bě":3914,
"##estival":3915,
"rámci":3916,
"vých":3917,
"##koliv":3918,
"##méně":3919,
"##kej":3920,
"vyrov":3921,
"možná":3922,
"##stil":3923,
"znám":3924,
"zab":3925,
"čeká":3926,
"##eta":3927,
"Vi":3928,
"abs":3929,
"nejsou":3930,
"has":3931,
"##IN":3932,
"poté":3933,
"##kově":3934,
"tvrdí":3935,
"pon":3936,
"nikdo":3937,
"ním":3938,
"pam":3939,
"komi":3940,
"##cit":3941,
"Bar":3942,
"posledních":3943,
"věci":3944,
"Plzeň":3945,
"##ckém":3946,
"deseti":3947,
"##ii":3948,
"##ym":3949,
"zapo":3950,
"oblasti":3951,
"50":3952,
"##lal":3953,
"skuteč":3954,
"##adva":3955,
"mělo":3956,
"doby":3957,
"##sně":3958,
"##pozor":3959,
"člověk":3960,
"otáz":3961,
"okres":3962,
"##sek":3963,
"##emokra":3964,
"autor":3965,
"Sta":3966,
"význam":3967,
"##teční":3968,
"jež":3969,
"krát":3970,
"##EN":3971,
"úda":3972,
"Dob":3973,
"##ško":3974,
"obraz":3975,
"##onstru":3976,
"sebou":3977,
"##stro":3978,
"červen":3979,
"##nému":3980,
"loni":3981,
"##poledne":3982,
"plo":3983,
"sc":3984,
"jednání":3985,
"##hů":3986,
"odh":3987,
"vedoucí":3988,
"profes":3989,
"##dělí":3990,
"##entů":3991,
"##ito":3992,
"poprvé":3993,
"##dru":3994,
"of":3995,
"situace":3996,
"zvlá":3997,
"ope":3998,
"zap":3999,
"sně":4000,
"někdo":4001,
"##zuje":4002,
"tuto":4003,
"##lání":4004,
"kateg":4005,
"##ita":4006,
"Hav":4007,
"mat":4008,
"##orii":4009,
"Václav":4010,
"##ujeme":4011,
"období":4012,
"zákaz":4013,
"jednoho":4014,
"##kli":4015,
"Vše":4016,
"bezpeč":4017,
"##IC":4018,
"Ra":4019,
"příprav":4020,
"bu":4021,
"men":4022,
"##kat":4023,
"problémy":4024,
"##dala":4025,
"##četně":4026,
"otevř":4027,
"řízení":4028,
"##rání":4029,
"kdyby":4030,
"mnoho":4031,
"##idel":4032,
"přiz":4033,
"jehož":4034,
"ener":4035,
"Kromě":4036,
"22":4037,
"neděli":4038,
"la":4039,
"aktiv":4040,
"Jana":4041,
"##son":4042,
"##hé":4043,
"##luje":4044,
"abych":4045,
"##nd":4046,
"mil":4047,
"staveb":4048,
"jinak":4049,
"##dání":4050,
"letoš":4051,
"##ější":4052,
"zkou":4053,
"##hledem":4054,
"Mezi":4055,
"řekla":4056,
"##zen":4057,
"are":4058,
"##ic":4059,
"les":4060,
"návštěvní":4061,
"jestli":4062,
"##alu":4063,
"##ovaných":4064,
"Pardu":4065,
"##gli":4066,
"projekt":4067,
"zajímav":4068,
"##kali":4069,
"##níku":4070,
"##nácti":4071,
"##ladi":4072,
"přesto":4073,
"##nické":4074,
"##lého":4075,
"ok":4076,
"určitě":4077,
"arch":4078,
"rychle":4079,
"zdravot":4080,
"naopak":4081,
"strán":4082,
"Kr":4083,
"zach":4084,
"pozor":4085,
"##SD":4086,
"telef":4087,
"Morav":4088,
"kraje":4089,
"##pro":4090,
"Pak":4091,
"nimi":4092,
"##RO":4093,
"usku":4094,
"##ouf":4095,
"sled":4096,
"přev":4097,
"##hr":4098,
"překva":4099,
"Stra":4100,
"proč":4101,
"##ších":4102,
"Mich":4103,
"USA":4104,
"PRA":4105,
"včetně":4106,
"straně":4107,
"##elu":4108,
"tabu":4109,
"stro":4110,
"dub":4111,
"##vou":4112,
"minutě":4113,
"výbě":4114,
"##kových":4115,
"místa":4116,
"##nili":4117,
"##gr":4118,
"informace":4119,
"milió":4120,
"nemu":4121,
"zapla":4122,
"jedné":4123,
"zách":4124,
"##ůžeme":4125,
"méně":4126,
"##fek":4127,
"slou":4128,
"mas":4129,
"##vesti":4130,
"##hléd":4131,
"##žila":4132,
"pohá":4133,
"skupiny":4134,
"##bud":4135,
"##aný":4136,
"##ord":4137,
"ukáz":4138,
"začátku":4139,
"Jin":4140,
"ves":4141,
"oček":4142,
"zat":4143,
"starosta":4144,
"Tomáš":4145,
"požad":4146,
"státní":4147,
"ven":4148,
"zařízení":4149,
"##desá":4150,
"cyk":4151,
"říj":4152,
"listo":4153,
"rozhodnutí":4154,
"úspěš":4155,
"internet":4156,
"domu":4157,
"nemocnice":4158,
"##desáti":4159,
"samozřejmě":4160,
"ozna":4161,
"ver":4162,
"zprá":4163,
"##líč":4164,
"nebyl":4165,
"Miro":4166,
"##hráli":4167,
"metrů":4168,
"demokra":4169,
"##tila":4170,
"##andid":4171,
"úplně":4172,
"Zem":4173,
"##rální":4174,
"##mov":4175,
"##AL":4176,
"##řes":4177,
"##šil":4178,
"prezident":4179,
"us":4180,
"tvo":4181,
"některé":4182,
"##žili":4183,
"##dělení":4184,
"bra":4185,
"##lym":4186,
"NA":4187,
"##zdu":4188,
"##vající":4189,
"zkušeno":4190,
"##cie":4191,
"##so":4192,
"upozor":4193,
"##tím":4194,
"pok":4195,
"domů":4196,
"Ju":4197,
"##ary":4198,
"sním":4199,
"##br":4200,
"prodej":4201,
"##žné":4202,
"24":4203,
"dítě":4204,
"hude":4205,
"##idla":4206,
"set":4207,
"exist":4208,
"Hor":4209,
"vr":4210,
"police":4211,
"nového":4212,
"nepři":4213,
"programu":4214,
"níž":4215,
"##metrů":4216,
"měly":4217,
"okolí":4218,
"##pově":4219,
"festival":4220,
"##tov":4221,
"hy":4222,
"vyšet":4223,
"##lky":4224,
"Pe":4225,
"ome":4226,
"jich":4227,
"##kovou":4228,
"konkur":4229,
"##tuje":4230,
"rest":4231,
"Přesto":4232,
"##kl":4233,
"##vno":4234,
"sty":4235,
"zlo":4236,
"##ůmys":4237,
"##fin":4238,
"##vyšší":4239,
"##razil":4240,
"Král":4241,
"vlastně":4242,
"pí":4243,
"zby":4244,
"##blí":4245,
"zas":4246,
"obyvatel":4247,
"okam":4248,
"##nitř":4249,
"##dila":4250,
"podařilo":4251,
"obce":4252,
"podzi":4253,
"100":4254,
"tla":4255,
"Čech":4256,
"##zaci":4257,
"umo":4258,
"takové":4259,
"##átky":4260,
"Franti":4261,
"zároveň":4262,
"vlád":4263,
"Jako":4264,
"##tili":4265,
"ri":4266,
"ceny":4267,
"sobě":4268,
"situaci":4269,
"##boj":4270,
"tyto":4271,
"Prahy":4272,
"uvedla":4273,
"Zd":4274,
"198":4275,
"##ará":4276,
"##rd":4277,
"PRAHA":4278,
"trá":4279,
"jmé":4280,
"Dav":4281,
"ČSSD":4282,
"##lympi":4283,
"Mlad":4284,
"Rom":4285,
"srp":4286,
"##vor":4287,
"spoluprá":4288,
"kola":4289,
"Ostra":4290,
"##bit":4291,
"##pli":4292,
"Polici":4293,
"sla":4294,
"ja":4295,
"miliar":4296,
"trhu":4297,
"pátek":4298,
"tehdy":4299,
"vyh":4300,
"stal":4301,
"##řili":4302,
"##kář":4303,
"reali":4304,
"současné":4305,
"dosud":4306,
"##ler":4307,
"##řila":4308,
"##cku":4309,
"##fé":4310,
"budeme":4311,
"##kyně":4312,
"Min":4313,
"##ckým":4314,
"opat":4315,
"počíta":4316,
"hospod":4317,
"celkem":4318,
"Vys":4319,
"života":4320,
"místní":4321,
"přin":4322,
"hud":4323,
"##ket":4324,
"obou":4325,
"ot":4326,
"##ast":4327,
"hráči":4328,
"##více":4329,
"##be":4330,
"##amp":4331,
"part":4332,
"některých":4333,
"##níky":4334,
"naší":4335,
"meziná":4336,
"plat":4337,
"Va":4338,
"nepří":4339,
"Vladi":4340,
"Rak":4341,
"jaz":4342,
"služby":4343,
"kan":4344,
"##žití":4345,
"vzpo":4346,
"jednu":4347,
"moder":4348,
"##obod":4349,
"povin":4350,
"tá":4351,
"kandid":4352,
"##alí":4353,
"vid":4354,
"jaké":4355,
"vyhlá":4356,
"##krá":4357,
"Spar":4358,
"##žství":4359,
"investi":4360,
"zel":4361,
"23":4362,
"začal":4363,
"dobré":4364,
"středu":4365,
"##telem":4366,
"mistrovství":4367,
"kolo":4368,
"pát":4369,
"podstat":4370,
"Ar":4371,
"pravidel":4372,
"světě":4373,
"veli":4374,
"##rac":4375,
"##mý":4376,
"##úča":4377,
"vlády":4378,
"##inci":4379,
"českých":4380,
"##vědo":4381,
"##aných":4382,
"dále":4383,
"scé":4384,
"Vla":4385,
"ši":4386,
"zastav":4387,
"hro":4388,
"zalo":4389,
"přije":4390,
"přesvěd":4391,
"nor":4392,
"fung":4393,
"vede":4394,
"##chno":4395,
"můžete":4396,
"muze":4397,
"budouc":4398,
"rovněž":4399,
"poskyt":4400,
"Jaroslav":4401,
"Šp":4402,
"ply":4403,
"nebylo":4404,
"##ES":4405,
"Ned":4406,
"No":4407,
"druž":4408,
"materi":4409,
"pomě":4410,
"body":4411,
"trén":4412,
"řidič":4413,
"pondělí":4414,
"jenž":4415,
"prakti":4416,
"velký":4417,
"kriti":4418,
"##cko":4419,
"mlá":4420,
"##kový":4421,
"druhý":4422,
"##inách":4423,
"##spí":4424,
"##nek":4425,
"málo":4426,
"komuni":4427,
"rak":4428,
"konci":4429,
"bodů":4430,
"tri":4431,
"Byl":4432,
"lidi":4433,
"spíše":4434,
"finanční":4435,
"úřadu":4436,
"zvo":4437,
"kromě":4438,
"vody":4439,
"pad":4440,
"svá":4441,
"Brno":4442,
"##eného":4443,
"Tu":4444,
"##atu":4445,
"mana":4446,
"Soko":4447,
"Nová":4448,
"Sch":4449,
"##cům":4450,
"paci":4451,
"##stří":4452,
"žádné":4453,
"##iv":4454,
"##verz":4455,
"Uni":4456,
"Tento":4457,
"##ůvod":4458,
"přístup":4459,
"##teří":4460,
"##mů":4461,
"zákona":4462,
"listopadu":4463,
"radnice":4464,
"podnika":4465,
"##mně":4466,
"agen":4467,
"##orů":4468,
"pu":4469,
"stani":4470,
"Sloven":4471,
"ligy":4472,
"##couz":4473,
"městě":4474,
"alespoň":4475,
"##říž":4476,
"vyšší":4477,
"motor":4478,
"##zovat":4479,
"##zo":4480,
"neví":4481,
"nebez":4482,
"De":4483,
"##hlas":4484,
"tex":4485,
"rozdíl":4486,
"celou":4487,
"##zer":4488,
"slo":4489,
"zeměděl":4490,
"##nách":4491,
"psych":4492,
"##kré":4493,
"##ten":4494,
"Nem":4495,
"byd":4496,
"res":4497,
"invest":4498,
"rodin":4499,
"přá":4500,
"průmys":4501,
"ústav":4502,
"fotbali":4503,
"rekonstru":4504,
"výbor":4505,
"##lec":4506,
"zemi":4507,
"ostatní":4508,
"Tě":4509,
"##ral":4510,
"vzá":4511,
"Bud":4512,
"##ede":4513,
"začíná":4514,
"##go":4515,
"##xi":4516,
"předpo":4517,
"##žeb":4518,
"##tou":4519,
"jednodu":4520,
"smr":4521,
"příležit":4522,
"Karlov":4523,
"nová":4524,
"firma":4525,
"vrch":4526,
"Česko":4527,
"##ickou":4528,
"nových":4529,
"##centa":4530,
"Hlav":4531,
"##vka":4532,
"##čín":4533,
"řád":4534,
"nebud":4535,
"##stoupí":4536,
"##lava":4537,
"Evro":4538,
"##lel":4539,
"##částí":4540,
"dvěma":4541,
"##mysl":4542,
"ztrá":4543,
"premié":4544,
"ly":4545,
"tém":4546,
"blíz":4547,
"dosá":4548,
"hru":4549,
"tou":4550,
"pozem":4551,
"hry":4552,
"##kám":4553,
"##podob":4554,
"dře":4555,
"věn":4556,
"mohla":4557,
"prod":4558,
"cenu":4559,
"jenom":4560,
"##mají":4561,
"##enty":4562,
"##rněn":4563,
"peněz":4564,
"Vz":4565,
"Pardubi":4566,
"##AR":4567,
"prostě":4568,
"40":4569,
"většinou":4570,
"hvě":4571,
"jmen":4572,
"Ani":4573,
"ned":4574,
"doku":4575,
"##fika":4576,
"##ada":4577,
"##hlíd":4578,
"hokej":4579,
"úter":4580,
"lin":4581,
"plán":4582,
"##zdy":4583,
"stavu":4584,
"##ována":4585,
"spokoj":4586,
"zám":4587,
"##raci":4588,
"někdy":4589,
"##AN":4590,
"##ton":4591,
"Dnes":4592,
"vzni":4593,
"kab":4594,
"##čů":4595,
"##voje":4596,
"Bohu":4597,
"údaj":4598,
"dnech":4599,
"host":4600,
"##vin":4601,
"inform":4602,
"sprá":4603,
"sociální":4604,
"kterým":4605,
"nichž":4606,
"roli":4607,
"srov":4608,
"##TO":4609,
"chtějí":4610,
"kraji":4611,
"ště":4612,
"##smu":4613,
"##žovat":4614,
"vedle":4615,
"sděli":4616,
"##ovu":4617,
"##zích":4618,
"nena":4619,
"vybra":4620,
"průbě":4621,
"##děpodob":4622,
"Leto":4623,
"##tera":4624,
"pé":4625,
"str":4626,
"##telů":4627,
"##stili":4628,
"dola":4629,
"##skými":4630,
"Mal":4631,
"##oun":4632,
"procenta":4633,
"##družení":4634,
"proce":4635,
"bí":4636,
"sem":4637,
"jednotliv":4638,
"musel":4639,
"sestav":4640,
"energ":4641,
"chtěl":4642,
"##lig":4643,
"přece":4644,
"účastní":4645,
"mar":4646,
"pohyb":4647,
"Karel":4648,
"David":4649,
"##šku":4650,
"##xu":4651,
"Dí":4652,
"řešení":4653,
"potom":4654,
"Bra":4655,
"##stické":4656,
"skutečně":4657,
"nemůže":4658,
"zemí":4659,
"Vyso":4660,
"##žná":4661,
"náz":4662,
"území":4663,
"##ováním":4664,
"##nuje":4665,
"ženy":4666,
"prostor":4667,
"##tvar":4668,
"##pozici":4669,
"hodiny":4670,
"##dají":4671,
"soudu":4672,
"Be":4673,
"přišel":4674,
"##skem":4675,
"##vek":4676,
"zůst":4677,
"dny":4678,
"##řské":4679,
"dříve":4680,
"útoční":4681,
"uči":4682,
"##oby":4683,
"stup":4684,
"úč":4685,
"dlu":4686,
"##tně":4687,
"Sv":4688,
"roze":4689,
"##kova":4690,
"##ger":4691,
"##tý":4692,
"dve":4693,
"Že":4694,
"##řen":4695,
"##stává":4696,
"Není":4697,
"##islav":4698,
"posti":4699,
"spou":4700,
"pomoc":4701,
"automobil":4702,
"Ex":4703,
"času":4704,
"EU":4705,
"##EL":4706,
"##ovaná":4707,
"šanci":4708,
"dokáz":4709,
"síd":4710,
"##CH":4711,
"##chodu":4712,
"fanou":4713,
"množství":4714,
"dělat":4715,
"rozpoč":4716,
"čist":4717,
"podzim":4718,
"Česká":4719,
"autobu":4720,
"##nilo":4721,
"##vem":4722,
"Škod":4723,
"Kla":4724,
"mys":4725,
"##avíc":4726,
"##uji":4727,
"žena":4728,
"kterého":4729,
"Nap":4730,
"Navíc":4731,
"brá":4732,
"ledna":4733,
"##chov":4734,
"Ještě":4735,
"##stoupil":4736,
"Mat":4737,
"##fici":4738,
"uděla":4739,
"Buděj":4740,
"miliardy":4741,
"pub":4742,
"finále":4743,
"##hrad":4744,
"druhou":4745,
"navr":4746,
"nepře":4747,
"Králové":4748,
"##bur":4749,
"platí":4750,
"##mar":4751,
"II":4752,
"PO":4753,
"souvis":4754,
"prázd":4755,
"##lové":4756,
"moci":4757,
"##enti":4758,
"náklad":4759,
"28":4760,
"vidět":4761,
"nějaké":4762,
"vybav":4763,
"agentu":4764,
"tato":4765,
"Miroslav":4766,
"jezd":4767,
"způsobem":4768,
"Cho":4769,
"olympi":4770,
"projektu":4771,
"objev":4772,
"soupeře":4773,
"leh":4774,
"##řím":4775,
"třet":4776,
"hraje":4777,
"úvod":4778,
"kapit":4779,
"fran":4780,
"skvě":4781,
"nechtě":4782,
"##ca":4783,
"gra":4784,
"rozší":4785,
"záj":4786,
"26":4787,
"zahraničí":4788,
"zpě":4789,
"##anu":4790,
"##zně":4791,
"##hody":4792,
"##ps":4793,
"mnohem":4794,
"stí":4795,
"nejd":4796,
"Lidé":4797,
"hoke":4798,
"prová":4799,
"získat":4800,
"oba":4801,
"skončil":4802,
"výji":4803,
"odvo":4804,
"policisté":4805,
"Bez":4806,
"##tické":4807,
"##avy":4808,
"Druh":4809,
"došlo":4810,
"Jsem":4811,
"získá":4812,
"snaží":4813,
"##álním":4814,
"##ld":4815,
"##kládá":4816,
"chybě":4817,
"letošní":4818,
"Hod":4819,
"stad":4820,
"##dejší":4821,
"##stému":4822,
"nabízí":4823,
"##vku":4824,
"##rig":4825,
"šesti":4826,
"dopad":4827,
"nejvyšší":4828,
"komunika":4829,
"mladí":4830,
"republice":4831,
"##prava":4832,
"fotograf":4833,
"La":4834,
"##tivně":4835,
"podpo":4836,
"##álního":4837,
"kterých":4838,
"##jak":4839,
"##LO":4840,
"nevě":4841,
"sklad":4842,
"pomoci":4843,
"red":4844,
"cena":4845,
"##dělat":4846,
"Rozhod":4847,
"##sledek":4848,
"Bylo":4849,
"Každ":4850,
"kup":4851,
"##olf":4852,
"Vět":4853,
"restau":4854,
"##žené":4855,
"dce":4856,
"řadu":4857,
"věc":4858,
"##sů":4859,
"archi":4860,
"##akrát":4861,
"##ino":4862,
"##rek":4863,
"##bývá":4864,
"##dec":4865,
"27":4866,
"##stoupení":4867,
"muže":4868,
"chla":4869,
"vhod":4870,
"Su":4871,
"probí":4872,
"vláda":4873,
"##něné":4874,
"Jenže":4875,
"##ujících":4876,
"60":4877,
"odmít":4878,
"ochra":4879,
"toto":4880,
"různých":4881,
"velkou":4882,
"##ker":4883,
"##účast":4884,
"obrá":4885,
"reži":4886,
"sami":4887,
"##níka":4888,
"as":4889,
"##zdí":4890,
"##slava":4891,
"hlu":4892,
"očeká":4893,
"Evropy":4894,
"reprezenta":4895,
"neboť":4896,
"##ortu":4897,
"Teď":4898,
"##vce":4899,
"dohod":4900,
"policejní":4901,
"kla":4902,
"května":4903,
"##lila":4904,
"znamená":4905,
"##kých":4906,
"##rii":4907,
"předseda":4908,
"extra":4909,
"národ":4910,
"služeb":4911,
"##pek":4912,
"novou":4913,
"dvacet":4914,
"Sed":4915,
"##ich":4916,
"##bách":4917,
"přesně":4918,
"sbí":4919,
"dale":4920,
"doká":4921,
"dospě":4922,
"obsah":4923,
"hospodář":4924,
"##ancelá":4925,
"##lodě":4926,
"jiných":4927,
"##čný":4928,
"udá":4929,
"pen":4930,
"velice":4931,
"soutěž":4932,
"všem":4933,
"oh":4934,
"Ze":4935,
"června":4936,
"Právě":4937,
"##tat":4938,
"taky":4939,
"konkré":4940,
"tolik":4941,
"hráčů":4942,
"Star":4943,
"##dci":4944,
"spotře":4945,
"schvá":4946,
"##pou":4947,
"zápasu":4948,
"##lej":4949,
"My":4950,
"##mit":4951,
"tisk":4952,
"kor":4953,
"vyšetř":4954,
"##dem":4955,
"##kty":4956,
"úspěch":4957,
"##míná":4958,
"##ému":4959,
"uvá":4960,
"koncer":4961,
"Pol":4962,
"##aru":4963,
"##čuje":4964,
"něho":4965,
"systému":4966,
"##ona":4967,
"Také":4968,
"rez":4969,
"neod":4970,
"zbo":4971,
"##ju":4972,
"##časí":4973,
"státu":4974,
"dal":4975,
"##gist":4976,
"##ren":4977,
"Ha":4978,
"##hodob":4979,
"##cka":4980,
"Ústí":4981,
"sli":4982,
"##nech":4983,
"víkendu":4984,
"našich":4985,
"vl":4986,
"zn":4987,
"##čilo":4988,
"příjem":4989,
"##rech":4990,
"##mentu":4991,
"Ost":4992,
"obrov":4993,
"##itele":4994,
"účin":4995,
"Stej":4996,
"starší":4997,
"sportov":4998,
"Kdo":4999,
"úterý":5000,
"##hodno":5001,
"zne":5002,
"##lie":5003,
"##ývá":5004,
"techno":5005,
"pracov":5006,
"##ampion":5007,
"Tur":5008,
"dosta":5009,
"Milo":5010,
"dvaná":5011,
"tvá":5012,
"##eněk":5013,
"západ":5014,
"prohlásil":5015,
"přines":5016,
"vyjád":5017,
"##rb":5018,
"##VA":5019,
"ráno":5020,
"##sme":5021,
"##nul":5022,
"začne":5023,
"Michal":5024,
"the":5025,
"výsledky":5026,
"pravděpodob":5027,
"umož":5028,
"##ablon":5029,
"##skému":5030,
"tran":5031,
"He":5032,
"partner":5033,
"kancelá":5034,
"krás":5035,
"##nostní":5036,
"##nějších":5037,
"sé":5038,
"##rej":5039,
"##hlav":5040,
"##šov":5041,
"##lce":5042,
"začala":5043,
"odpoledne":5044,
"studi":5045,
"ztra":5046,
"##vol":5047,
"##cházejí":5048,
"##OR":5049,
"telefon":5050,
"Ště":5051,
"disku":5052,
"čtvrtek":5053,
"##ET":5054,
"Zdeněk":5055,
"sever":5056,
"bá":5057,
"##chyb":5058,
"popu":5059,
"společně":5060,
"října":5061,
"##KA":5062,
"kur":5063,
"mnoha":5064,
"##važ":5065,
"areálu":5066,
"výši":5067,
"získal":5068,
"##mil":5069,
"Nez":5070,
"##ff":5071,
"##tora":5072,
"pre":5073,
"##lace":5074,
"##ostí":5075,
"194":5076,
"##jel":5077,
"povo":5078,
"minim":5079,
"##veřej":5080,
"zlep":5081,
"museli":5082,
"majet":5083,
"##nič":5084,
"koncem":5085,
"##uper":5086,
"##mr":5087,
"mohlo":5088,
"ukon":5089,
"test":5090,
"želez":5091,
"malé":5092,
"neda":5093,
"zranění":5094,
"ky":5095,
"alkoho":5096,
"příslu":5097,
"Petra":5098,
"##řka":5099,
"odhad":5100,
"teplo":5101,
"milionu":5102,
"zaměstnan":5103,
"pe":5104,
"35":5105,
"umění":5106,
"90":5107,
"Jsou":5108,
"##vám":5109,
"##ktor":5110,
"zprac":5111,
"noci":5112,
"nejvíce":5113,
"kop":5114,
"výrazně":5115,
"opak":5116,
"český":5117,
"odpoví":5118,
"##ály":5119,
"meda":5120,
"univerz":5121,
"zpět":5122,
"##odní":5123,
"takový":5124,
"##šlen":5125,
"##rych":5126,
"kři":5127,
"informací":5128,
"firem":5129,
"dubna":5130,
"svat":5131,
"##žis":5132,
"##ův":5133,
"poho":5134,
"##arié":5135,
"nezá":5136,
"technolog":5137,
"postupně":5138,
"neo":5139,
"klid":5140,
"kamará":5141,
"doporu":5142,
"půj":5143,
"března":5144,
"##OU":5145,
"##vně":5146,
"zdravotní":5147,
"Minist":5148,
"ser":5149,
"zim":5150,
"dům":5151,
"Ži":5152,
"uži":5153,
"oddělení":5154,
"##ňují":5155,
"pově":5156,
"českého":5157,
"pomá":5158,
"ČT":5159,
"##žer":5160,
"lidem":5161,
"sá":5162,
"doz":5163,
"##esu":5164,
"desít":5165,
"Stu":5166,
"##advaceti":5167,
"ju":5168,
"parla":5169,
"francouz":5170,
"Nov":5171,
"komise":5172,
"brněn":5173,
"adr":5174,
"##vidí":5175,
"elektro":5176,
"druhém":5177,
"dé":5178,
"196":5179,
"považ":5180,
"##lík":5181,
"úno":5182,
"koncert":5183,
"dlouhodob":5184,
"##ičů":5185,
"poločas":5186,
"Výstav":5187,
"urč":5188,
"podporu":5189,
"běž":5190,
"##láš":5191,
"Klad":5192,
"kost":5193,
"jiného":5194,
"Stan":5195,
"dostat":5196,
"Bí":5197,
"Evropské":5198,
"##vaz":5199,
"čím":5200,
"posí":5201,
"zakáz":5202,
"##pozice":5203,
"hlad":5204,
"počasí":5205,
"##řiceti":5206,
"napo":5207,
"napro":5208,
"##ety":5209,
"zav":5210,
"sloven":5211,
"##nie":5212,
"teprve":5213,
"daleko":5214,
"nepro":5215,
"samot":5216,
"dod":5217,
"můžeme":5218,
"##ovicích":5219,
"úřed":5220,
"31":5221,
"Proč":5222,
"##rostřed":5223,
"##tky":5224,
"unie":5225,
"vliv":5226,
"dvakrát":5227,
"dolarů":5228,
"názor":5229,
"##valo":5230,
"45":5231,
"vzdělá":5232,
"##lili":5233,
"Or":5234,
"##leslav":5235,
"muset":5236,
"umístě":5237,
"rádi":5238,
"Lab":5239,
"insp":5240,
"Samo":5241,
"ročník":5242,
"zákla":5243,
"vzd":5244,
"zmi":5245,
"muži":5246,
"Ja":5247,
"němž":5248,
"dodává":5249,
"vojen":5250,
"ministr":5251,
"fy":5252,
"padesát":5253,
"osmi":5254,
"##kového":5255,
"kouč":5256,
"právní":5257,
"ročníku":5258,
"zásad":5259,
"Svět":5260,
"lépe":5261,
"##ovány":5262,
"Milan":5263,
"Ad":5264,
"29":5265,
"Myslím":5266,
"##stitu":5267,
"##niční":5268,
"výhod":5269,
"Česku":5270,
"ide":5271,
"Bře":5272,
"##žený":5273,
"součástí":5274,
"trénin":5275,
"sen":5276,
"nu":5277,
"centra":5278,
"##rny":5279,
"##zala":5280,
"Měst":5281,
"##ečně":5282,
"ad":5283,
"rozhodně":5284,
"##pá":5285,
"žádný":5286,
"ohro":5287,
"##rus":5288,
"##luví":5289,
"naz":5290,
"věku":5291,
"##elí":5292,
"Až":5293,
"##mem":5294,
"úrov":5295,
"papí":5296,
"Brně":5297,
"zápasy":5298,
"spolupráci":5299,
"dopravní":5300,
"sezony":5301,
"uspo":5302,
"skupina":5303,
"soused":5304,
"sdružení":5305,
"nebyla":5306,
"Praž":5307,
"nemají":5308,
"##cemi":5309,
"##hal":5310,
"sportovní":5311,
"auta":5312,
"přijde":5313,
"##sit":5314,
"cho":5315,
"Kom":5316,
"ST":5317,
"hokeji":5318,
"kterém":5319,
"##olv":5320,
"jedná":5321,
"jejím":5322,
"##mení":5323,
"přibli":5324,
"##bá":5325,
"popis":5326,
"##hne":5327,
"tzv":5328,
"stran":5329,
"centru":5330,
"Sy":5331,
"zmí":5332,
"organizace":5333,
"lou":5334,
"##ace":5335,
"ať":5336,
"podmínky":5337,
"Například":5338,
"pomocí":5339,
"nato":5340,
"stop":5341,
"většina":5342,
"František":5343,
"hudební":5344,
"kilometrů":5345,
"##kan":5346,
"stráž":5347,
"prvního":5348,
"##mos":5349,
"oči":5350,
"##slední":5351,
"##livě":5352,
"opu":5353,
"197":5354,
"Kam":5355,
"Brit":5356,
"průběhu":5357,
"srpna":5358,
"Pan":5359,
"nadá":5360,
"základě":5361,
"##nicích":5362,
"##rojů":5363,
"Zatímco":5364,
"Kdyby":5365,
"##EK":5366,
"tisíce":5367,
"Prostě":5368,
"##risti":5369,
"tentokrát":5370,
"škole":5371,
"zvlád":5372,
"##uro":5373,
"2007":5374,
"hlí":5375,
"ší":5376,
"##ovic":5377,
"dispozici":5378,
"hroz":5379,
"km":5380,
"Mas":5381,
"Mil":5382,
"##ovce":5383,
"účast":5384,
"typ":5385,
"dalším":5386,
"##avor":5387,
"příro":5388,
"muzi":5389,
"##ED":5390,
"##áci":5391,
"##ovými":5392,
"řada":5393,
"##ON":5394,
"nehod":5395,
"##car":5396,
"poslan":5397,
"Hu":5398,
"příj":5399,
"bohat":5400,
"šampion":5401,
"##mila":5402,
"uli":5403,
"##lub":5404,
"měsíců":5405,
"para":5406,
"osobní":5407,
"dělá":5408,
"##apon":5409,
"##hn":5410,
"Me":5411,
"Stře":5412,
"Asi":5413,
"Evropě":5414,
"##šen":5415,
"Čí":5416,
"nemusí":5417,
"angli":5418,
"zúčast":5419,
"##vez":5420,
"Město":5421,
"filmu":5422,
"Vladimír":5423,
"Zlín":5424,
"mláde":5425,
"závěru":5426,
"##lka":5427,
"např":5428,
"Os":5429,
"##nami":5430,
"stadion":5431,
"##grafi":5432,
"léta":5433,
"hrozí":5434,
"##kala":5435,
"##šťov":5436,
"dvoj":5437,
"##ré":5438,
"odpad":5439,
"měsíce":5440,
"dostali":5441,
"##isté":5442,
"var":5443,
"budu":5444,
"jméno":5445,
"letošního":5446,
"jiný":5447,
"miliard":5448,
"konstat":5449,
"Větš":5450,
"potrav":5451,
"Tam":5452,
"neměl":5453,
"svými":5454,
"udělat":5455,
"výtvar":5456,
"čtená":5457,
"vystav":5458,
"titul":5459,
"Něm":5460,
"ra":5461,
"cit":5462,
"Ří":5463,
"##telné":5464,
"kontak":5465,
"miliónů":5466,
"##olu":5467,
"architek":5468,
"uskuteční":5469,
"neob":5470,
"Jejich":5471,
"provozu":5472,
"cestu":5473,
"##jov":5474,
"Jde":5475,
"##uk":5476,
"##zel":5477,
"SK":5478,
"##nají":5479,
"prosince":5480,
"funkci":5481,
"stanov":5482,
"polovině":5483,
"drá":5484,
"post":5485,
"##řem":5486,
"úko":5487,
"rizi":5488,
"##ss":5489,
"voleb":5490,
"80":5491,
"výsledek":5492,
"rekla":5493,
"poznamen":5494,
"manažer":5495,
"sym":5496,
"novin":5497,
"střední":5498,
"##ile":5499,
"městské":5500,
"##ono":5501,
"Ves":5502,
"společen":5503,
"##toři":5504,
"publi":5505,
"působí":5506,
"Kou":5507,
"dní":5508,
"regionu":5509,
"Krá":5510,
"##aněl":5511,
"##por":5512,
"Bro":5513,
"##delní":5514,
"##zda":5515,
"##EM":5516,
"##ista":5517,
"##řich":5518,
"##drže":5519,
"##šila":5520,
"##kání":5521,
"tem":5522,
"##klád":5523,
"##ef":5524,
"##emoc":5525,
"##čko":5526,
"Vl":5527,
"hráče":5528,
"jazy":5529,
"banky":5530,
"stranu":5531,
"smí":5532,
"ulice":5533,
"zápase":5534,
"režis":5535,
"##rali":5536,
"nájem":5537,
"chrá":5538,
"##ismu":5539,
"vysvětlil":5540,
"Domá":5541,
"##ovaného":5542,
"zdá":5543,
"návrh":5544,
"nechá":5545,
"Kraj":5546,
"##xim":5547,
"##kolog":5548,
"Každý":5549,
"července":5550,
"uměle":5551,
"byt":5552,
"Společ":5553,
"##oně":5554,
"pal":5555,
"brit":5556,
"##kého":5557,
"##finále":5558,
"hřiště":5559,
"důchod":5560,
"našeho":5561,
"podez":5562,
"vylou":5563,
"##jším":5564,
"##šně":5565,
"pev":5566,
"řadě":5567,
"uží":5568,
"##avě":5569,
"rodiče":5570,
"nutné":5571,
"minulosti":5572,
"LN":5573,
"seri":5574,
"##komu":5575,
"jasné":5576,
"obvyk":5577,
"sly":5578,
"stala":5579,
"oslav":5580,
"##lze":5581,
"rozhov":5582,
"věcí":5583,
"##EC":5584,
"lit":5585,
"##vině":5586,
"am":5587,
"nějaký":5588,
"Lit":5589,
"komb":5590,
"jednotlivých":5591,
"##tvr":5592,
"třídy":5593,
"klas":5594,
"##čtí":5595,
"##sch":5596,
"poš":5597,
"##rovol":5598,
"soutěži":5599,
"##mýš":5600,
"##řít":5601,
"mužů":5602,
"vysvětluje":5603,
"kolik":5604,
"skoro":5605,
"Nyní":5606,
"zbra":5607,
"še":5608,
"ovliv":5609,
"absolv":5610,
"model":5611,
"zítra":5612,
"##livé":5613,
"včer":5614,
"svobod":5615,
"pol":5616,
"jistě":5617,
"menší":5618,
"##ine":5619,
"##štěstí":5620,
"Vždy":5621,
"New":5622,
"Nový":5623,
"##aty":5624,
"náklady":5625,
"přízni":5626,
"##čím":5627,
"jedním":5628,
"2000":5629,
"dát":5630,
"knihov":5631,
"vyž":5632,
"tvor":5633,
"##pravě":5634,
"svoji":5635,
"Bene":5636,
"##ft":5637,
"vyrá":5638,
"Bude":5639,
"##orie":5640,
"nahra":5641,
"##hi":5642,
"daň":5643,
"##sloven":5644,
"##rách":5645,
"těm":5646,
"##hrála":5647,
"musíme":5648,
"tvoří":5649,
"Lí":5650,
"Tra":5651,
"čem":5652,
"spíš":5653,
"nově":5654,
"přihlá":5655,
"##žet":5656,
"2006":5657,
"šance":5658,
"##řív":5659,
"napad":5660,
"rozhodl":5661,
"Pat":5662,
"hosté":5663,
"##kraj":5664,
"náš":5665,
"ruce":5666,
"##letá":5667,
"##plo":5668,
"zvíř":5669,
"##mosfé":5670,
"Jablon":5671,
"vari":5672,
"The":5673,
"##EZ":5674,
"úvě":5675,
"počtu":5676,
"##enáct":5677,
"syn":5678,
"##lynu":5679,
"Chtě":5680,
"divadla":5681,
"radě":5682,
"##zila":5683,
"##amin":5684,
"reprezent":5685,
"##set":5686,
"karié":5687,
"vyvo":5688,
"spoluprac":5689,
"rukou":5690,
"Sk":5691,
"února":5692,
"záchra":5693,
"zábav":5694,
"příspě":5695,
"pas":5696,
"náměst":5697,
"branky":5698,
"Dvo":5699,
"člověka":5700,
"důležité":5701,
"##sud":5702,
"Ostrava":5703,
"navští":5704,
"ministerstva":5705,
"cz":5706,
"díl":5707,
"##eru":5708,
"##ůležit":5709,
"##terá":5710,
"myslí":5711,
"jít":5712,
"##ickém":5713,
"devět":5714,
"vzdu":5715,
"jejichž":5716,
"##saz":5717,
"Ben":5718,
"války":5719,
"2008":5720,
"začali":5721,
"##hání":5722,
"lu":5723,
"požadav":5724,
"různé":5725,
"záležit":5726,
"stalo":5727,
"poměrně":5728,
"##ními":5729,
"70":5730,
"Pi":5731,
"dovol":5732,
"celého":5733,
"##střed":5734,
"váno":5735,
"ciz":5736,
"smlouvy":5737,
"fanouš":5738,
"zraně":5739,
"níz":5740,
"sedmi":5741,
"rodiny":5742,
"spl":5743,
"vyd":5744,
"Nové":5745,
"abychom":5746,
"škola":5747,
"Nik":5748,
"festivalu":5749,
"noviná":5750,
"##ováno":5751,
"Jest":5752,
"diva":5753,
"zboží":5754,
"##qu":5755,
"pochop":5756,
"promě":5757,
"hovo":5758,
"denně":5759,
"lyž":5760,
"zdraví":5761,
"##ativní":5762,
"zaznamen":5763,
"##vedl":5764,
"velká":5765,
"pocit":5766,
"vysoké":5767,
"hřišti":5768,
"##rovna":5769,
"##bora":5770,
"chtěli":5771,
"sama":5772,
"majitel":5773,
"##stěji":5774,
"shod":5775,
"prodá":5776,
"mne":5777,
"##opis":5778,
"Fin":5779,
"koali":5780,
"zaměst":5781,
"Val":5782,
"rozpočtu":5783,
"##io":5784,
"Dom":5785,
"hře":5786,
"jednom":5787,
"##tají":5788,
"prvních":5789,
"##stoupit":5790,
"drob":5791,
"profesion":5792,
"ofici":5793,
"brzy":5794,
"norm":5795,
"##kosti":5796,
"##han":5797,
"pěk":5798,
"nelze":5799,
"představí":5800,
"##kazuje":5801,
"číslo":5802,
"formu":5803,
"Takže":5804,
"##etu":5805,
"##rací":5806,
"Během":5807,
"##kcí":5808,
"vaše":5809,
"##rové":5810,
"podpor":5811,
"činnosti":5812,
"##rají":5813,
"por":5814,
"##šné":5815,
"##ICE":5816,
"Pla":5817,
"##valy":5818,
"##roti":5819,
"paní":5820,
"setkání":5821,
"pražské":5822,
"výzku":5823,
"##hý":5824,
"vybud":5825,
"##ilí":5826,
"Man":5827,
"##andard":5828,
"##stila":5829,
"Ter":5830,
"zveřej":5831,
"##žek":5832,
"změny":5833,
"trh":5834,
"##říd":5835,
"kaž":5836,
"pojišťov":5837,
"##avou":5838,
"Letos":5839,
"asist":5840,
"sezoně":5841,
"##říz":5842,
"Rob":5843,
"##sila":5844,
"komple":5845,
"Její":5846,
"##átek":5847,
"Nak":5848,
"##ickým":5849,
"prezidenta":5850,
"dat":5851,
"##ktivní":5852,
"Domácí":5853,
"máte":5854,
"##nává":5855,
"soutěží":5856,
"##lku":5857,
"stejné":5858,
"vždycky":5859,
"##zvem":5860,
"Dá":5861,
"světové":5862,
"Sla":5863,
"redak":5864,
"jar":5865,
"zad":5866,
"Liberec":5867,
"názvem":5868,
"##čce":5869,
"radost":5870,
"defin":5871,
"každé":5872,
"nesmí":5873,
"##nín":5874,
"udrž":5875,
"žal":5876,
"fon":5877,
"##hře":5878,
"Var":5879,
"oblíb":5880,
"Jiho":5881,
"Zde":5882,
"##vila":5883,
"vyhrál":5884,
"##edl":5885,
"tř":5886,
"##cát":5887,
"říct":5888,
"poško":5889,
"mezinárodní":5890,
"mobil":5891,
"člán":5892,
"hledi":5893,
"Tato":5894,
"##nově":5895,
"šť":5896,
"nechce":5897,
"děj":5898,
"institu":5899,
"##nictvím":5900,
"činnost":5901,
"nen":5902,
"##měru":5903,
"obcí":5904,
"##cího":5905,
"Byla":5906,
"zlodě":5907,
"##čková":5908,
"Cí":5909,
"nižší":5910,
"##ore":5911,
"stoup":5912,
"reag":5913,
"obchodní":5914,
"##ceně":5915,
"druhého":5916,
"Ond":5917,
"domě":5918,
"##žal":5919,
"potvrdil":5920,
"nadále":5921,
"##dl":5922,
"dnešní":5923,
"životní":5924,
"soubor":5925,
"##ktiv":5926,
"odstra":5927,
"aktu":5928,
"##mot":5929,
"##žitě":5930,
"##tali":5931,
"lékař":5932,
"inf":5933,
"me":5934,
"Micha":5935,
"představení":5936,
"štěstí":5937,
"obrán":5938,
"##avad":5939,
"vězení":5940,
"myslím":5941,
"##anta":5942,
"##leg":5943,
"##čích":5944,
"vysí":5945,
"Fi":5946,
"chara":5947,
"dvaceti":5948,
"slova":5949,
"Voj":5950,
"dostane":5951,
"televize":5952,
"téma":5953,
"svěd":5954,
"Český":5955,
"##bují":5956,
"konečně":5957,
"##sen":5958,
"ozná":5959,
"##nějším":5960,
"##tách":5961,
"##ůl":5962,
"dodá":5963,
"Chce":5964,
"místech":5965,
"přišla":5966,
"##ůraz":5967,
"DN":5968,
"##jších":5969,
"atmosfé":5970,
"Tá":5971,
"zástupce":5972,
"kvalitní":5973,
"zpo":5974,
"Bla":5975,
"děla":5976,
"desítky":5977,
"stru":5978,
"maxim":5979,
"charak":5980,
"možnosti":5981,
"##ert":5982,
"##átkem":5983,
"cykli":5984,
"předmě":5985,
"chu":5986,
"jednoduch":5987,
"Váno":5988,
"Ivan":5989,
"médi":5990,
"podot":5991,
"nesta":5992,
"##tro":5993,
"Podob":5994,
"občas":5995,
"přispě":5996,
"dopravy":5997,
"bohu":5998,
"vystoupení":5999,
"ká":6000,
"##har":6001,
"podobně":6002,
"##kovat":6003,
"dobrý":6004,
"##ovanou":6005,
"těžké":6006,
"##čkou":6007,
"opatření":6008,
"##edi":6009,
"vidí":6010,
"nedě":6011,
"start":6012,
"Ur":6013,
"uprav":6014,
"historii":6015,
"##stvu":6016,
"##mech":6017,
"##lovat":6018,
"##RÁ":6019,
"##uj":6020,
"nebudou":6021,
"čtr":6022,
"##cvi":6023,
"##mana":6024,
"silnice":6025,
"##kování":6026,
"zru":6027,
"práv":6028,
"##jezdu":6029,
"vybí":6030,
"##ama":6031,
"##hlo":6032,
"##řitel":6033,
"Díky":6034,
"obvině":6035,
"hlá":6036,
"##mut":6037,
"památ":6038,
"Škoda":6039,
"zatímco":6040,
"vůči":6041,
"##OL":6042,
"nemocnici":6043,
"vývoj":6044,
"Hradec":6045,
"rady":6046,
"Nic":6047,
"##og":6048,
"dopis":6049,
"##pětí":6050,
"hrom":6051,
"indi":6052,
"dokument":6053,
"py":6054,
"vyprá":6055,
"ner":6056,
"špič":6057,
"Mám":6058,
"ředitele":6059,
"##hají":6060,
"2005":6061,
"##pravy":6062,
"##čná":6063,
"Možná":6064,
"potr":6065,
"Tím":6066,
"##pt":6067,
"mimořád":6068,
"měsíc":6069,
"play":6070,
"##ón":6071,
"kultur":6072,
"důsled":6073,
"posu":6074,
"##arma":6075,
"rezer":6076,
"dnů":6077,
"kategorii":6078,
"směrem":6079,
"Ke":6080,
"##stoj":6081,
"Velké":6082,
"Stá":6083,
"##star":6084,
"výstava":6085,
"němu":6086,
"Boleslav":6087,
"sprav":6088,
"plánu":6089,
"jízd":6090,
"Bran":6091,
"Lad":6092,
"##odi":6093,
"##oub":6094,
"víkend":6095,
"del":6096,
"rokem":6097,
"organiz":6098,
"tref":6099,
"Ostrav":6100,
"myšlen":6101,
"napl":6102,
"Roman":6103,
"be":6104,
"zaslou":6105,
"jaký":6106,
"spis":6107,
"Vít":6108,
"třech":6109,
"Ře":6110,
"byste":6111,
"předcho":6112,
"##ádu":6113,
"dro":6114,
"poráž":6115,
"Her":6116,
"kultury":6117,
"jediný":6118,
"stál":6119,
"soupeř":6120,
"##řice":6121,
"Jestli":6122,
"strom":6123,
"nebezpeč":6124,
"2004":6125,
"zkušenosti":6126,
"##our":6127,
"potí":6128,
"##tiva":6129,
"efek":6130,
"##hel":6131,
"cesty":6132,
"prospě":6133,
"podobě":6134,
"##itě":6135,
"voli":6136,
"okol":6137,
"Rakou":6138,
"Klaus":6139,
"pamě":6140,
"prakticky":6141,
"##letého":6142,
"samostat":6143,
"nád":6144,
"dem":6145,
"vztah":6146,
"##ondý":6147,
"dostala":6148,
"##plat":6149,
"##HL":6150,
"tradiční":6151,
"Fot":6152,
"##fri":6153,
"##lostí":6154,
"##žím":6155,
"##čítá":6156,
"Slov":6157,
"juni":6158,
"pacha":6159,
"dobrovol":6160,
"domácím":6161,
"širo":6162,
"bývalý":6163,
"někteří":6164,
"mně":6165,
"Jind":6166,
"##líně":6167,
"souvislosti":6168,
"smrti":6169,
"posledním":6170,
"prou":6171,
"Tři":6172,
"fa":6173,
"koment":6174,
"ple":6175,
"střel":6176,
"##násob":6177,
"##tar":6178,
"mohly":6179,
"patnáct":6180,
"Šum":6181,
"Rud":6182,
"plav":6183,
"##chů":6184,
"Hrá":6185,
"aut":6186,
"reak":6187,
"veřejnosti":6188,
"##adě":6189,
"zůstává":6190,
"Všech":6191,
"slož":6192,
"vzdál":6193,
"okamži":6194,
"exper":6195,
"##leté":6196,
"sdělil":6197,
"##ňovat":6198,
"najde":6199,
"prote":6200,
"Pri":6201,
"zvyš":6202,
"šlo":6203,
"Per":6204,
"##ět":6205,
"přibližně":6206,
"přestá":6207,
"##jdou":6208,
"neú":6209,
"##před":6210,
"rost":6211,
"##rovi":6212,
"veš":6213,
"##ejt":6214,
"##átní":6215,
"turnaj":6216,
"osla":6217,
"##vati":6218,
"zámku":6219,
"cílem":6220,
"##řené":6221,
"ber":6222,
"góly":6223,
"posla":6224,
"##énu":6225,
"Dva":6226,
"##řela":6227,
"##enka":6228,
"##bere":6229,
"mateř":6230,
"tajem":6231,
"požád":6232,
"lev":6233,
"##NO":6234,
"##véd":6235,
"##rodního":6236,
"##zet":6237,
"##stem":6238,
"zprav":6239,
"průměr":6240,
"##ingu":6241,
"domácích":6242,
"vydá":6243,
"##zací":6244,
"osud":6245,
"koste":6246,
"##IS":6247,
"##kým":6248,
"Mno":6249,
"opti":6250,
"čele":6251,
"##enými":6252,
"##fa":6253,
"Pou":6254,
"##áda":6255,
"vytvá":6256,
"Základ":6257,
"Nech":6258,
"##eným":6259,
"##gres":6260,
"stavební":6261,
"speciali":6262,
"##haj":6263,
"stanice":6264,
"žije":6265,
"dár":6266,
"pracovat":6267,
"kal":6268,
"národní":6269,
"Ste":6270,
"Slová":6271,
"##pat":6272,
"dorost":6273,
"Marie":6274,
"##nily":6275,
"neznám":6276,
"##kor":6277,
"míč":6278,
"potřeba":6279,
"sho":6280,
"##nali":6281,
"Jihla":6282,
"Ry":6283,
"##zením":6284,
"##ster":6285,
"##štní":6286,
"bou":6287,
"prostoru":6288,
"peč":6289,
"195":6290,
"nau":6291,
"##padá":6292,
"##jímá":6293,
"mrt":6294,
"poko":6295,
"pokračovat":6296,
"##ité":6297,
"rozvoj":6298,
"magist":6299,
"Vši":6300,
"poru":6301,
"prostřednictvím":6302,
"bohužel":6303,
"Luká":6304,
"uvědo":6305,
"jakou":6306,
"##hly":6307,
"##stěh":6308,
"Stejně":6309,
"##zev":6310,
"##stky":6311,
"cír":6312,
"##klid":6313,
"Máme":6314,
"najít":6315,
"prací":6316,
"vrátil":6317,
"der":6318,
"Bor":6319,
"hrál":6320,
"olympij":6321,
"##lína":6322,
"Protože":6323,
"poplat":6324,
"Hol":6325,
"budovy":6326,
"##mítá":6327,
"Anto":6328,
"##stev":6329,
"##ja":6330,
"prosad":6331,
"hu":6332,
"##nický":6333,
"fotografi":6334,
"Labem":6335,
"##rově":6336,
"loňského":6337,
"ane":6338,
"výmě":6339,
"Musí":6340,
"nedávno":6341,
"Poslední":6342,
"vzájem":6343,
"##aného":6344,
"tabulky":6345,
"Lou":6346,
"důvě":6347,
"útočník":6348,
"doh":6349,
"vnitř":6350,
"##čel":6351,
"exp":6352,
"ročně":6353,
"omez":6354,
"mladší":6355,
"funkce":6356,
"stavby":6357,
"knihy":6358,
"poháru":6359,
"Inter":6360,
"naprosto":6361,
"##rami":6362,
"slib":6363,
"právo":6364,
"končí":6365,
"využít":6366,
"##jednou":6367,
"##adu":6368,
"vyře":6369,
"NE":6370,
"##str":6371,
"původní":6372,
"##šením":6373,
"nádra":6374,
"symbo":6375,
"Jeden":6376,
"##padech":6377,
"blo":6378,
"##IT":6379,
"začít":6380,
"zahraniční":6381,
"SP":6382,
"##ktů":6383,
"##počet":6384,
"refor":6385,
"super":6386,
"složit":6387,
"##vůr":6388,
"konfer":6389,
"##ela":6390,
"kol":6391,
"nejméně":6392,
"zlat":6393,
"##óny":6394,
"primá":6395,
"životě":6396,
"hrd":6397,
"financí":6398,
"##nických":6399,
"Dr":6400,
"parku":6401,
"minuty":6402,
"Ano":6403,
"Policie":6404,
"##tah":6405,
"zased":6406,
"##UD":6407,
"193":6408,
"závodu":6409,
"ohled":6410,
"klíč":6411,
"##telu":6412,
"převá":6413,
"##átu":6414,
"##kém":6415,
"Aby":6416,
"Výstava":6417,
"##čeno":6418,
"sub":6419,
"Han":6420,
"třicet":6421,
"plzeň":6422,
"centrum":6423,
"platit":6424,
"Mod":6425,
"odsou":6426,
"přítom":6427,
"spad":6428,
"hav":6429,
"##nec":6430,
"tane":6431,
"můj":6432,
"##leží":6433,
"##ií":6434,
"rekord":6435,
"##istů":6436,
"Oba":6437,
"Spoj":6438,
"##ďar":6439,
"##tují":6440,
"koneč":6441,
"##zal":6442,
"##kop":6443,
"ml":6444,
"cm":6445,
"chceme":6446,
"kulturní":6447,
"dvoji":6448,
"32":6449,
"##rátu":6450,
"tan":6451,
"Sto":6452,
"##CE":6453,
"sítě":6454,
"Lé":6455,
"tělo":6456,
"om":6457,
"ital":6458,
"Američ":6459,
"Vysoč":6460,
"našem":6461,
"získala":6462,
"ún":6463,
"překvap":6464,
"skó":6465,
"trenéra":6466,
"Jiřího":6467,
"fakt":6468,
"respek":6469,
"jíd":6470,
"##stka":6471,
"raději":6472,
"říci":6473,
"stati":6474,
"smlouvu":6475,
"Naopak":6476,
"politické":6477,
"politiky":6478,
"##sket":6479,
"##zek":6480,
"členů":6481,
"přátel":6482,
"skončila":6483,
"dovo":6484,
"celá":6485,
"zaměř":6486,
"baz":6487,
"Let":6488,
"##ovka":6489,
"2010":6490,
"##sahu":6491,
"fond":6492,
"##enky":6493,
"údajně":6494,
"uspořád":6495,
"zabý":6496,
"##raž":6497,
"##výcar":6498,
"věří":6499,
"šet":6500,
"##chem":6501,
"poj":6502,
"##lépe":6503,
"majetku":6504,
"prodlou":6505,
"péče":6506,
"výše":6507,
"##álů":6508,
"Hel":6509,
"speciální":6510,
"extrali":6511,
"česko":6512,
"##jit":6513,
"##end":6514,
"##ex":6515,
"Dení":6516,
"##land":6517,
"##hých":6518,
"pru":6519,
"Mez":6520,
"prázdn":6521,
"##tev":6522,
"##os":6523,
"##loni":6524,
"docela":6525,
"##šak":6526,
"douf":6527,
"##sala":6528,
"300":6529,
"představuje":6530,
"bole":6531,
"typu":6532,
"akcí":6533,
"hou":6534,
"okolo":6535,
"##čej":6536,
"nezávis":6537,
"jezdí":6538,
"dvanáct":6539,
"##desátých":6540,
"gale":6541,
"##moc":6542,
"zdůraz":6543,
"práva":6544,
"Plzni":6545,
"pozici":6546,
"##udí":6547,
"##dějí":6548,
"##šly":6549,
"sbír":6550,
"Zeman":6551,
"dodala":6552,
"fakul":6553,
"hlavním":6554,
"Ky":6555,
"cvi":6556,
"hlavou":6557,
"##mili":6558,
"Pardubice":6559,
"turnaje":6560,
"##nce":6561,
"##IE":6562,
"nesou":6563,
"vypadá":6564,
"Mon":6565,
"schů":6566,
"záchran":6567,
"leti":6568,
"##OM":6569,
"##DU":6570,
"branká":6571,
"důvodů":6572,
"překon":6573,
"##razí":6574,
"pravidelně":6575,
"zápasů":6576,
"##ang":6577,
"velkých":6578,
"případech":6579,
"vnit":6580,
"##chop":6581,
"zrovna":6582,
"nápad":6583,
"řešit":6584,
"##nicí":6585,
"lize":6586,
"ministra":6587,
"Martina":6588,
"Příbra":6589,
"volbách":6590,
"živ":6591,
"počátku":6592,
"týdne":6593,
"jiho":6594,
"středi":6595,
"chystá":6596,
"Více":6597,
"gym":6598,
"##ini":6599,
"tun":6600,
"současnosti":6601,
"leží":6602,
"##cii":6603,
"student":6604,
"Olomouc":6605,
"##mile":6606,
"kg":6607,
"voda":6608,
"##obu":6609,
"klad":6610,
"těžko":6611,
"##ody":6612,
"včere":6613,
"podniku":6614,
"Určit":6615,
"obci":6616,
"divadlo":6617,
"výjim":6618,
"chodí":6619,
"Všichni":6620,
"Největší":6621,
"##volu":6622,
"nástup":6623,
"chybí":6624,
"strana":6625,
"diváků":6626,
"##bil":6627,
"zo":6628,
"Da":6629,
"závěre":6630,
"krimin":6631,
"Sob":6632,
"##ok":6633,
"podnik":6634,
"nějakou":6635,
"2002":6636,
"stovky":6637,
"Rod":6638,
"podíl":6639,
"##šené":6640,
"##ťan":6641,
"uvol":6642,
"životního":6643,
"##enu":6644,
"##mění":6645,
"kry":6646,
"neroz":6647,
"každého":6648,
"##působ":6649,
"konstru":6650,
"létě":6651,
"##zky":6652,
"##adí":6653,
"snímku":6654,
"Sport":6655,
"dosavad":6656,
"uživa":6657,
"Ved":6658,
"vědo":6659,
"##těž":6660,
"nijak":6661,
"Měl":6662,
"nim":6663,
"hlavu":6664,
"uplynu":6665,
"minulého":6666,
"##ovku":6667,
"vypl":6668,
"tímto":6669,
"##AD":6670,
"##isty":6671,
"úrovni":6672,
"utr":6673,
"##rna":6674,
"barev":6675,
"##váme":6676,
"##vení":6677,
"anti":6678,
"svému":6679,
"ekolog":6680,
"přestup":6681,
"mluví":6682,
"Chy":6683,
"Může":6684,
"##názi":6685,
"##vést":6686,
"obnov":6687,
"staré":6688,
"žid":6689,
"##člen":6690,
"##onec":6691,
"##řin":6692,
"##pán":6693,
"pohád":6694,
"##smě":6695,
"cestě":6696,
"Přestože":6697,
"prostředky":6698,
"kle":6699,
"silnici":6700,
"##hodě":6701,
"##áků":6702,
"##broj":6703,
"časopis":6704,
"králov":6705,
"##razili":6706,
"příběh":6707,
"On":6708,
"Českého":6709,
"školá":6710,
"##cena":6711,
"nezaměstn":6712,
"##gar":6713,
"jaře":6714,
"Poz":6715,
"síly":6716,
"ste":6717,
"Samozřejmě":6718,
"##OVÁ":6719,
"průzku":6720,
"##fo":6721,
"##ujícím":6722,
"nest":6723,
"##cházet":6724,
"špatně":6725,
"##alý":6726,
"soukro":6727,
"Poté":6728,
"Muž":6729,
"problémů":6730,
"##lím":6731,
"poro":6732,
"brankář":6733,
"##jích":6734,
"celkové":6735,
"nom":6736,
"##lev":6737,
"jednozna":6738,
"##OP":6739,
"vešker":6740,
"##kace":6741,
"dramat":6742,
"ministerstvo":6743,
"Dra":6744,
"zástupci":6745,
"krátce":6746,
"Nav":6747,
"500":6748,
"ano":6749,
"zemích":6750,
"souk":6751,
"há":6752,
"Mora":6753,
"lav":6754,
"Den":6755,
"hasiči":6756,
"vyrovn":6757,
"##nka":6758,
"kuchy":6759,
"doprov":6760,
"##pas":6761,
"Žád":6762,
"##růst":6763,
"spor":6764,
"##pečí":6765,
"Divad":6766,
"Německu":6767,
"Rych":6768,
"ut":6769,
"##chách":6770,
"##áme":6771,
"##out":6772,
"pracuje":6773,
"##OD":6774,
"těsně":6775,
"případně":6776,
"námi":6777,
"skupin":6778,
"##rut":6779,
"náhod":6780,
"Hy":6781,
"Minister":6782,
"kata":6783,
"##razit":6784,
"minulý":6785,
"##kázal":6786,
"zaměstnanců":6787,
"##koval":6788,
"nejde":6789,
"##žky":6790,
"Ham":6791,
"##ňů":6792,
"##drží":6793,
"divi":6794,
"##noj":6795,
"uplat":6796,
"náhra":6797,
"##klo":6798,
"Har":6799,
"##ese":6800,
"##ise":6801,
"##vost":6802,
"##hlédnout":6803,
"kandidát":6804,
"uvádí":6805,
"##jícího":6806,
"uskuteč":6807,
"##ést":6808,
"stab":6809,
"podrob":6810,
"počítá":6811,
"hodinu":6812,
"##rosta":6813,
"vide":6814,
"##vodu":6815,
"mou":6816,
"předtím":6817,
"##tít":6818,
"koná":6819,
"sezonu":6820,
"##vero":6821,
"Čá":6822,
"nece":6823,
"##ička":6824,
"Pavla":6825,
"neček":6826,
"atra":6827,
"malí":6828,
"Nakonec":6829,
"třiná":6830,
"##nová":6831,
"prvo":6832,
"energie":6833,
"2003":6834,
"##ař":6835,
"původně":6836,
"hranice":6837,
"sobot":6838,
"nákup":6839,
"FC":6840,
"obsad":6841,
"Jakub":6842,
"mlé":6843,
"nechal":6844,
"cesta":6845,
"##enost":6846,
"tvar":6847,
"tvrd":6848,
"sti":6849,
"branku":6850,
"##ránit":6851,
"hot":6852,
"##tace":6853,
"##itelé":6854,
"volby":6855,
"leg":6856,
"At":6857,
"Brna":6858,
"podnikatel":6859,
"Již":6860,
"ochot":6861,
"nádraží":6862,
"buď":6863,
"oce":6864,
"celo":6865,
"hum":6866,
"##vím":6867,
"##šová":6868,
"financ":6869,
"fá":6870,
"##šili":6871,
"##růz":6872,
"chlap":6873,
"desí":6874,
"nejbli":6875,
"2009":6876,
"##čnou":6877,
"dek":6878,
"premiér":6879,
"Car":6880,
"##teré":6881,
"##vací":6882,
"zla":6883,
"Kan":6884,
"stane":6885,
"americké":6886,
"zvýšení":6887,
"##ovský":6888,
"Ge":6889,
"##inace":6890,
"vním":6891,
"##leli":6892,
"škoda":6893,
"##IL":6894,
"##ročně":6895,
"Policisté":6896,
"nesp":6897,
"obli":6898,
"##war":6899,
"##víti":6900,
"##pal":6901,
"Marek":6902,
"pořádku":6903,
"##ota":6904,
"zvu":6905,
"společností":6906,
"36":6907,
"taková":6908,
"##ZE":6909,
"růst":6910,
"Itá":6911,
"##dná":6912,
"výběr":6913,
"##hdejší":6914,
"##emí":6915,
"prozra":6916,
"veřejnost":6917,
"časem":6918,
"Ot":6919,
"##skup":6920,
"##ratu":6921,
"##skok":6922,
"##jícím":6923,
"medi":6924,
"disci":6925,
"odmě":6926,
"Vol":6927,
"odpo":6928,
"energeti":6929,
"##nové":6930,
"zdarma":6931,
"zvyk":6932,
"##chová":6933,
"Stav":6934,
"nekon":6935,
"##lým":6936,
"nalez":6937,
"Mus":6938,
"podobné":6939,
"##vaný":6940,
"týmy":6941,
"##však":6942,
"výstavy":6943,
"soukrom":6944,
"piv":6945,
"bytů":6946,
"moje":6947,
"##tern":6948,
"kterému":6949,
"nejprve":6950,
"přiblí":6951,
"zastá":6952,
"dětmi":6953,
"ráda":6954,
"rozp":6955,
"hla":6956,
"hlediska":6957,
"moment":6958,
"týdny":6959,
"Místo":6960,
"kre":6961,
"mamin":6962,
"obvykle":6963,
"seni":6964,
"vaz":6965,
"okamžitě":6966,
"Ostravě":6967,
"##zech":6968,
"pohledu":6969,
"otázku":6970,
"Rich":6971,
"##sat":6972,
"obrany":6973,
"##čemž":6974,
"neměli":6975,
"koleg":6976,
"dlouhé":6977,
"jasně":6978,
"##nického":6979,
"rela":6980,
"semi":6981,
"##zují":6982,
"vrátit":6983,
"##ks":6984,
"dětem":6985,
"##bran":6986,
"zisk":6987,
"taj":6988,
"celém":6989,
"obtí":6990,
"here":6991,
"##řením":6992,
"musím":6993,
"##50":6994,
"obránce":6995,
"Ov":6996,
"musela":6997,
"pravděpodobně":6998,
"##sledy":6999,
"##uz":7000,
"přiná":7001,
"Tý":7002,
"standard":7003,
"Přes":7004,
"Sil":7005,
"##bře":7006,
"pravda":7007,
"několikrát":7008,
"zvláštní":7009,
"elektri":7010,
"##žela":7011,
"Vítěz":7012,
"bal":7013,
"Určitě":7014,
"Prů":7015,
"rece":7016,
"zdro":7017,
"propa":7018,
"strateg":7019,
"##řaz":7020,
"##seda":7021,
"Děti":7022,
"##ovit":7023,
"lokali":7024,
"moderní":7025,
"krok":7026,
"##tka":7027,
"##UM":7028,
"##ovské":7029,
"miliony":7030,
"druhá":7031,
"objem":7032,
"##ána":7033,
"Všechny":7034,
"##kvid":7035,
"sbor":7036,
"Budějovice":7037,
"elektrá":7038,
"odboru":7039,
"Právu":7040,
"výročí":7041,
"letošním":7042,
"33":7043,
"Václava":7044,
"##inaci":7045,
"Kvůli":7046,
"nejlépe":7047,
"kompli":7048,
"Svat":7049,
"##balisté":7050,
"přišli":7051,
"##vili":7052,
"Iv":7053,
"##stoupili":7054,
"##tečné":7055,
"legen":7056,
"kvalifika":7057,
"150":7058,
"přičemž":7059,
"bezpečnost":7060,
"veřejné":7061,
"někde":7062,
"##lar":7063,
"šel":7064,
"Dol":7065,
"závis":7066,
"Kub":7067,
"internetu":7068,
"vytá":7069,
"Třeba":7070,
"delší":7071,
"Přitom":7072,
"zvítěz":7073,
"##mněl":7074,
"naro":7075,
"pohod":7076,
"místosta":7077,
"rakou":7078,
"potřebuje":7079,
"##cion":7080,
"konec":7081,
"##lových":7082,
"##ávají":7083,
"zdravotnictví":7084,
"poznamenal":7085,
"spon":7086,
"křes":7087,
"nastav":7088,
"##lích":7089,
"ubyt":7090,
"##chut":7091,
"##rudi":7092,
"lete":7093,
"##jd":7094,
"ošet":7095,
"##hav":7096,
"jedenáct":7097,
"kapa":7098,
"disk":7099,
"##morav":7100,
"##lus":7101,
"Proti":7102,
"ori":7103,
"hlou":7104,
"##čené":7105,
"troj":7106,
"##zná":7107,
"počítač":7108,
"východ":7109,
"##ŘÍ":7110,
"nas":7111,
"mon":7112,
"##aku":7113,
"statisti":7114,
"##ředu":7115,
"##rátor":7116,
"vyrob":7117,
"učitel":7118,
"Frý":7119,
"##AV":7120,
"##jil":7121,
"příč":7122,
"řady":7123,
"útoku":7124,
"žáků":7125,
"vzor":7126,
"vyzkou":7127,
"slá":7128,
"##bami":7129,
"poně":7130,
"vydání":7131,
"and":7132,
"sněmov":7133,
"bývalého":7134,
"konf":7135,
"fotografie":7136,
"regu":7137,
"deva":7138,
"##ery":7139,
"přednost":7140,
"##stále":7141,
"##ičky":7142,
"zakon":7143,
"##ložil":7144,
"smys":7145,
"Fir":7146,
"tuzem":7147,
"##red":7148,
"eta":7149,
"regist":7150,
"##ora":7151,
"pomalu":7152,
"sig":7153,
"kře":7154,
"kní":7155,
"Kateř":7156,
"Českých":7157,
"členové":7158,
"##nos":7159,
"##čením":7160,
"Si":7161,
"odpověd":7162,
"jejíž":7163,
"##nář":7164,
"minimálně":7165,
"lig":7166,
"oceně":7167,
"bývá":7168,
"zásob":7169,
"kráde":7170,
"vzpomín":7171,
"##stek":7172,
"##lární":7173,
"##čané":7174,
"nevím":7175,
"budete":7176,
"onemoc":7177,
"##ůr":7178,
"hudeb":7179,
"plné":7180,
"##neme":7181,
"občanů":7182,
"částe":7183,
"Ci":7184,
"Třebí":7185,
"Náv":7186,
"Většina":7187,
"##tovat":7188,
"podstatě":7189,
"Prav":7190,
"nejvíc":7191,
"stadionu":7192,
"výboru":7193,
"##ropo":7194,
"Angli":7195,
"střet":7196,
"Uher":7197,
"takto":7198,
"eur":7199,
"možností":7200,
"fotbalové":7201,
"fi":7202,
"proved":7203,
"2001":7204,
"##ložit":7205,
"pojištění":7206,
"bav":7207,
"zemřel":7208,
"svazu":7209,
"rozhodčí":7210,
"apli":7211,
"tehdejší":7212,
"MF":7213,
"##řily":7214,
"Někteří":7215,
"vzhledem":7216,
"muzea":7217,
"##entní":7218,
"##tice":7219,
"díla":7220,
"výkonu":7221,
"##kry":7222,
"evropských":7223,
"úro":7224,
"domác":7225,
"skupině":7226,
"pořadí":7227,
"nachází":7228,
"##mal":7229,
"For":7230,
"##žených":7231,
"půjde":7232,
"Dlou":7233,
"##hrát":7234,
"##lor":7235,
"doplnil":7236,
"ostatních":7237,
"Hon":7238,
"##ůžu":7239,
"česká":7240,
"poklad":7241,
"Sparta":7242,
"lékaři":7243,
"šan":7244,
"ped":7245,
"##fu":7246,
"##míra":7247,
"MS":7248,
"opera":7249,
"oble":7250,
"##čeb":7251,
"otec":7252,
"nepoda":7253,
"nedosta":7254,
"likvid":7255,
"zprávy":7256,
"##clav":7257,
"školu":7258,
"bit":7259,
"Základní":7260,
"##pustil":7261,
"##vede":7262,
"mr":7263,
"pole":7264,
"##stům":7265,
"zahr":7266,
"##nova":7267,
"Jsme":7268,
"zamě":7269,
"příštího":7270,
"##kční":7271,
"Jedno":7272,
"Wil":7273,
"pořádá":7274,
"##gram":7275,
"poví":7276,
"drží":7277,
"naroz":7278,
"192":7279,
"naho":7280,
"defini":7281,
"proběh":7282,
"Pí":7283,
"kád":7284,
"sociálních":7285,
"hráli":7286,
"Gu":7287,
"Londý":7288,
"žádnou":7289,
"##TA":7290,
"Fili":7291,
"Miku":7292,
"změnu":7293,
"##kuje":7294,
"##itelně":7295,
"evid":7296,
"hotelu":7297,
"zaplatí":7298,
"##rad":7299,
"takovou":7300,
"OS":7301,
"##ýt":7302,
"každém":7303,
"ram":7304,
"centi":7305,
"##ňování":7306,
"##námil":7307,
"zep":7308,
"bytu":7309,
"dalšího":7310,
"##lid":7311,
"##áru":7312,
"##vahu":7313,
"Ban":7314,
"Britá":7315,
"##ach":7316,
"Blan":7317,
"rozhodli":7318,
"zpí":7319,
"přijít":7320,
"čase":7321,
"ků":7322,
"Hlavní":7323,
"dali":7324,
"hejt":7325,
"##káže":7326,
"deb":7327,
"Nebo":7328,
"##vidu":7329,
"nejbližší":7330,
"nemohl":7331,
"bankov":7332,
"34":7333,
"jejího":7334,
"územ":7335,
"Lukáš":7336,
"And":7337,
"fotbalisté":7338,
"##čty":7339,
"čekají":7340,
"většinu":7341,
"##ovět":7342,
"##forma":7343,
"napsal":7344,
"##čily":7345,
"ptá":7346,
"##alizace":7347,
"##lii":7348,
"##vnitř":7349,
"dokáže":7350,
"Tep":7351,
"přišlo":7352,
"činí":7353,
"##oboda":7354,
"##enosti":7355,
"nepod":7356,
"dneš":7357,
"##mutov":7358,
"far":7359,
"žádná":7360,
"slovo":7361,
"najednou":7362,
"přís":7363,
"pán":7364,
"##ýval":7365,
"uvidí":7366,
"třemi":7367,
"##vách":7368,
"proces":7369,
"hlavy":7370,
"název":7371,
"Ladislav":7372,
"zved":7373,
"zajišť":7374,
"zavá":7375,
"##nesl":7376,
"##fe":7377,
"##mní":7378,
"##tala":7379,
"2011":7380,
"zkla":7381,
"##AM":7382,
"začalo":7383,
"##kovice":7384,
"##tku":7385,
"##voz":7386,
"Nes":7387,
"##KY":7388,
"vstře":7389,
"##ymbur":7390,
"##stin":7391,
"nazna":7392,
"##stan":7393,
"Mosk":7394,
"TJ":7395,
"##slá":7396,
"nejvý":7397,
"fondu":7398,
"dotace":7399,
"mužstva":7400,
"##dka":7401,
"pokračuje":7402,
"##áky":7403,
"hasičů":7404,
"televizi":7405,
"DNES":7406,
"dveře":7407,
"Čechách":7408,
"dává":7409,
"##jících":7410,
"Slu":7411,
"obchodu":7412,
"Euro":7413,
"natá":7414,
"##cová":7415,
"##jede":7416,
"##pit":7417,
"##rodil":7418,
"stanovi":7419,
"vyhrát":7420,
"Nor":7421,
"Japon":7422,
"##vých":7423,
"##anech":7424,
"jednat":7425,
"nedale":7426,
"tohle":7427,
"##hraje":7428,
"Sokol":7429,
"##nii":7430,
"hudby":7431,
"posta":7432,
"ryb":7433,
"mužstvo":7434,
"středo":7435,
"##větším":7436,
"##ckými":7437,
"přiroz":7438,
"Tyto":7439,
"ostrav":7440,
"velkým":7441,
"##stři":7442,
"##ňka":7443,
"vznikla":7444,
"##odpově":7445,
"##denti":7446,
"Kal":7447,
"ben":7448,
"států":7449,
"rozsá":7450,
"léč":7451,
"dopoledne":7452,
"Yor":7453,
"Doma":7454,
"Stanislav":7455,
"projev":7456,
"##čkem":7457,
"struktu":7458,
"noc":7459,
"inten":7460,
"PRO":7461,
"Cest":7462,
"Nad":7463,
"Některé":7464,
"vysoko":7465,
"Eva":7466,
"mladých":7467,
"rekonstrukce":7468,
"přeno":7469,
"váž":7470,
"příležitost":7471,
"hlubo":7472,
"KS":7473,
"##ung":7474,
"oto":7475,
"viděl":7476,
"##chodem":7477,
"vle":7478,
"značky":7479,
"každou":7480,
"představit":7481,
"##zrael":7482,
"otázka":7483,
"##stroj":7484,
"účet":7485,
"Cent":7486,
"Char":7487,
"ga":7488,
"##mati":7489,
"zimní":7490,
"agentury":7491,
"třetím":7492,
"televizní":7493,
"Českosloven":7494,
"krajského":7495,
"##ávat":7496,
"Hradi":7497,
"##leh":7498,
"přiznal":7499,
"##ovek":7500,
"dalšími":7501,
"##spek":7502,
"arg":7503,
"##nická":7504,
"chování":7505,
"Kop":7506,
"Bohem":7507,
"bet":7508,
"neustále":7509,
"přiví":7510,
"návštěvníci":7511,
"šťast":7512,
"##ribu":7513,
"konkrétní":7514,
"##jat":7515,
"cestou":7516,
"##romady":7517,
"minulých":7518,
"posil":7519,
"skutečnosti":7520,
"stačí":7521,
"historie":7522,
"tábor":7523,
"##entu":7524,
"evropské":7525,
"výroby":7526,
"sbě":7527,
"letad":7528,
"hrají":7529,
"změně":7530,
"spoustu":7531,
"školství":7532,
"Lubo":7533,
"příklad":7534,
"##pela":7535,
"zájmu":7536,
"Auto":7537,
"alkoholu":7538,
"##rák":7539,
"Češi":7540,
"mohu":7541,
"individu":7542,
"deníku":7543,
"využití":7544,
"vánoční":7545,
"letní":7546,
"sni":7547,
"policii":7548,
"prim":7549,
"takz":7550,
"Vzhledem":7551,
"Des":7552,
"Štěpán":7553,
"Dod":7554,
"##znamu":7555,
"##psal":7556,
"Novot":7557,
"takového":7558,
"##SKÉ":7559,
"##kovým":7560,
"Národní":7561,
"trans":7562,
"poloviny":7563,
"##ozem":7564,
"krize":7565,
"závěr":7566,
"##atřiceti":7567,
"stat":7568,
"##níkem":7569,
"55":7570,
"stránkách":7571,
"web":7572,
"činu":7573,
"tero":7574,
"upřes":7575,
"nechat":7576,
"oslov":7577,
"vedením":7578,
"autobus":7579,
"úz":7580,
"##sedy":7581,
"zbav":7582,
"arm":7583,
"výjime":7584,
"38":7585,
"##ivní":7586,
"propu":7587,
"expozice":7588,
"##jev":7589,
"ag":7590,
"Bru":7591,
"příležitosti":7592,
"##tla":7593,
"radní":7594,
"hr":7595,
"##cené":7596,
"žlu":7597,
"Krát":7598,
"získali":7599,
"neg":7600,
"obžal":7601,
"mého":7602,
"Bi":7603,
"##tních":7604,
"pokus":7605,
"lidmi":7606,
"Jar":7607,
"vyhráli":7608,
"Dne":7609,
"##éra":7610,
"vystup":7611,
"##tilo":7612,
"osoby":7613,
"##xe":7614,
"##láda":7615,
"##entem":7616,
"termín":7617,
"psa":7618,
"zálož":7619,
"Bel":7620,
"srovnání":7621,
"##ase":7622,
"hranici":7623,
"potě":7624,
"zápasech":7625,
"těší":7626,
"místopřed":7627,
"Klat":7628,
"čí":7629,
"Bohužel":7630,
"tenis":7631,
"##dku":7632,
"##kola":7633,
"chtěla":7634,
"trati":7635,
"Tro":7636,
"##leně":7637,
"##řeno":7638,
"Foto":7639,
"Španěl":7640,
"Go":7641,
"Řek":7642,
"rodina":7643,
"##zka":7644,
"stejný":7645,
"rozhodla":7646,
"Čty":7647,
"Prob":7648,
"srdce":7649,
"pobo":7650,
"2012":7651,
"basket":7652,
"##něných":7653,
"##vaná":7654,
"400":7655,
"##pří":7656,
"pozornost":7657,
"hez":7658,
"osobně":7659,
"##držel":7660,
"dozvě":7661,
"zu":7662,
"Rus":7663,
"problem":7664,
"##zejí":7665,
"vážně":7666,
"Meziná":7667,
"privati":7668,
"Mari":7669,
"##zoval":7670,
"hř":7671,
"patnácti":7672,
"následně":7673,
"generál":7674,
"Most":7675,
"pó":7676,
"##ted":7677,
"uspě":7678,
"hlavního":7679,
"##AT":7680,
"režisér":7681,
"čerst":7682,
"Klu":7683,
"dist":7684,
"jinde":7685,
"důkaz":7686,
"propad":7687,
"##čík":7688,
"##exist":7689,
"##poj":7690,
"zdrav":7691,
"Roky":7692,
"favor":7693,
"histori":7694,
"povod":7695,
"##ruhé":7696,
"trag":7697,
"kapitán":7698,
"bur":7699,
"dokázal":7700,
"ran":7701,
"##advacet":7702,
"směru":7703,
"fyzi":7704,
"dřevě":7705,
"doslova":7706,
"##jekt":7707,
"191":7708,
"person":7709,
"velko":7710,
"úse":7711,
"bron":7712,
"celek":7713,
"domov":7714,
"##lob":7715,
"vyrábě":7716,
"hmot":7717,
"funguje":7718,
"desítek":7719,
"##OB":7720,
"tal":7721,
"základních":7722,
"podě":7723,
"Ši":7724,
"Snad":7725,
"Karla":7726,
"##enější":7727,
"gólman":7728,
"##alaš":7729,
"ústavu":7730,
"##jedná":7731,
"vidění":7732,
"kategorie":7733,
"nahrá":7734,
"Bal":7735,
"##lala":7736,
"Ga":7737,
"aka":7738,
"malý":7739,
"##pil":7740,
"třiceti":7741,
"novým":7742,
"smysl":7743,
"tvůr":7744,
"spojení":7745,
"Trené":7746,
"##avatel":7747,
"##stroje":7748,
"olomou":7749,
"##zené":7750,
"rekonstrukci":7751,
"##rigin":7752,
"syna":7753,
"Sna":7754,
"nechy":7755,
"##roval":7756,
"zpěvá":7757,
"Chod":7758,
"37":7759,
"NHL":7760,
"##soci":7761,
"oni":7762,
"##čt":7763,
"úsmě":7764,
"Zároveň":7765,
"##ány":7766,
"gymnázi":7767,
"správy":7768,
"ovo":7769,
"svoje":7770,
"nemám":7771,
"##dilo":7772,
"##AK":7773,
"slouží":7774,
"Výsled":7775,
"sal":7776,
"##tip":7777,
"##šný":7778,
"vrací":7779,
"parlamentu":7780,
"##etro":7781,
"##oná":7782,
"1998":7783,
"nast":7784,
"##letou":7785,
"konstatoval":7786,
"Vset":7787,
"vozu":7788,
"změnit":7789,
"##řík":7790,
"vteř":7791,
"oblast":7792,
"divadelní":7793,
"předná":7794,
"míní":7795,
"obyvatelé":7796,
"ona":7797,
"##itou":7798,
"Jindřich":7799,
"Obec":7800,
"vypla":7801,
"Ač":7802,
"sněhu":7803,
"vozidla":7804,
"Fil":7805,
"##žením":7806,
"##ladu":7807,
"slavnost":7808,
"mnou":7809,
"##oři":7810,
"zauj":7811,
"##nalo":7812,
"snížení":7813,
"daně":7814,
"Jes":7815,
"##čují":7816,
"Lan":7817,
"##bili":7818,
"výš":7819,
"nebyly":7820,
"ovlád":7821,
"řidiče":7822,
"dodnes":7823,
"##ónu":7824,
"vyboj":7825,
"řidiči":7826,
"##ash":7827,
"strach":7828,
"##cyk":7829,
"##níkům":7830,
"##ujete":7831,
"opra":7832,
"důvodu":7833,
"##cel":7834,
"parlament":7835,
"vyv":7836,
"##dali":7837,
"Zí":7838,
"doba":7839,
"##áka":7840,
"Řid":7841,
"42":7842,
"nejča":7843,
"spolupráce":7844,
"nená":7845,
"zajímavé":7846,
"odliš":7847,
"nejspí":7848,
"otázky":7849,
"##bylo":7850,
"pozdě":7851,
"považuje":7852,
"##žíme":7853,
"mó":7854,
"výrobu":7855,
"komunikace":7856,
"průmyslu":7857,
"##ůležitější":7858,
"Jihlav":7859,
"udělal":7860,
"penal":7861,
"německé":7862,
"Josefa":7863,
"okra":7864,
"remí":7865,
"##die":7866,
"discip":7867,
"Ondřej":7868,
"cíl":7869,
"##lesk":7870,
"nemohou":7871,
"##nské":7872,
"názoru":7873,
"nepříjem":7874,
"Slavia":7875,
"##rati":7876,
"Polá":7877,
"prově":7878,
"poci":7879,
"objeví":7880,
"##anů":7881,
"ins":7882,
"jím":7883,
"derby":7884,
"Chrudi":7885,
"##ráz":7886,
"nabídku":7887,
"náměstek":7888,
"Ver":7889,
"##káž":7890,
"soustře":7891,
"vynika":7892,
"prostředků":7893,
"diplo":7894,
"ředitelka":7895,
"zdejší":7896,
"plně":7897,
"pochyb":7898,
"přechod":7899,
"podívat":7900,
"##řa":7901,
"Ir":7902,
"##visí":7903,
"##řeli":7904,
"##ovaným":7905,
"##ničky":7906,
"pravo":7907,
"hospoda":7908,
"připomíná":7909,
"##par":7910,
"devíti":7911,
"kdysi":7912,
"výz":7913,
"obsa":7914,
"##gem":7915,
"místních":7916,
"dobrou":7917,
"případů":7918,
"týdnu":7919,
"dohromady":7920,
"##lali":7921,
"sexu":7922,
"ČTK":7923,
"vodu":7924,
"##vilo":7925,
"Dop":7926,
"Zač":7927,
"státy":7928,
"Představ":7929,
"oproti":7930,
"dosah":7931,
"##idlo":7932,
"mech":7933,
"investice":7934,
"##zozem":7935,
"jména":7936,
"přeboru":7937,
"##vedení":7938,
"péči":7939,
"sví":7940,
"kru":7941,
"##řov":7942,
"Mer":7943,
"turisti":7944,
"rychlost":7945,
"vymě":7946,
"chvíle":7947,
"##OT":7948,
"HC":7949,
"##dej":7950,
"souhla":7951,
"##rea":7952,
"Německa":7953,
"schod":7954,
"##vát":7955,
"kres":7956,
"##taci":7957,
"##AS":7958,
"Havlíč":7959,
"Žď":7960,
"##lejší":7961,
"zachy":7962,
"Vyš":7963,
"postavení":7964,
"uměl":7965,
"armá":7966,
"KSČ":7967,
"##rné":7968,
"vrátí":7969,
"pit":7970,
"vyžad":7971,
"povrch":7972,
"1999":7973,
"kamen":7974,
"##žena":7975,
"##dub":7976,
"##ujícího":7977,
"váš":7978,
"jiná":7979,
"##nala":7980,
"##telný":7981,
"Zel":7982,
"Pel":7983,
"bydlení":7984,
"Důvod":7985,
"##nímu":7986,
"podání":7987,
"slab":7988,
"##ebu":7989,
"mistrů":7990,
"kriminali":7991,
"vzniku":7992,
"proz":7993,
"##gn":7994,
"dostanou":7995,
"##tury":7996,
"podotkl":7997,
"dar":7998,
"diváci":7999,
"Radek":8000,
"zůstal":8001,
"poved":8002,
"##nky":8003,
"proná":8004,
"začaly":8005,
"##žování":8006,
"všeho":8007,
"žáci":8008,
"uva":8009,
"##NA":8010,
"těla":8011,
"příštím":8012,
"ruku":8013,
"##něný":8014,
"policistů":8015,
"neře":8016,
"žeb":8017,
"##stoupila":8018,
"bás":8019,
"san":8020,
"##ident":8021,
"podmínek":8022,
"někoho":8023,
"Svoboda":8024,
"mluvit":8025,
"##eném":8026,
"##lovou":8027,
"poslal":8028,
"Zájem":8029,
"mění":8030,
"##nak":8031,
"Naše":8032,
"princi":8033,
"cuk":8034,
"##obo":8035,
"##ovatelé":8036,
"polovinu":8037,
"##zilo":8038,
"neměla":8039,
"##poz":8040,
"fyz":8041,
"najdete":8042,
"všude":8043,
"vnitra":8044,
"šancí":8045,
"Švéd":8046,
"Včera":8047,
"doprovod":8048,
"vystoupí":8049,
"##něji":8050,
"soupeři":8051,
"nicméně":8052,
"mini":8053,
"našel":8054,
"dveří":8055,
"##iss":8056,
"##vané":8057,
"Ser":8058,
"##kas":8059,
"##ill":8060,
"Zv":8061,
"oddí":8062,
"pivov":8063,
"břez":8064,
"předchozí":8065,
"##lář":8066,
"reál":8067,
"##třeb":8068,
"ledě":8069,
"aspoň":8070,
"eu":8071,
"off":8072,
"náskok":8073,
"ukra":8074,
"vybavení":8075,
"##zační":8076,
"akcií":8077,
"zabez":8078,
"objektu":8079,
"##loval":8080,
"řem":8081,
"romá":8082,
"##jeli":8083,
"##OS":8084,
"Fer":8085,
"##lela":8086,
"##ik":8087,
"##škod":8088,
"skutečnost":8089,
"zahraničních":8090,
"##lému":8091,
"úroveň":8092,
"##ární":8093,
"pardub":8094,
"zasá":8095,
"současně":8096,
"junior":8097,
"##div":8098,
"Jedná":8099,
"##kost":8100,
"zpráva":8101,
"poby":8102,
"SE":8103,
"loňském":8104,
"Francie":8105,
"##kázala":8106,
"##ros":8107,
"průvod":8108,
"vrchol":8109,
"vypo":8110,
"horší":8111,
"1997":8112,
"##kův":8113,
"##chý":8114,
"nejdříve":8115,
"knih":8116,
"čet":8117,
"dostup":8118,
"říkal":8119,
"##mon":8120,
"série":8121,
"předpis":8122,
"nejrůz":8123,
"Med":8124,
"zloděj":8125,
"emi":8126,
"Ča":8127,
"mladé":8128,
"##cové":8129,
"taneční":8130,
"popsal":8131,
"zemědělství":8132,
"1989":8133,
"pivo":8134,
"výkony":8135,
"nezaměstnan":8136,
"reprezentace":8137,
"usil":8138,
"##hala":8139,
"Hned":8140,
"oboru":8141,
"jader":8142,
"zasedání":8143,
"preven":8144,
"##tové":8145,
"Znoj":8146,
"##ovatele":8147,
"předem":8148,
"vím":8149,
"Cena":8150,
"bývalé":8151,
"Problém":8152,
"třídě":8153,
"Poli":8154,
"inspek":8155,
"Kde":8156,
"odmítl":8157,
"Vždyť":8158,
"chci":8159,
"revolu":8160,
"šampionátu":8161,
"##tický":8162,
"pedag":8163,
"snadno":8164,
"vůz":8165,
"##IV":8166,
"škodu":8167,
"Obě":8168,
"domácího":8169,
"poslou":8170,
"##dky":8171,
"Lin":8172,
"odehrá":8173,
"Nymbur":8174,
"##lena":8175,
"##stali":8176,
"zdo":8177,
"##žilo":8178,
"zdrojů":8179,
"##ley":8180,
"vedl":8181,
"Sáz":8182,
"trval":8183,
"trvá":8184,
"##mlou":8185,
"##ban":8186,
"##ID":8187,
"##niky":8188,
"##ády":8189,
"zůstane":8190,
"chuť":8191,
"mládeže":8192,
"Has":8193,
"skóre":8194,
"MU":8195,
"uzavř":8196,
"předvá":8197,
"pozice":8198,
"Jihoče":8199,
"##štěm":8200,
"lednu":8201,
"Loni":8202,
"každo":8203,
"hnutí":8204,
"vítě":8205,
"##IM":8206,
"moto":8207,
"Kli":8208,
"##žují":8209,
"##atelé":8210,
"sportu":8211,
"cizí":8212,
"existuje":8213,
"##enácti":8214,
"nedostat":8215,
"kilomet":8216,
"vystří":8217,
"vládní":8218,
"39":8219,
"##obec":8220,
"domní":8221,
"Jinak":8222,
"semifinále":8223,
"jediné":8224,
"zpátky":8225,
"zajistit":8226,
"##itomě":8227,
"dávno":8228,
"Ostat":8229,
"Jir":8230,
"pořádně":8231,
"stráv":8232,
"kterými":8233,
"##LE":8234,
"Součas":8235,
"nedáv":8236,
"premiéra":8237,
"Lud":8238,
"jsi":8239,
"##lepším":8240,
"48":8241,
"hrad":8242,
"též":8243,
"##řídit":8244,
"Olomouci":8245,
"##ess":8246,
"##kovy":8247,
"vytvořit":8248,
"připravuje":8249,
"Hosté":8250,
"Původ":8251,
"hledá":8252,
"##cu":8253,
"zaměstnání":8254,
"Chceme":8255,
"kles":8256,
"odvá":8257,
"vodou":8258,
"kontra":8259,
"jezdit":8260,
"##inové":8261,
"##laci":8262,
"soubo":8263,
"hodnocení":8264,
"upozornil":8265,
"Vod":8266,
"vědět":8267,
"dle":8268,
"hodnoty":8269,
"poněkud":8270,
"zruš":8271,
"udělá":8272,
"Dokon":8273,
"##rand":8274,
"Jednou":8275,
"##mout":8276,
"metropo":8277,
"státního":8278,
"##oty":8279,
"tlak":8280,
"##žnost":8281,
"dojde":8282,
"restaurace":8283,
"nezbyt":8284,
"##cházející":8285,
"inici":8286,
"anebo":8287,
"dolů":8288,
"neexist":8289,
"##leb":8290,
"zpravoda":8291,
"##šený":8292,
"spočí":8293,
"show":8294,
"parkovi":8295,
"##ládá":8296,
"##poví":8297,
"##smus":8298,
"##tily":8299,
"nejmen":8300,
"dřív":8301,
"generace":8302,
"čekat":8303,
"##háně":8304,
"ženu":8305,
"ač":8306,
"Cup":8307,
"volební":8308,
"spole":8309,
"malých":8310,
"odst":8311,
"Karlovy":8312,
"1996":8313,
"libere":8314,
"Násled":8315,
"měsících":8316,
"Ovšem":8317,
"Jihlava":8318,
"polož":8319,
"##rka":8320,
"týmů":8321,
"školní":8322,
"pravdu":8323,
"Země":8324,
"částí":8325,
"##ózní":8326,
"výsledků":8327,
"chtít":8328,
"chyb":8329,
"dobrá":8330,
"očekává":8331,
"stavbu":8332,
"Lip":8333,
"informoval":8334,
"centimetrů":8335,
"výda":8336,
"##top":8337,
"koncep":8338,
"Tech":8339,
"##horší":8340,
"##nut":8341,
"umístění":8342,
"popisuje":8343,
"potřebu":8344,
"Autor":8345,
"dodrž":8346,
"##uš":8347,
"nepodařilo":8348,
"přehlíd":8349,
"průkaz":8350,
"svobody":8351,
"##dělen":8352,
"##OK":8353,
"##nička":8354,
"přesu":8355,
"výu":8356,
"průměru":8357,
"známé":8358,
"čtrnáct":8359,
"rozhodne":8360,
"předved":8361,
"přípravy":8362,
"studentů":8363,
"kanceláře":8364,
"Alex":8365,
"##ňa":8366,
"Tele":8367,
"seriálu":8368,
"přírody":8369,
"##zt":8370,
"kolegy":8371,
"Dan":8372,
"konzer":8373,
"prohlíd":8374,
"Maďar":8375,
"přízniv":8376,
"křižovat":8377,
"##íme":8378,
"děje":8379,
"eli":8380,
"koupit":8381,
"návrhu":8382,
"studenti":8383,
"generální":8384,
"přítel":8385,
"navrh":8386,
"190":8387,
"poločase":8388,
"kapely":8389,
"##era":8390,
"##feren":8391,
"##oden":8392,
"Západ":8393,
"hlasů":8394,
"75":8395,
"Ukraj":8396,
"skončí":8397,
"týká":8398,
"hvězd":8399,
"krou":8400,
"Rudolf":8401,
"Kor":8402,
"fron":8403,
"vzpomíná":8404,
"směř":8405,
"příbě":8406,
"deta":8407,
"##pravu":8408,
"bronz":8409,
"smyslu":8410,
"##sné":8411,
"domy":8412,
"navá":8413,
"##cov":8414,
"čín":8415,
"dokázali":8416,
"doč":8417,
"##cher":8418,
"##stický":8419,
"rozdí":8420,
"##tová":8421,
"prodeje":8422,
"plynu":8423,
"Hradci":8424,
"John":8425,
"primátor":8426,
"pokles":8427,
"##zdob":8428,
"servis":8429,
"##říme":8430,
"kau":8431,
"dot":8432,
"jisté":8433,
"##wa":8434,
"kategori":8435,
"vztahy":8436,
"liga":8437,
"znalo":8438,
"povolení":8439,
"boji":8440,
"or":8441,
"těšit":8442,
"origin":8443,
"##ski":8444,
"##řák":8445,
"dala":8446,
"umožňuje":8447,
"banka":8448,
"převážně":8449,
"včerejší":8450,
"##tivy":8451,
"největším":8452,
"hale":8453,
"Společnost":8454,
"řemes":8455,
"týdnů":8456,
"##letr":8457,
"hledat":8458,
"Tepli":8459,
"presti":8460,
"Sparty":8461,
"dlouhodobě":8462,
"##xus":8463,
"Zlat":8464,
"bezpečnostní":8465,
"Vlt":8466,
"jakým":8467,
"##centní":8468,
"role":8469,
"stroj":8470,
"##zování":8471,
"##řech":8472,
"##kál":8473,
"maje":8474,
"musejí":8475,
"saz":8476,
"anga":8477,
"oži":8478,
"##edie":8479,
"Vary":8480,
"analy":8481,
"používá":8482,
"NATO":8483,
"##odpověd":8484,
"sérii":8485,
"nohy":8486,
"elektř":8487,
"vládě":8488,
"##stku":8489,
"dílo":8490,
"##form":8491,
"##rová":8492,
"Ol":8493,
"##něn":8494,
"částku":8495,
"##bro":8496,
"úřady":8497,
"Mimo":8498,
"pokr":8499,
"San":8500,
"případu":8501,
"##enice":8502,
"trž":8503,
"takových":8504,
"##lový":8505,
"neděle":8506,
"zájemci":8507,
"##ďte":8508,
"šla":8509,
"jarní":8510,
"##chou":8511,
"hygi":8512,
"Vstup":8513,
"##iru":8514,
"##hali":8515,
"uniká":8516,
"sjezd":8517,
"Hana":8518,
"Plzně":8519,
"en":8520,
"Terez":8521,
"##rin":8522,
"vyhled":8523,
"Návště":8524,
"##žily":8525,
"Novák":8526,
"Con":8527,
"##HO":8528,
"síť":8529,
"000":8530,
"psychi":8531,
"řeší":8532,
"##čných":8533,
"avšak":8534,
"tradičně":8535,
"##ple":8536,
"Miloš":8537,
"konz":8538,
"chlad":8539,
"##minist":8540,
"byť":8541,
"pali":8542,
"Švýcar":8543,
"volej":8544,
"věz":8545,
"přemýš":8546,
"Střed":8547,
"extr":8548,
"##alé":8549,
"druhým":8550,
"##cin":8551,
"imp":8552,
"##lovi":8553,
"##jedou":8554,
"hodlá":8555,
"Dále":8556,
"transp":8557,
"2013":8558,
"čtyřicet":8559,
"rybní":8560,
"##ÍN":8561,
"##stel":8562,
"##jce":8563,
"důraz":8564,
"svo":8565,
"podeps":8566,
"tram":8567,
"Tom":8568,
"brankáře":8569,
"fotografií":8570,
"takhle":8571,
"cíle":8572,
"nebezpečí":8573,
"Tábor":8574,
"klidu":8575,
"Pě":8576,
"##jili":8577,
"někdejší":8578,
"##aci":8579,
"přísluš":8580,
"jednoduché":8581,
"potíže":8582,
"rada":8583,
"##uží":8584,
"jednoznačně":8585,
"##eš":8586,
"zaměstnanci":8587,
"přijdou":8588,
"aniž":8589,
"závody":8590,
"Prostějov":8591,
"našli":8592,
"venkov":8593,
"rock":8594,
"přestože":8595,
"zvířat":8596,
"vhodné":8597,
"shro":8598,
"Okres":8599,
"píše":8600,
"něhož":8601,
"##rový":8602,
"Druhý":8603,
"naposledy":8604,
"spotřeb":8605,
"##vější":8606,
"kov":8607,
"ostrov":8608,
"ház":8609,
"Toto":8610,
"Win":8611,
"pilo":8612,
"##káři":8613,
"##paň":8614,
"hostů":8615,
"televiz":8616,
"Kun":8617,
"firmě":8618,
"Strako":8619,
"tabulce":8620,
"##oni":8621,
"desig":8622,
"Svobod":8623,
"úsp":8624,
"##oče":8625,
"potřeby":8626,
"Ústav":8627,
"##čena":8628,
"##leti":8629,
"Kladno":8630,
"vez":8631,
"novém":8632,
"##lada":8633,
"Chomutov":8634,
"kapaci":8635,
"##berg":8636,
"Moravě":8637,
"##adř":8638,
"demon":8639,
"litera":8640,
"branek":8641,
"určité":8642,
"podaří":8643,
"##lené":8644,
"nábo":8645,
"začátkem":8646,
"návštěvníky":8647,
"obo":8648,
"##voká":8649,
"výstavu":8650,
"brat":8651,
"pana":8652,
"##mene":8653,
"En":8654,
"střele":8655,
"válce":8656,
"vzal":8657,
"americký":8658,
"adresu":8659,
"podla":8660,
"Muze":8661,
"##enzi":8662,
"##ovaní":8663,
"absolu":8664,
"Dani":8665,
"splá":8666,
"seku":8667,
"osvět":8668,
"##lické":8669,
"##ovatelů":8670,
"##lením":8671,
"tomuto":8672,
"potenci":8673,
"##nál":8674,
"##lum":8675,
"Masary":8676,
"zni":8677,
"nikoli":8678,
"##nera":8679,
"##rchest":8680,
"údrž":8681,
"##štej":8682,
"bom":8683,
"Vedení":8684,
"zaplatit":8685,
"##áty":8686,
"městem":8687,
"silnic":8688,
"44":8689,
"##zidel":8690,
"##tení":8691,
"##hři":8692,
"ukazuje":8693,
"##lár":8694,
"matka":8695,
"obhá":8696,
"##burg":8697,
"venku":8698,
"Havel":8699,
"radi":8700,
"obsahuje":8701,
"vozidel":8702,
"projekty":8703,
"vyšetřování":8704,
"částečně":8705,
"zastupitelé":8706,
"stává":8707,
"##rub":8708,
"##tním":8709,
"##liko":8710,
"##jíždí":8711,
"##pol":8712,
"##spěš":8713,
"přináší":8714,
"použit":8715,
"nepla":8716,
"Vrch":8717,
"zkušenost":8718,
"Želez":8719,
"třikrát":8720,
"Fak":8721,
"výpově":8722,
"##šuje":8723,
"##eolog":8724,
"divadle":8725,
"nechtěl":8726,
"výzkum":8727,
"zimě":8728,
"##oti":8729,
"##telně":8730,
"objevil":8731,
"pravidla":8732,
"##čov":8733,
"Středo":8734,
"představen":8735,
"zůstat":8736,
"Kaž":8737,
"Teplice":8738,
"Nikdo":8739,
"Tady":8740,
"Kul":8741,
"Pov":8742,
"jednotlivé":8743,
"##hry":8744,
"špatné":8745,
"uzaví":8746,
"žít":8747,
"##org":8748,
"českou":8749,
"##bar":8750,
"Rou":8751,
"Há":8752,
"postavit":8753,
"vyhrá":8754,
"obavy":8755,
"vychází":8756,
"##řům":8757,
"ČEZ":8758,
"##niku":8759,
"nezná":8760,
"balí":8761,
"rozum":8762,
"chud":8763,
"Ag":8764,
"vozů":8765,
"##orem":8766,
"psycholog":8767,
"stabili":8768,
"##ismus":8769,
"##álové":8770,
"krajské":8771,
"herec":8772,
"Pís":8773,
"budoucí":8774,
"46":8775,
"červnu":8776,
"radnici":8777,
"nedaleko":8778,
"Jaroslava":8779,
"43":8780,
"duel":8781,
"Měli":8782,
"Ri":8783,
"##měrně":8784,
"odv":8785,
"Sokolov":8786,
"pohár":8787,
"Úřad":8788,
"šestnáct":8789,
"jenže":8790,
"nevz":8791,
"##seli":8792,
"domin":8793,
"Kni":8794,
"postupu":8795,
"##čený":8796,
"maximálně":8797,
"maso":8798,
"##kladu":8799,
"vysokou":8800,
"Sko":8801,
"podpis":8802,
"##tin":8803,
"výrobce":8804,
"odvez":8805,
"rozhovoru":8806,
"působil":8807,
"souhlas":8808,
"mezinárod":8809,
"park":8810,
"diváky":8811,
"týmem":8812,
"boje":8813,
"##liště":8814,
"čeho":8815,
"nemáme":8816,
"ZŠ":8817,
"uvnitř":8818,
"Láz":8819,
"aktivní":8820,
"okna":8821,
"energi":8822,
"omezení":8823,
"ruka":8824,
"hlavních":8825,
"##rala":8826,
"nejlepších":8827,
"Litví":8828,
"##sili":8829,
"odborníků":8830,
"fo":8831,
"Tehdy":8832,
"prohlášení":8833,
"hodině":8834,
"Kri":8835,
"praxi":8836,
"přípravě":8837,
"Gale":8838,
"veřejných":8839,
"družstva":8840,
"jejích":8841,
"vstupu":8842,
"bezp":8843,
"##rám":8844,
"škody":8845,
"##jedn":8846,
"Zby":8847,
"dopravu":8848,
"členy":8849,
"##lic":8850,
"Ca":8851,
"##diční":8852,
"setká":8853,
"##stál":8854,
"fig":8855,
"sle":8856,
"##ilu":8857,
"vyprac":8858,
"Liberci":8859,
"desát":8860,
"Břeclav":8861,
"ideální":8862,
"použít":8863,
"##říčí":8864,
"ochranu":8865,
"chá":8866,
"padesáti":8867,
"návrat":8868,
"Otev":8869,
"##ša":8870,
"posky":8871,
"##ík":8872,
"Jel":8873,
"malá":8874,
"##šeli":8875,
"FK":8876,
"tová":8877,
"Trenér":8878,
"nákladů":8879,
"návratu":8880,
"výběru":8881,
"Krátce":8882,
"bor":8883,
"Prac":8884,
"Tat":8885,
"Přerov":8886,
"##vkou":8887,
"Jaké":8888,
"starosti":8889,
"ušet":8890,
"události":8891,
"jedinou":8892,
"spousta":8893,
"Horní":8894,
"##chat":8895,
"dvanácti":8896,
"char":8897,
"##sař":8898,
"členem":8899,
"mikro":8900,
"Gr":8901,
"zahájení":8902,
"pád":8903,
"vzrost":8904,
"začínají":8905,
"##advacetiletý":8906,
"##jas":8907,
"Bed":8908,
"##los":8909,
"turnaji":8910,
"##antní":8911,
"spoluhrá":8912,
"##rozu":8913,
"miliónu":8914,
"nevi":8915,
"jinou":8916,
"##eniny":8917,
"termí":8918,
"věnovat":8919,
"65":8920,
"##armo":8921,
"Karlovar":8922,
"podruhé":8923,
"##chař":8924,
"chodit":8925,
"##inami":8926,
"Rů":8927,
"Slavie":8928,
"použití":8929,
"market":8930,
"##ove":8931,
"Beneš":8932,
"vydal":8933,
"bab":8934,
"##dili":8935,
"bram":8936,
"pracovních":8937,
"41":8938,
"jaká":8939,
"##gion":8940,
"Lucie":8941,
"řeky":8942,
"pochval":8943,
"duelu":8944,
"onemocnění":8945,
"aktivity":8946,
"majetek":8947,
"hek":8948,
"neuvě":8949,
"jiným":8950,
"##git":8951,
"Filip":8952,
"##ria":8953,
"slíb":8954,
"porov":8955,
"přím":8956,
"připomín":8957,
"technické":8958,
"fede":8959,
"##nav":8960,
"prostory":8961,
"##čného":8962,
"květnu":8963,
"lehce":8964,
"Robert":8965,
"##minu":8966,
"##gal":8967,
"Úste":8968,
"KIN":8969,
"novo":8970,
"růstu":8971,
"Ivana":8972,
"muzeum":8973,
"##ŘE":8974,
"jménem":8975,
"Moravy":8976,
"pozitivní":8977,
"charakteri":8978,
"nese":8979,
"##menout":8980,
"cu":8981,
"##rab":8982,
"Příbram":8983,
"nejspíš":8984,
"přichází":8985,
"##áku":8986,
"Brod":8987,
"opravy":8988,
"slyšet":8989,
"speku":8990,
"dopředu":8991,
"Vedle":8992,
"Kateřina":8993,
"šéfa":8994,
"hasič":8995,
"##alup":8996,
"závodě":8997,
"společné":8998,
"závaz":8999,
"##lují":9000,
"mír":9001,
"##livý":9002,
"slad":9003,
"1995":9004,
"stránky":9005,
"vykon":9006,
"šedesát":9007,
"bojovat":9008,
"úspěchu":9009,
"##ans":9010,
"Ministerstvo":9011,
"hromad":9012,
"Celkem":9013,
"##říže":9014,
"sledovat":9015,
"rodičů":9016,
"opa":9017,
"Dvě":9018,
"odkud":9019,
"Bus":9020,
"univerzity":9021,
"hřbit":9022,
"odešel":9023,
"Sever":9024,
"hodnotě":9025,
"##IP":9026,
"nabídky":9027,
"španěl":9028,
"půli":9029,
"mysli":9030,
"##hned":9031,
"##mun":9032,
"medaili":9033,
"zbyt":9034,
"250":9035,
"##žoval":9036,
"09":9037,
"filmů":9038,
"čtyřech":9039,
"spol":9040,
"nejdůležitější":9041,
"vozí":9042,
"form":9043,
"Prez":9044,
"##moř":9045,
"působení":9046,
"techniky":9047,
"oznámil":9048,
"##ham":9049,
"mode":9050,
"##mála":9051,
"##chom":9052,
"Afri":9053,
"##ňky":9054,
"##jila":9055,
"naštěstí":9056,
"včas":9057,
"server":9058,
"chybět":9059,
"Mc":9060,
"využívá":9061,
"Vr":9062,
"49":9063,
"nadě":9064,
"způsobil":9065,
"třináct":9066,
"val":9067,
"svaz":9068,
"mládež":9069,
"Adam":9070,
"Spolu":9071,
"Státní":9072,
"zkra":9073,
"seznam":9074,
"##ovacích":9075,
"sociali":9076,
"##kán":9077,
"Wal":9078,
"důstoj":9079,
"##ell":9080,
"úpl":9081,
"poznat":9082,
"překvapi":9083,
"##fon":9084,
"distribu":9085,
"##dor":9086,
"děl":9087,
"Řed":9088,
"Nep":9089,
"kostela":9090,
"příbu":9091,
"##ráku":9092,
"Jedna":9093,
"dochází":9094,
"Vů":9095,
"Met":9096,
"KDU":9097,
"Kut":9098,
"##zat":9099,
"pacient":9100,
"##avé":9101,
"posou":9102,
"Slez":9103,
"kláš":9104,
"##kladatel":9105,
"budoucnu":9106,
"ekonomické":9107,
"##ářů":9108,
"budoucnosti":9109,
"##hnou":9110,
"##kne":9111,
"##pres":9112,
"blíží":9113,
"věde":9114,
"uprostřed":9115,
"nepat":9116,
"stylu":9117,
"stavba":9118,
"zní":9119,
"rozšíření":9120,
"##áč":9121,
"pokou":9122,
"Haví":9123,
"žebří":9124,
"japon":9125,
"snažil":9126,
"vnitřní":9127,
"agres":9128,
"##pon":9129,
"hovoří":9130,
"##iště":9131,
"obvod":9132,
"starosty":9133,
"##mes":9134,
"vyvá":9135,
"##jetí":9136,
"chem":9137,
"největších":9138,
"##krátka":9139,
"##likož":9140,
"Hlu":9141,
"zaví":9142,
"přání":9143,
"návštěvníků":9144,
"prospěch":9145,
"povinnost":9146,
"CH":9147,
"duše":9148,
"ocenění":9149,
"##rolog":9150,
"he":9151,
"##pečně":9152,
"##hrade":9153,
"Douf":9154,
"##áře":9155,
"pracoval":9156,
"vzduchu":9157,
"vyjadř":9158,
"##cházel":9159,
"zahrá":9160,
"##aným":9161,
"ucha":9162,
"zamí":9163,
"só":9164,
"##ovník":9165,
"dostav":9166,
"zdi":9167,
"hostí":9168,
"předčas":9169,
"kostel":9170,
"byty":9171,
"utká":9172,
"údaje":9173,
"překvapení":9174,
"1994":9175,
"městského":9176,
"52":9177,
"Rokyc":9178,
"stará":9179,
"podvod":9180,
"##šilo":9181,
"El":9182,
"##FA":9183,
"připad":9184,
"výrobky":9185,
"##žená":9186,
"odpovídá":9187,
"##enátu":9188,
"##itka":9189,
"šo":9190,
"nalé":9191,
"Kot":9192,
"zpěva":9193,
"##LAV":9194,
"účasti":9195,
"smrt":9196,
"Jí":9197,
"Slovensku":9198,
"produkce":9199,
"medaile":9200,
"Hodo":9201,
"51":9202,
"nádher":9203,
"Premi":9204,
"místnosti":9205,
"obyčej":9206,
"poslu":9207,
"Deníku":9208,
"Sal":9209,
"##udek":9210,
"spu":9211,
"ocit":9212,
"dosavadní":9213,
"názory":9214,
"Valaš":9215,
"porod":9216,
"mak":9217,
"poptá":9218,
"ren":9219,
"47":9220,
"##zované":9221,
"odmítá":9222,
"pracovníci":9223,
"Old":9224,
"digit":9225,
"druhů":9226,
"skla":9227,
"nejstar":9228,
"Mist":9229,
"koncent":9230,
"republika":9231,
"zjistili":9232,
"areál":9233,
"kas":9234,
"Ameri":9235,
"filo":9236,
"##domí":9237,
"poled":9238,
"##horvat":9239,
"opráv":9240,
"režimu":9241,
"koní":9242,
"začátek":9243,
"kamarád":9244,
"120":9245,
"círk":9246,
"Jablonec":9247,
"analý":9248,
"zpracování":9249,
"smut":9250,
"klient":9251,
"##nickou":9252,
"zlín":9253,
"úkol":9254,
"pohybu":9255,
"##mum":9256,
"odpověď":9257,
"##vice":9258,
"##isto":9259,
"##stane":9260,
"Sem":9261,
"##ždění":9262,
"##žích":9263,
"Pos":9264,
"##bod":9265,
"Dy":9266,
"extraligy":9267,
"normální":9268,
"vedou":9269,
"minulém":9270,
"zaháj":9271,
"Francii":9272,
"dosáhnout":9273,
"##vanou":9274,
"##naj":9275,
"nezapo":9276,
"přípravu":9277,
"Kos":9278,
"přidá":9279,
"Sně":9280,
"záležitost":9281,
"neznámý":9282,
"kapela":9283,
"dvojice":9284,
"##óně":9285,
"policej":9286,
"posledního":9287,
"magistrátu":9288,
"podnikání":9289,
"##stávají":9290,
"dlouhá":9291,
"žádost":9292,
"Mag":9293,
"varian":9294,
"Mad":9295,
"##razila":9296,
"firmu":9297,
"výhru":9298,
"veřejného":9299,
"vztahu":9300,
"vzít":9301,
"hypo":9302,
"bezpečnosti":9303,
"zásadní":9304,
"vybrat":9305,
"Té":9306,
"verze":9307,
"zákro":9308,
"##štěv":9309,
"stol":9310,
"nejlepším":9311,
"kříd":9312,
"formou":9313,
"Žiž":9314,
"##edení":9315,
"zavo":9316,
"zdroje":9317,
"přírod":9318,
"občany":9319,
"##zdě":9320,
"písem":9321,
"dalo":9322,
"dotaci":9323,
"národního":9324,
"Viktor":9325,
"Bul":9326,
"##nějšího":9327,
"trefil":9328,
"Postup":9329,
"##stran":9330,
"pěst":9331,
"##stvím":9332,
"přivez":9333,
"mra":9334,
"Vesel":9335,
"západní":9336,
"##ováni":9337,
"počítat":9338,
"armády":9339,
"vyžád":9340,
"##tního":9341,
"Nejd":9342,
"stříbr":9343,
"finančních":9344,
"nehody":9345,
"materiál":9346,
"čtver":9347,
"pracovníků":9348,
"koalice":9349,
"rozpočet":9350,
"bilan":9351,
"##kazují":9352,
"##tec":9353,
"Firma":9354,
"##isla":9355,
"DP":9356,
"Spojených":9357,
"Gre":9358,
"##denní":9359,
"Veli":9360,
"poste":9361,
"korup":9362,
"Fo":9363,
"drog":9364,
"majitele":9365,
"##ici":9366,
"Své":9367,
"Musíme":9368,
"prohrá":9369,
"##leka":9370,
"barvy":9371,
"prohráli":9372,
"startu":9373,
"##řicet":9374,
"záko":9375,
"mul":9376,
"Čechy":9377,
"městech":9378,
"Neu":9379,
"Vil":9380,
"##zny":9381,
"demokracie":9382,
"studia":9383,
"Býval":9384,
"zr":9385,
"Jaromír":9386,
"Dvořák":9387,
"podezře":9388,
"altern":9389,
"inscena":9390,
"1990":9391,
"rodině":9392,
"##pání":9393,
"euro":9394,
"Mot":9395,
"vyčí":9396,
"##telná":9397,
"##UT":9398,
"pracovi":9399,
"podezření":9400,
"Tvr":9401,
"možno":9402,
"Krum":9403,
"sále":9404,
"politických":9405,
"oblečení":9406,
"úspěšně":9407,
"##inář":9408,
"tlu":9409,
"ohledu":9410,
"##stý":9411,
"udržet":9412,
"nasa":9413,
"začnou":9414,
"potřebné":9415,
"##drželi":9416,
"zbytek":9417,
"Ká":9418,
"vlastním":9419,
"přesil":9420,
"rozhodnout":9421,
"místostarosta":9422,
"nábožen":9423,
"probíhá":9424,
"atd":9425,
"třetiny":9426,
"titulu":9427,
"svěř":9428,
"jednotky":9429,
"vyhrála":9430,
"##jela":9431,
"##klí":9432,
"vyprávě":9433,
"touto":9434,
"zámek":9435,
"luxus":9436,
"##rovou":9437,
"podpory":9438,
"Fotbal":9439,
"ambi":9440,
"##KO":9441,
"celku":9442,
"starých":9443,
"##komp":9444,
"motiv":9445,
"přestávce":9446,
"Ed":9447,
"čtvrté":9448,
"odbo":9449,
"##ovaně":9450,
"Rek":9451,
"utrpě":9452,
"kvalitu":9453,
"projektů":9454,
"primátora":9455,
"##OVÉ":9456,
"BR":9457,
"ČE":9458,
"##NĚ":9459,
"##itní":9460,
"Konce":9461,
"##vého":9462,
"Nabí":9463,
"bratr":9464,
"JI":9465,
"oslab":9466,
"rozu":9467,
"Šumper":9468,
"převez":9469,
"úste":9470,
"Bou":9471,
"morav":9472,
"složení":9473,
"šir":9474,
"vznikl":9475,
"zob":9476,
"Nevím":9477,
"kluci":9478,
"odci":9479,
"text":9480,
"pohybuje":9481,
"Litomě":9482,
"připravit":9483,
"ČSL":9484,
"fol":9485,
"vyslov":9486,
"ny":9487,
"čísla":9488,
"technologie":9489,
"oč":9490,
"mm":9491,
"vína":9492,
"##rového":9493,
"##vosti":9494,
"rakov":9495,
"Rád":9496,
"##áno":9497,
"##želi":9498,
"Am":9499,
"plan":9500,
"##ovníci":9501,
"zastupitelstva":9502,
"Gra":9503,
"piva":9504,
"Děčín":9505,
"##lom":9506,
"vzác":9507,
"chcete":9508,
"řečeno":9509,
"Maji":9510,
"záslu":9511,
"ochran":9512,
"##vním":9513,
"##port":9514,
"##pec":9515,
"stejnou":9516,
"##odí":9517,
"Ph":9518,
"pry":9519,
"devat":9520,
"míry":9521,
"Třetí":9522,
"zvláště":9523,
"záme":9524,
"##dějov":9525,
"karty":9526,
"povz":9527,
"řez":9528,
"řídí":9529,
"známý":9530,
"##aticky":9531,
"emo":9532,
"zvy":9533,
"vodní":9534,
"Hru":9535,
"inspi":9536,
"##ovol":9537,
"KINO":9538,
"orchest":9539,
"účel":9540,
"Lenka":9541,
"##lají":9542,
"tamní":9543,
"##stříc":9544,
"kvality":9545,
"forma":9546,
"Barto":9547,
"míru":9548,
"šat":9549,
"##kální":9550,
"podniků":9551,
"protest":9552,
"zpravodaj":9553,
"kami":9554,
"jez":9555,
"obrazy":9556,
"##éru":9557,
"tera":9558,
"všechna":9559,
"##aned":9560,
"vypu":9561,
"vaši":9562,
"pozná":9563,
"povede":9564,
"veškeré":9565,
"##klu":9566,
"společného":9567,
"pacientů":9568,
"Krej":9569,
"##nete":9570,
"##vního":9571,
"##žije":9572,
"hodinách":9573,
"##jmu":9574,
"##nej":9575,
"dostává":9576,
"velkého":9577,
"##tura":9578,
"cítí":9579,
"##vlád":9580,
"tisíci":9581,
"dostatek":9582,
"přehled":9583,
"tréninku":9584,
"hol":9585,
"Daniel":9586,
"nejčastěji":9587,
"Mladá":9588,
"naje":9589,
"divo":9590,
"Stří":9591,
"orgán":9592,
"Koz":9593,
"prokáz":9594,
"akadem":9595,
"Antonín":9596,
"##ánek":9597,
"vyhra":9598,
"rodinu":9599,
"předpoklád":9600,
"##átů":9601,
"Případ":9602,
"katastro":9603,
"účastníků":9604,
"Les":9605,
"požadavky":9606,
"lékaře":9607,
"##ením":9608,
"##čník":9609,
"1992":9610,
"organizací":9611,
"pochází":9612,
"##rátil":9613,
"plný":9614,
"trať":9615,
"ská":9616,
"Aleš":9617,
"komplex":9618,
"vylep":9619,
"vytr":9620,
"veletr":9621,
"##tud":9622,
"Procház":9623,
"##něte":9624,
"hradu":9625,
"##něk":9626,
"##zvané":9627,
"jižní":9628,
"aktuální":9629,
"##apa":9630,
"správně":9631,
"##žas":9632,
"##ovému":9633,
"Tomáše":9634,
"##prch":9635,
"amerických":9636,
"##rich":9637,
"zprávu":9638,
"zvolen":9639,
"náku":9640,
"mag":9641,
"inkas":9642,
"chyby":9643,
"##UR":9644,
"##eda":9645,
"předlo":9646,
"##lomu":9647,
"stupně":9648,
"##pel":9649,
"##letě":9650,
"##jíma":9651,
"##pen":9652,
"##roční":9653,
"vlastních":9654,
"Máte":9655,
"Spart":9656,
"březnu":9657,
"##BC":9658,
"hokejisté":9659,
"předsedy":9660,
"##muje":9661,
"##řídil":9662,
"koho":9663,
"##rových":9664,
"##ždě":9665,
"##bel":9666,
"politici":9667,
"##rova":9668,
"Czech":9669,
"historické":9670,
"strá":9671,
"Richard":9672,
"##rovoz":9673,
"jediná":9674,
"Nejvíce":9675,
"galerie":9676,
"sboru":9677,
"vládu":9678,
"plány":9679,
"Vlasti":9680,
"mladý":9681,
"úseku":9682,
"druhy":9683,
"narodil":9684,
"moře":9685,
"informační":9686,
"ilu":9687,
"dělají":9688,
"roste":9689,
"Pohá":9690,
"##él":9691,
"Ať":9692,
"##20":9693,
"Spe":9694,
"KSČM":9695,
"Odbor":9696,
"klasi":9697,
"hotel":9698,
"vynikající":9699,
"přihrá":9700,
"konferenci":9701,
"Pu":9702,
"tvář":9703,
"prosto":9704,
"##mann":9705,
"čímž":9706,
"blízkosti":9707,
"sestavě":9708,
"okru":9709,
"výsledku":9710,
"ově":9711,
"Brus":9712,
"##bude":9713,
"občané":9714,
"Program":9715,
"Com":9716,
"dvo":9717,
"dvojnásob":9718,
"##rky":9719,
"jihlav":9720,
"##dám":9721,
"Velká":9722,
"pražského":9723,
"##oved":9724,
"##kací":9725,
"##we":9726,
"##aném":9727,
"sdělila":9728,
"míří":9729,
"trium":9730,
"identi":9731,
"Změ":9732,
"1993":9733,
"Tes":9734,
"Nejvyšší":9735,
"##dělal":9736,
"službu":9737,
"váleč":9738,
"pedagog":9739,
"Nejlepší":9740,
"Někdy":9741,
"naděje":9742,
"gólů":9743,
"prosinci":9744,
"Šim":9745,
"úpravy":9746,
"častěji":9747,
"českém":9748,
"Ven":9749,
"asistent":9750,
"##hové":9751,
"Zuz":9752,
"pek":9753,
"##čata":9754,
"Ředitel":9755,
"doved":9756,
"amerického":9757,
"styl":9758,
"dokumen":9759,
"cigar":9760,
"##endá":9761,
"okamžiku":9762,
"zápis":9763,
"většině":9764,
"klí":9765,
"Jedin":9766,
"vést":9767,
"##enské":9768,
"prvolig":9769,
"Sobot":9770,
"Jičín":9771,
"##pokoj":9772,
"konkurence":9773,
"stroje":9774,
"dojít":9775,
"##šan":9776,
"##inky":9777,
"GAL":9778,
"oper":9779,
"##ami":9780,
"Fe":9781,
"##omy":9782,
"Jestliže":9783,
"##hrady":9784,
"Paroub":9785,
"násil":9786,
"subje":9787,
"krásné":9788,
"filmy":9789,
"zodpověd":9790,
"interi":9791,
"rostlin":9792,
"kompletní":9793,
"přírodní":9794,
"##stají":9795,
"dětské":9796,
"zásah":9797,
"kav":9798,
"státních":9799,
"viz":9800,
"fanoušci":9801,
"Ostravy":9802,
"naf":9803,
"##strá":9804,
"definitivně":9805,
"Rusko":9806,
"##nt":9807,
"pomáhá":9808,
"Kol":9809,
"Mezinárodní":9810,
"útok":9811,
"Gi":9812,
"##tická":9813,
"znát":9814,
"rodič":9815,
"lékařů":9816,
"##ERIE":9817,
"profesionální":9818,
"zdr":9819,
"případy":9820,
"##mluv":9821,
"Člově":9822,
"nikoho":9823,
"##stického":9824,
"obecně":9825,
"Dub":9826,
"##ánu":9827,
"mnohé":9828,
"Vých":9829,
"##zkou":9830,
"##vaných":9831,
"Kři":9832,
"oteví":9833,
"silné":9834,
"Lá":9835,
"rozvoje":9836,
"zvýšit":9837,
"##erční":9838,
"Podobně":9839,
"stromy":9840,
"fanoušků":9841,
"mírně":9842,
"uj":9843,
"Počet":9844,
"vstříc":9845,
"Divá":9846,
"zaved":9847,
"plyn":9848,
"znak":9849,
"jemu":9850,
"##FS":9851,
"##nku":9852,
"Nicméně":9853,
"nastoupil":9854,
"dubnu":9855,
"spá":9856,
"##něna":9857,
"změna":9858,
"albu":9859,
"uvaž":9860,
"zločin":9861,
"proží":9862,
"běžné":9863,
"Cheb":9864,
"zpří":9865,
"##byl":9866,
"dovolenou":9867,
"poruš":9868,
"letiště":9869,
"##lák":9870,
"východní":9871,
"##říži":9872,
"54":9873,
"Orli":9874,
"Stráž":9875,
"čest":9876,
"##hot":9877,
"láz":9878,
"kousek":9879,
"každá":9880,
"nejm":9881,
"bydlí":9882,
"říjnu":9883,
"Bur":9884,
"Chtěl":9885,
"daří":9886,
"Sám":9887,
"kus":9888,
"Topo":9889,
"penzi":9890,
"##EJ":9891,
"potrvá":9892,
"##lant":9893,
"Mladé":9894,
"Stud":9895,
"sílu":9896,
"budově":9897,
"klo":9898,
"Karlových":9899,
"Zápas":9900,
"##ínek":9901,
"baro":9902,
"souboj":9903,
"hudba":9904,
"##čném":9905,
"dosa":9906,
"vodě":9907,
"pomůže":9908,
"CD":9909,
"gu":9910,
"##VĚ":9911,
"obětí":9912,
"im":9913,
"##pky":9914,
"obyvatele":9915,
"VÝ":9916,
"únoru":9917,
"klidně":9918,
"##prová":9919,
"hosty":9920,
"##ovaném":9921,
"##sní":9922,
"potrest":9923,
"trpě":9924,
"Tentokrát":9925,
"##pka":9926,
"##grafie":9927,
"usmí":9928,
"##čtyřiceti":9929,
"domova":9930,
"ceně":9931,
"mistr":9932,
"plochy":9933,
"zbraně":9934,
"problemati":9935,
"ihned":9936,
"dosti":9937,
"kabin":9938,
"Libere":9939,
"##BAL":9940,
"odchodu":9941,
"We":9942,
"##lovar":9943,
"dojem":9944,
"TV":9945,
"financování":9946,
"Super":9947,
"##áček":9948,
"hejtman":9949,
"záleží":9950,
"Celý":9951,
"##stických":9952,
"círke":9953,
"zařad":9954,
"Přede":9955,
"Tou":9956,
"video":9957,
"výsledkem":9958,
"strav":9959,
"kruh":9960,
"odborníci":9961,
"zázemí":9962,
"žijí":9963,
"okresní":9964,
"Důležit":9965,
"čeští":9966,
"##sociace":9967,
"Šest":9968,
"kříž":9969,
"zasah":9970,
"bodu":9971,
"##šťast":9972,
"panel":9973,
"trestného":9974,
"odborné":9975,
"ulož":9976,
"jízdy":9977,
"Fa":9978,
"rekor":9979,
"vojenské":9980,
"Ková":9981,
"kin":9982,
"přední":9983,
"Domaž":9984,
"Kad":9985,
"##avý":9986,
"otevře":9987,
"vze":9988,
"##sel":9989,
"fondů":9990,
"křesťan":9991,
"literá":9992,
"Velmi":9993,
"Pardub":9994,
"apod":9995,
"Pit":9996,
"obvinění":9997,
"##ickými":9998,
"##vních":9999,
"Sen":10000,
"hrade":10001,
"Kat":10002,
"Františka":10003,
"zhodno":10004,
"dostatečně":10005,
"56":10006,
"##cek":10007,
"vyjádření":10008,
"pravé":10009,
"uhlí":10010,
"Nepo":10011,
"příspěvek":10012,
"uchaze":10013,
"Nejen":10014,
"ulicích":10015,
"##pera":10016,
"Čtyři":10017,
"Matě":10018,
"Sázavou":10019,
"##zela":10020,
"hlavě":10021,
"ali":10022,
"Návštěvní":10023,
"III":10024,
"líbí":10025,
"##mání":10026,
"adres":10027,
"zážit":10028,
"##yer":10029,
"úvodu":10030,
"Česka":10031,
"600":10032,
"výjimkou":10033,
"nahoru":10034,
"##BA":10035,
"Třebíč":10036,
"věnuje":10037,
"půdě":10038,
"strašně":10039,
"GALERIE":10040,
"Kolik":10041,
"##lana":10042,
"Pá":10043,
"Součástí":10044,
"organizátor":10045,
"procesu":10046,
"spořitel":10047,
"nebyli":10048,
"##ecku":10049,
"##enin":10050,
"##něná":10051,
"##óz":10052,
"nakup":10053,
"výstavbu":10054,
"oznámení":10055,
"čtyřmi":10056,
"částky":10057,
"řádu":10058,
"##menu":10059,
"značně":10060,
"baví":10061,
"organ":10062,
"##pů":10063,
"natolik":10064,
"Břez":10065,
"označ":10066,
"zbý":10067,
"všemi":10068,
"##úto":10069,
"administ":10070,
"##rid":10071,
"fas":10072,
"posád":10073,
"##tisk":10074,
"druhu":10075,
"Nikdy":10076,
"těles":10077,
"stavět":10078,
"blízko":10079,
"stávající":10080,
"##gh":10081,
"##dách":10082,
"divadel":10083,
"prodeji":10084,
"nemůžeme":10085,
"vlou":10086,
"##bek":10087,
"pobyt":10088,
"intenzi":10089,
"##ací":10090,
"středních":10091,
"Dvořá":10092,
"Boleslavi":10093,
"Svit":10094,
"Zdeňka":10095,
"zdaleka":10096,
"Několi":10097,
"Hlavně":10098,
"příčku":10099,
"53":10100,
"zabí":10101,
"##komo":10102,
"vloni":10103,
"##rant":10104,
"SM":10105,
"oficiální":10106,
"přebor":10107,
"##sic":10108,
"##one":10109,
"ekonomiky":10110,
"centrální":10111,
"politika":10112,
"Jedním":10113,
"##štích":10114,
"##udíž":10115,
"představitel":10116,
"studie":10117,
"##pením":10118,
"pojišťovny":10119,
"mani":10120,
"souboru":10121,
"plánuje":10122,
"##žka":10123,
"vozy":10124,
"##tion":10125,
"Českou":10126,
"Sim":10127,
"##wo":10128,
"aku":10129,
"součá":10130,
"Stále":10131,
"##blíž":10132,
"##řený":10133,
"slune":10134,
"fotbalového":10135,
"Chrudim":10136,
"legisla":10137,
"OSN":10138,
"##ally":10139,
"vydat":10140,
"sel":10141,
"fotbalu":10142,
"angaž":10143,
"vzdělání":10144,
"hlasování":10145,
"noční":10146,
"potravin":10147,
"skupinu":10148,
"Německo":10149,
"##běhl":10150,
"polovina":10151,
"nějaká":10152,
"zlepšení":10153,
"družstev":10154,
"##ovně":10155,
"Sam":10156,
"dlouhou":10157,
"stupňů":10158,
"následující":10159,
"##nuto":10160,
"Sku":10161,
"vysoká":10162,
"stromů":10163,
"výrobků":10164,
"##též":10165,
"##ling":10166,
"dotaz":10167,
"Men":10168,
"ha":10169,
"karlovar":10170,
"zvlášť":10171,
"snížit":10172,
"vzdělávání":10173,
"dých":10174,
"zaměstnance":10175,
"zvě":10176,
"skří":10177,
"rostli":10178,
"pódi":10179,
"srpnu":10180,
"vyvolá":10181,
"dla":10182,
"##ovského":10183,
"sloužit":10184,
"Stát":10185,
"fanta":10186,
"sedí":10187,
"kapel":10188,
"brambor":10189,
"čtrnácti":10190,
"zrušení":10191,
"najevo":10192,
"##žku":10193,
"nejsem":10194,
"extralig":10195,
"##tur":10196,
"Byli":10197,
"prozradil":10198,
"dresu":10199,
"dotá":10200,
"Krist":10201,
"##ashing":10202,
"##pež":10203,
"látky":10204,
"trávní":10205,
"##něním":10206,
"Rov":10207,
"přestav":10208,
"Brati":10209,
"Kolín":10210,
"##ýr":10211,
"soko":10212,
"##skobu":10213,
"##cy":10214,
"##tější":10215,
"Nejprve":10216,
"podmínkách":10217,
"Film":10218,
"##ženou":10219,
"mnozí":10220,
"provedení":10221,
"PR":10222,
"pes":10223,
"##bus":10224,
"Van":10225,
"##př":10226,
"##stická":10227,
"Léka":10228,
"školách":10229,
"Skup":10230,
"##IA":10231,
"vyjde":10232,
"riziko":10233,
"musíte":10234,
"údajů":10235,
"otevření":10236,
"klubů":10237,
"pokračoval":10238,
"vyšetření":10239,
"rozhodující":10240,
"prezenta":10241,
"##štěné":10242,
"zvíře":10243,
"logi":10244,
"potvrdila":10245,
"Tem":10246,
"spat":10247,
"vyhov":10248,
"výbu":10249,
"mand":10250,
"##STI":10251,
"lidské":10252,
"##NÁ":10253,
"dají":10254,
"doprová":10255,
"zaru":10256,
"##kovém":10257,
"Branky":10258,
"zbraní":10259,
"Ruska":10260,
"potřebují":10261,
"##lník":10262,
"##fil":10263,
"opo":10264,
"schopni":10265,
"budoucnost":10266,
"obor":10267,
"služba":10268,
"MO":10269,
"##ejte":10270,
"ZÁ":10271,
"důsledku":10272,
"rychlosti":10273,
"rozví":10274,
"tm":10275,
"dítěte":10276,
"Náchod":10277,
"zachrá":10278,
"odbě":10279,
"aud":10280,
"pořadatel":10281,
"připravili":10282,
"mateřské":10283,
"svob":10284,
"##veroče":10285,
"vlasy":10286,
"##RAD":10287,
"schopnost":10288,
"##ross":10289,
"skončilo":10290,
"příslušní":10291,
"ztráty":10292,
"##hrou":10293,
"##SKÝ":10294,
"##lis":10295,
"pokro":10296,
"Jižní":10297,
"shromá":10298,
"místem":10299,
"OP":10300,
"zjistit":10301,
"pachatel":10302,
"Pokrač":10303,
"Libor":10304,
"57":10305,
"mnohdy":10306,
"lůž":10307,
"rána":10308,
"2014":10309,
"ukázal":10310,
"objekt":10311,
"##áš":10312,
"Pek":10313,
"silný":10314,
"podstatně":10315,
"domluv":10316,
"zes":10317,
"##čným":10318,
"prior":10319,
"Sc":10320,
"nabízejí":10321,
"poslanci":10322,
"##kované":10323,
"zisku":10324,
"uzavřel":10325,
"Zajímav":10326,
"##vajících":10327,
"58":10328,
"řetěz":10329,
"kroky":10330,
"zajím":10331,
"stanici":10332,
"chvil":10333,
"##SKO":10334,
"požár":10335,
"záměr":10336,
"dědi":10337,
"zoo":10338,
"spravedl":10339,
"Qu":10340,
"ole":10341,
"pochopitelně":10342,
"oblé":10343,
"dovolené":10344,
"##štěn":10345,
"Potom":10346,
"Hist":10347,
"českosloven":10348,
"věděl":10349,
"Projekt":10350,
"úžas":10351,
"šli":10352,
"##hodné":10353,
"##evrop":10354,
"aktivit":10355,
"kamp":10356,
"formě":10357,
"kabel":10358,
"Net":10359,
"Novotný":10360,
"událost":10361,
"starost":10362,
"zaměstnava":10363,
"vin":10364,
"stála":10365,
"Čím":10366,
"advoká":10367,
"Střední":10368,
"pryč":10369,
"Hou":10370,
"minutách":10371,
"Pelhři":10372,
"Trut":10373,
"využívat":10374,
"regionální":10375,
"půlno":10376,
"jediným":10377,
"popla":10378,
"##use":10379,
"##had":10380,
"osobních":10381,
"Francouz":10382,
"úvodní":10383,
"Org":10384,
"soustřed":10385,
"nesk":10386,
"##knout":10387,
"##řích":10388,
"##kající":10389,
"zkrá":10390,
"nedostatek":10391,
"obslu":10392,
"fázi":10393,
"##šiř":10394,
"trestu":10395,
"##šela":10396,
"prodloužení":10397,
"##kladů":10398,
"paměti":10399,
"plate":10400,
"ligu":10401,
"změn":10402,
"##ult":10403,
"pražském":10404,
"##eku":10405,
"agentura":10406,
"Horá":10407,
"Bab":10408,
"minimální":10409,
"zří":10410,
"nárůst":10411,
"deník":10412,
"nabídne":10413,
"dodava":10414,
"zahradě":10415,
"##zovali":10416,
"##dro":10417,
"##leš":10418,
"obe":10419,
"závodů":10420,
"zvýšil":10421,
"##tici":10422,
"##tisí":10423,
"Nizozem":10424,
"knihovny":10425,
"##šice":10426,
"##ající":10427,
"##iš":10428,
"knihu":10429,
"upozorňuje":10430,
"##čerst":10431,
"říkají":10432,
"##tik":10433,
"otce":10434,
"hně":10435,
"##stné":10436,
"českým":10437,
"Svě":10438,
"Patri":10439,
"kalendá":10440,
"vedli":10441,
"vysoký":10442,
"##padl":10443,
"materiálu":10444,
"##ložení":10445,
"jel":10446,
"zázra":10447,
"dovoz":10448,
"talent":10449,
"cer":10450,
"zůstala":10451,
"soudní":10452,
"slovy":10453,
"##irurg":10454,
"nemovit":10455,
"Rusku":10456,
"pás":10457,
"ochrany":10458,
"##razu":10459,
"Itálie":10460,
"měsíčně":10461,
"##stvem":10462,
"městských":10463,
"Meziříčí":10464,
"pomohl":10465,
"Vojtě":10466,
"##uda":10467,
"pobytu":10468,
"neúspě":10469,
"schopen":10470,
"blá":10471,
"DV":10472,
"vyví":10473,
"železniční":10474,
"##rií":10475,
"##ml":10476,
"konat":10477,
"programy":10478,
"##tory":10479,
"Ministr":10480,
"Ško":10481,
"##jedno":10482,
"kerami":10483,
"tudíž":10484,
"připravil":10485,
"##ticky":10486,
"zadní":10487,
"nehodě":10488,
"kontrolu":10489,
"Černý":10490,
"poto":10491,
"prohlí":10492,
"zbytečně":10493,
"ruky":10494,
"##tré":10495,
"prvky":10496,
"čtvrtfinále":10497,
"Dolní":10498,
"operaci":10499,
"koně":10500,
"rozlou":10501,
"malou":10502,
"Všechno":10503,
"opozi":10504,
"zvlášt":10505,
"výkonem":10506,
"##moci":10507,
"směr":10508,
"konkurenci":10509,
"Topolán":10510,
"##CI":10511,
"starý":10512,
"##produ":10513,
"převod":10514,
"sponzor":10515,
"odvolání":10516,
"vlivem":10517,
"##muni":10518,
"##islava":10519,
"prosadit":10520,
"##avu":10521,
"kniha":10522,
"alkohol":10523,
"##érů":10524,
"přijel":10525,
"přizpůsob":10526,
"třída":10527,
"fungovat":10528,
"referen":10529,
"starších":10530,
"##lina":10531,
"třetině":10532,
"léto":10533,
"Poprvé":10534,
"nevad":10535,
"duch":10536,
"##lilo":10537,
"učin":10538,
"brněnské":10539,
"velikosti":10540,
"atmosféru":10541,
"nenech":10542,
"Peter":10543,
"Anna":10544,
"##pem":10545,
"nikoliv":10546,
"rovnou":10547,
"Mir":10548,
"##tiku":10549,
"mobilní":10550,
"založení":10551,
"##držení":10552,
"Pořád":10553,
"##žný":10554,
"##šková":10555,
"Novém":10556,
"##ávání":10557,
"##žnosti":10558,
"roman":10559,
"Výsledky":10560,
"navštěv":10561,
"okrese":10562,
"##bral":10563,
"Srb":10564,
"nemohli":10565,
"Urb":10566,
"reakce":10567,
"Michael":10568,
"Tedy":10569,
"ředi":10570,
"ruské":10571,
"Hradce":10572,
"brání":10573,
"prostorách":10574,
"hodnotí":10575,
"hodnotu":10576,
"##oko":10577,
"hvězdy":10578,
"##nojem":10579,
"silni":10580,
"dy":10581,
"Šéf":10582,
"skvěle":10583,
"překro":10584,
"##ňte":10585,
"volný":10586,
"pne":10587,
"##US":10588,
"Akce":10589,
"##břeží":10590,
"publiku":10591,
"Nového":10592,
"moderni":10593,
"##ženo":10594,
"##ánské":10595,
"horách":10596,
"namí":10597,
"##dox":10598,
"##lohy":10599,
"dívky":10600,
"tat":10601,
"skončení":10602,
"zdroj":10603,
"akcie":10604,
"Žid":10605,
"Hum":10606,
"##slane":10607,
"##th":10608,
"bes":10609,
"##ěl":10610,
"##ňoval":10611,
"zahrady":10612,
"devá":10613,
"Letošní":10614,
"ovoce":10615,
"oběma":10616,
"Těž":10617,
"1991":10618,
"##TE":10619,
"##žitek":10620,
"Osob":10621,
"##mské":10622,
"Slovensko":10623,
"politice":10624,
"data":10625,
"nejhorší":10626,
"patřil":10627,
"předpokládá":10628,
"##UB":10629,
"osv":10630,
"put":10631,
"zabývá":10632,
"ZA":10633,
"čemu":10634,
"osobnosti":10635,
"Věřím":10636,
"##zátoři":10637,
"měsíci":10638,
"##skal":10639,
"##ney":10640,
"Evropská":10641,
"##itím":10642,
"Zku":10643,
"##nula":10644,
"hospodářství":10645,
"##dající":10646,
"##ws":10647,
"takovém":10648,
"takřka":10649,
"ný":10650,
"třetího":10651,
"soukromé":10652,
"osvěd":10653,
"Tour":10654,
"##tes":10655,
"obrazů":10656,
"smlouva":10657,
"pokoj":10658,
"##holig":10659,
"han":10660,
"hes":10661,
"Gene":10662,
"##skos":10663,
"##onů":10664,
"koruny":10665,
"Ce":10666,
"mali":10667,
"vývoje":10668,
"pokry":10669,
"seh":10670,
"##TĚ":10671,
"IV":10672,
"Člověk":10673,
"středově":10674,
"nastup":10675,
"##mrz":10676,
"##čkami":10677,
"##praví":10678,
"##čína":10679,
"vyplývá":10680,
"prodat":10681,
"Zlodě":10682,
"politiků":10683,
"Ček":10684,
"LI":10685,
"KRÁ":10686,
"strážníci":10687,
"udělali":10688,
"##inec":10689,
"##NI":10690,
"věřím":10691,
"záchranu":10692,
"beze":10693,
"uví":10694,
"poškod":10695,
"počítače":10696,
"Teprve":10697,
"##ki":10698,
"netr":10699,
"podniky":10700,
"výhře":10701,
"##náři":10702,
"kontrol":10703,
"teror":10704,
"používat":10705,
"vir":10706,
"hal":10707,
"Jez":10708,
"tvrdil":10709,
"obvin":10710,
"osa":10711,
"dcera":10712,
"skrý":10713,
"ukázalo":10714,
"Washing":10715,
"##řeny":10716,
"##kázali":10717,
"všim":10718,
"##vej":10719,
"krátké":10720,
"PŘ":10721,
"civili":10722,
"Soud":10723,
"poblíž":10724,
"odhali":10725,
"Ivo":10726,
"nepřed":10727,
"nastoupí":10728,
"Pal":10729,
"tab":10730,
"Národního":10731,
"Hodně":10732,
"argum":10733,
"Vláda":10734,
"volné":10735,
"restauraci":10736,
"velkém":10737,
"most":10738,
"dří":10739,
"oficiálně":10740,
"poslucha":10741,
"##enční":10742,
"koupali":10743,
"lan":10744,
"85":10745,
"##škol":10746,
"Budějovicích":10747,
"##vědomí":10748,
"Mají":10749,
"##ves":10750,
"zvířata":10751,
"##dlí":10752,
"tj":10753,
"narození":10754,
"děv":10755,
"##gie":10756,
"hudbu":10757,
"kat":10758,
"násilí":10759,
"Klub":10760,
"kato":10761,
"obhaj":10762,
"Němci":10763,
"##tex":10764,
"Vladimíra":10765,
"##padlo":10766,
"##ůh":10767,
"##ott":10768,
"sobotní":10769,
"ulic":10770,
"léká":10771,
"seznamu":10772,
"fanoušky":10773,
"59":10774,
"sráž":10775,
"##kými":10776,
"##enek":10777,
"nabídka":10778,
"##kují":10779,
"vrace":10780,
"vlevo":10781,
"rozšiř":10782,
"##ph":10783,
"světlo":10784,
"vesnice":10785,
"zkušeností":10786,
"##tolog":10787,
"zdůraznil":10788,
"klientů":10789,
"kombin":10790,
"nef":10791,
"dohody":10792,
"189":10793,
"budoucna":10794,
"připraven":10795,
"okresu":10796,
"dráhy":10797,
"politiku":10798,
"pozemků":10799,
"okruh":10800,
"Prostěj":10801,
"Sý":10802,
"Živo":10803,
"##zdory":10804,
"netu":10805,
"Ros":10806,
"##ount":10807,
"optimi":10808,
"večera":10809,
"##atické":10810,
"##tických":10811,
"Miroslava":10812,
"porad":10813,
"Tř":10814,
"Sr":10815,
"představenstva":10816,
"dělal":10817,
"veřejně":10818,
"krve":10819,
"objed":10820,
"##procentní":10821,
"##posud":10822,
"NÁ":10823,
"dění":10824,
"##fy":10825,
"Ly":10826,
"hlásí":10827,
"duchu":10828,
"trpí":10829,
"neop":10830,
"kampaň":10831,
"přidal":10832,
"slaví":10833,
"označil":10834,
"##UP":10835,
"vina":10836,
"stránce":10837,
"sezon":10838,
"##zený":10839,
"dokud":10840,
"Por":10841,
"zdob":10842,
"Slovenska":10843,
"sklo":10844,
"Žďár":10845,
"jdou":10846,
"Jas":10847,
"spisovatel":10848,
"Zlíně":10849,
"družstvo":10850,
"Pořad":10851,
"matur":10852,
"amat":10853,
"sebev":10854,
"náročné":10855,
"přesvědčen":10856,
"odstup":10857,
"800":10858,
"váp":10859,
"Kry":10860,
"skal":10861,
"jídlo":10862,
"##tic":10863,
"příjmy":10864,
"očekávání":10865,
"dech":10866,
"Především":10867,
"proslu":10868,
"verzi":10869,
"snažit":10870,
"očima":10871,
"oblastech":10872,
"červenci":10873,
"lyža":10874,
"sníh":10875,
"trestní":10876,
"snažili":10877,
"Rozhodčí":10878,
"chvá":10879,
"amp":10880,
"prezent":10881,
"##brž":10882,
"vyhodno":10883,
"##dla":10884,
"vojáků":10885,
"Dokonce":10886,
"Slá":10887,
"##čování":10888,
"Prezident":10889,
"viděli":10890,
"bytě":10891,
"pracují":10892,
"lhů":10893,
"kilogra":10894,
"cvičení":10895,
"##tné":10896,
"symp":10897,
"Radnice":10898,
"utek":10899,
"##ovci":10900,
"HN":10901,
"ono":10902,
"kavár":10903,
"každoročně":10904,
"zhor":10905,
"žáky":10906,
"ukončení":10907,
"motocyk":10908,
"zajištění":10909,
"horní":10910,
"vrcho":10911,
"páté":10912,
"net":10913,
"nemoci":10914,
"##čkách":10915,
"Třeb":10916,
"Otá":10917,
"##vie":10918,
"dostalo":10919,
"správné":10920,
"kos":10921,
"okresního":10922,
"dosáhl":10923,
"návštěv":10924,
"##zof":10925,
"tradice":10926,
"nález":10927,
"Jist":10928,
"vit":10929,
"##ičtí":10930,
"příštích":10931,
"očekávat":10932,
"Michaela":10933,
"obdiv":10934,
"stejném":10935,
"bank":10936,
"##rnu":10937,
"##ktem":10938,
"Beroun":10939,
"dozor":10940,
"zájemce":10941,
"Pala":10942,
"vysílání":10943,
"##ičku":10944,
"oblastí":10945,
"krité":10946,
"vysvětlila":10947,
"okruhu":10948,
"Rat":10949,
"podiv":10950,
"uprch":10951,
"stěh":10952,
"Alb":10953,
"nýbrž":10954,
"Kur":10955,
"pořadu":10956,
"prohrál":10957,
"podzimní":10958,
"zkrátka":10959,
"bla":10960,
"Hradiště":10961,
"Ital":10962,
"##ÁL":10963,
"údo":10964,
"ul":10965,
"##měsí":10966,
"Peníze":10967,
"MUZE":10968,
"lah":10969,
"##šlení":10970,
"##torů":10971,
"pošt":10972,
"Divadlo":10973,
"maj":10974,
"Jaký":10975,
"izo":10976,
"automobilů":10977,
"předchozích":10978,
"krizi":10979,
"##počátku":10980,
"monit":10981,
"nerv":10982,
"uzná":10983,
"##market":10984,
"chři":10985,
"komedie":10986,
"rozhlas":10987,
"podél":10988,
"německého":10989,
"nechtějí":10990,
"pozemky":10991,
"##rný":10992,
"##nutím":10993,
"nebudu":10994,
"klasické":10995,
"náhodou":10996,
"kolech":10997,
"svatého":10998,
"problémem":10999,
"doprava":11000,
"hrub":11001,
"Druhá":11002,
"redakce":11003,
"havá":11004,
"hospodářské":11005,
"sklád":11006,
"jihu":11007,
"##cený":11008,
"tramva":11009,
"##mec":11010,
"koncertu":11011,
"požáru":11012,
"symboli":11013,
"těle":11014,
"navý":11015,
"orienta":11016,
"zaz":11017,
"##amat":11018,
"státech":11019,
"okolností":11020,
"##ind":11021,
"doktor":11022,
"##držela":11023,
"hokejové":11024,
"##lací":11025,
"##lohu":11026,
"Duk":11027,
"investiční":11028,
"##ryně":11029,
"64":11030,
"##mie":11031,
"##řiv":11032,
"##číně":11033,
"zpráv":11034,
"pokračování":11035,
"znal":11036,
"neznamen":11037,
"silně":11038,
"objevila":11039,
"vtip":11040,
"mladík":11041,
"##ep":11042,
"snímek":11043,
"kot":11044,
"negativní":11045,
"##skoslez":11046,
"##desátiletý":11047,
"##ation":11048,
"##livu":11049,
"nabídnout":11050,
"##oté":11051,
"coby":11052,
"##jednodu":11053,
"##ww":11054,
"Předpo":11055,
"mail":11056,
"připomněl":11057,
"nejrych":11058,
"benz":11059,
"##sím":11060,
"nechali":11061,
"Musím":11062,
"##spod":11063,
"střediska":11064,
"průběh":11065,
"Zdá":11066,
"##éry":11067,
"věd":11068,
"##živo":11069,
"Open":11070,
"projíž":11071,
"kluby":11072,
"premiéru":11073,
"##čnost":11074,
"kontroly":11075,
"kina":11076,
"Stačí":11077,
"všeobec":11078,
"##mali":11079,
"žádném":11080,
"recep":11081,
"##tika":11082,
"Moc":11083,
"bezprostřed":11084,
"##ruje":11085,
"##romi":11086,
"maximální":11087,
"Důvodem":11088,
"Británie":11089,
"současný":11090,
"scéně":11091,
"Závod":11092,
"##vale":11093,
"nemys":11094,
"##tive":11095,
"mechan":11096,
"povol":11097,
"ští":11098,
"Čtvr":11099,
"napětí":11100,
"lidských":11101,
"MĚ":11102,
"motiva":11103,
"naději":11104,
"##deň":11105,
"naplán":11106,
"Nemoc":11107,
"kádru":11108,
"trhy":11109,
"většiny":11110,
"chybu":11111,
"Vysočina":11112,
"##bytek":11113,
"kusů":11114,
"tradici":11115,
"Univerz":11116,
"Rada":11117,
"černé":11118,
"Sig":11119,
"déle":11120,
"surov":11121,
"TOP":11122,
"přestěh":11123,
"extrém":11124,
"Ing":11125,
"lesa":11126,
"lup":11127,
"severu":11128,
"senátor":11129,
"výhrad":11130,
"Zna":11131,
"Staré":11132,
"##anc":11133,
"uji":11134,
"odpor":11135,
"čtvrtletí":11136,
"dočka":11137,
"nechci":11138,
"Zdra":11139,
"Vánoce":11140,
"tel":11141,
"ztrát":11142,
"Mni":11143,
"ukázat":11144,
"uklid":11145,
"Prach":11146,
"městu":11147,
"procen":11148,
"přírodě":11149,
"##žitel":11150,
"vědí":11151,
"Ceny":11152,
"výstup":11153,
"Opava":11154,
"lodi":11155,
"krajský":11156,
"soft":11157,
"bru":11158,
"bub":11159,
"záru":11160,
"čekal":11161,
"zabezpe":11162,
"jede":11163,
"populární":11164,
"reprezentant":11165,
"IN":11166,
"Řím":11167,
"Sdružení":11168,
"##střelil":11169,
"dopravních":11170,
"##oreti":11171,
"světových":11172,
"Čas":11173,
"zabývat":11174,
"##teru":11175,
"vyšel":11176,
"##nět":11177,
"vypadat":11178,
"odciz":11179,
"Minu":11180,
"Er":11181,
"žalob":11182,
"turistů":11183,
"##enský":11184,
"Pardubicích":11185,
"zahy":11186,
"píse":11187,
"##lými":11188,
"Městské":11189,
"##áři":11190,
"kandidá":11191,
"pouhých":11192,
"Yorku":11193,
"najdou":11194,
"sest":11195,
"##stiky":11196,
"hostující":11197,
"##itelné":11198,
"##tečný":11199,
"majitelé":11200,
"##otva":11201,
"##líme":11202,
"DI":11203,
"##lený":11204,
"celost":11205,
"zabránit":11206,
"##nikl":11207,
"Exist":11208,
"95":11209,
"hospodaření":11210,
"kontakt":11211,
"úsek":11212,
"nešťast":11213,
"##ilní":11214,
"Kaš":11215,
"hlasy":11216,
"Mys":11217,
"Naštěstí":11218,
"##kovic":11219,
"Ježí":11220,
"##tak":11221,
"scény":11222,
"Red":11223,
"haly":11224,
"poka":11225,
"##goslá":11226,
"##pravo":11227,
"Liberce":11228,
"zřej":11229,
"dálnice":11230,
"fotbalistů":11231,
"cestov":11232,
"##ston":11233,
"vrtu":11234,
"##šily":11235,
"manželka":11236,
"plu":11237,
"sovět":11238,
"##čků":11239,
"historických":11240,
"##UL":11241,
"podobu":11242,
"nakladatel":11243,
"##ůžou":11244,
"osmnáct":11245,
"mý":11246,
"##řená":11247,
"lyžař":11248,
"Arg":11249,
"Často":11250,
"obrovské":11251,
"##kalo":11252,
"##mel":11253,
"##vejte":11254,
"nomin":11255,
"##lového":11256,
"umožní":11257,
"divize":11258,
"odpověděl":11259,
"##ladatel":11260,
"autem":11261,
"Vero":11262,
"jimi":11263,
"přispí":11264,
"Geor":11265,
"Tohle":11266,
"výzkumu":11267,
"dané":11268,
"komory":11269,
"Karo":11270,
"##ňující":11271,
"Zi":11272,
"##tín":11273,
"písně":11274,
"noviny":11275,
"propo":11276,
"dlouh":11277,
"operace":11278,
"oku":11279,
"brus":11280,
"půdy":11281,
"Vsetín":11282,
"případné":11283,
"graf":11284,
"##šená":11285,
"rozmě":11286,
"předbě":11287,
"severní":11288,
"přijetí":11289,
"pest":11290,
"##brat":11291,
"##čátek":11292,
"##ong":11293,
"used":11294,
"svědčí":11295,
"čtvere":11296,
"jednak":11297,
"##sadil":11298,
"žádosti":11299,
"iniciati":11300,
"resp":11301,
"##venství":11302,
"##ouště":11303,
"Cílem":11304,
"##tim":11305,
"opravu":11306,
"vítěze":11307,
"vytváře":11308,
"neji":11309,
"soustředění":11310,
"poslanec":11311,
"limit":11312,
"celkově":11313,
"##agu":11314,
"běhu":11315,
"Řidič":11316,
"##líbí":11317,
"MUZEUM":11318,
"vych":11319,
"podzimu":11320,
"##šejí":11321,
"##chově":11322,
"nárok":11323,
"vraž":11324,
"##sová":11325,
"##pul":11326,
"připomí":11327,
"##tonu":11328,
"sítí":11329,
"Připrav":11330,
"##enec":11331,
"soustav":11332,
"výlet":11333,
"##encí":11334,
"staví":11335,
"peti":11336,
"jih":11337,
"stopro":11338,
"Nedá":11339,
"pěkně":11340,
"zpravidla":11341,
"léčeb":11342,
"mistra":11343,
"shr":11344,
"vedla":11345,
"vyrovnat":11346,
"poslanců":11347,
"Bohemi":11348,
"obrat":11349,
"rý":11350,
"tiskové":11351,
"Benešov":11352,
"sezná":11353,
"odpadu":11354,
"mostu":11355,
"##DÁ":11356,
"Dag":11357,
"www":11358,
"jab":11359,
"nejú":11360,
"##skočil":11361,
"dole":11362,
"nádob":11363,
"průzkumu":11364,
"porazil":11365,
"postoj":11366,
"ocen":11367,
"vytvoření":11368,
"klá":11369,
"Napo":11370,
"##umati":11371,
"manželství":11372,
"Klatov":11373,
"##razy":11374,
"##znala":11375,
"##ždé":11376,
"##ero":11377,
"vymys":11378,
"občerst":11379,
"zábě":11380,
"Karvin":11381,
"Jenom":11382,
"##ink":11383,
"Jihlavě":11384,
"ohrožení":11385,
"##jdeme":11386,
"Americe":11387,
"kariéru":11388,
"rychlé":11389,
"##tami":11390,
"zare":11391,
"Organi":11392,
"neuvěřitel":11393,
"bolesti":11394,
"##avá":11395,
"vysokých":11396,
"naci":11397,
"nezvlád":11398,
"izrael":11399,
"zlato":11400,
"##sech":11401,
"Fotbalisté":11402,
"Lho":11403,
"instituce":11404,
"99":11405,
"Středoče":11406,
"angličt":11407,
"Marké":11408,
"Velký":11409,
"##inka":11410,
"##alog":11411,
"vyvr":11412,
"terénu":11413,
"lek":11414,
"Novo":11415,
"sezona":11416,
"##vent":11417,
"čtyřiceti":11418,
"nevý":11419,
"interpr":11420,
"##čice":11421,
"konference":11422,
"##átka":11423,
"Podí":11424,
"##loze":11425,
"pohodl":11426,
"vzápětí":11427,
"nemělo":11428,
"##ens":11429,
"Gab":11430,
"proběhne":11431,
"pokutu":11432,
"spokojený":11433,
"prohlédnout":11434,
"stolu":11435,
"hvězda":11436,
"slavnostní":11437,
"netra":11438,
"pokle":11439,
"parkoviště":11440,
"komunikaci":11441,
"hrála":11442,
"Indi":11443,
"těžce":11444,
"náhradní":11445,
"dres":11446,
"##číme":11447,
"Kap":11448,
"##maz":11449,
"Tým":11450,
"Kru":11451,
"Fu":11452,
"##šího":11453,
"jídel":11454,
"##stud":11455,
"řidičů":11456,
"Situa":11457,
"odhod":11458,
"článek":11459,
"##jně":11460,
"##nam":11461,
"dávat":11462,
"odev":11463,
"zákonem":11464,
"tragé":11465,
"vlastního":11466,
"umělecké":11467,
"##tám":11468,
"kulturního":11469,
"technologií":11470,
"##šených":11471,
"hů":11472,
"povinnosti":11473,
"osmnácti":11474,
"##enců":11475,
"##boře":11476,
"##kaly":11477,
"přinesl":11478,
"podobný":11479,
"Chorvat":11480,
"rozhovor":11481,
"Podě":11482,
"sněmovny":11483,
"Informa":11484,
"album":11485,
"##gan":11486,
"stovek":11487,
"tříd":11488,
"ska":11489,
"média":11490,
"odehrál":11491,
"olej":11492,
"##něny":11493,
"Hal":11494,
"kopu":11495,
"povr":11496,
"bílé":11497,
"pokut":11498,
"kostele":11499,
"vědomí":11500,
"##cházelo":11501,
"spojené":11502,
"##jíme":11503,
"studenty":11504,
"##míru":11505,
"Budeme":11506,
"HD":11507,
"kartu":11508,
"##lety":11509,
"labora":11510,
"180":11511,
"libe":11512,
"Zastup":11513,
"dohled":11514,
"necelých":11515,
"otázkou":11516,
"Dět":11517,
"černo":11518,
"##dlo":11519,
"úsměvem":11520,
"Slavii":11521,
"Hude":11522,
"Dalším":11523,
"##OZ":11524,
"Víd":11525,
"Itálii":11526,
"dokončení":11527,
"vidím":11528,
"Než":11529,
"##čená":11530,
"##ženého":11531,
"dovolit":11532,
"žebříčku":11533,
"cestující":11534,
"Pospí":11535,
"památky":11536,
"##ával":11537,
"Doprav":11538,
"##hlou":11539,
"změní":11540,
"režim":11541,
"úsil":11542,
"patrně":11543,
"budova":11544,
"německý":11545,
"přijede":11546,
"propaga":11547,
"termínu":11548,
"##večer":11549,
"##enku":11550,
"dětství":11551,
"příbuz":11552,
"brát":11553,
"měste":11554,
"##šná":11555,
"Soci":11556,
"plod":11557,
"daní":11558,
"teploty":11559,
"Pět":11560,
"zkoušky":11561,
"Ša":11562,
"Leo":11563,
"##pev":11564,
"zařaz":11565,
"takovým":11566,
"důvody":11567,
"druholig":11568,
"detek":11569,
"naplno":11570,
"dřeva":11571,
"nepřá":11572,
"Němec":11573,
"dočas":11574,
"reprezentační":11575,
"##kret":11576,
"jem":11577,
"Cha":11578,
"zjistil":11579,
"Brněn":11580,
"vypráví":11581,
"nesmysl":11582,
"Hvě":11583,
"##svět":11584,
"otevřel":11585,
"hub":11586,
"Eli":11587,
"zaned":11588,
"vznika":11589,
"##ženým":11590,
"stranou":11591,
"##jedině":11592,
"výstavby":11593,
"přístav":11594,
"##toru":11595,
"Bá":11596,
"OK":11597,
"příjmů":11598,
"pozd":11599,
"nimiž":11600,
"velvy":11601,
"loňské":11602,
"řeč":11603,
"prázdnin":11604,
"lib":11605,
"reprezentan":11606,
"Alena":11607,
"voličů":11608,
"66":11609,
"návštěvě":11610,
"Pot":11611,
"osobností":11612,
"Bohemians":11613,
"##hoda":11614,
"dávají":11615,
"obranu":11616,
"nešlo":11617,
"##cad":11618,
"##jením":11619,
"rekrea":11620,
"zavedení":11621,
"zouf":11622,
"infra":11623,
"##ránek":11624,
"osobnost":11625,
"soli":11626,
"konc":11627,
"jiní":11628,
"Kas":11629,
"kurz":11630,
"nere":11631,
"Iráku":11632,
"kó":11633,
"Téměř":11634,
"relativně":11635,
"doklady":11636,
"##off":11637,
"zaří":11638,
"Hej":11639,
"##ičce":11640,
"##livá":11641,
"##skobudějov":11642,
"##xy":11643,
"Růži":11644,
"Hro":11645,
"výborně":11646,
"kancelář":11647,
"navštívit":11648,
"zastavit":11649,
"Kali":11650,
"##avori":11651,
"poločasu":11652,
"##hlu":11653,
"tisku":11654,
"##šíme":11655,
"masa":11656,
"veče":11657,
"##att":11658,
"Nečas":11659,
"Mak":11660,
"troji":11661,
"jistotu":11662,
"koncerty":11663,
"skončit":11664,
"žán":11665,
"samotné":11666,
"objektů":11667,
"civil":11668,
"fotbalový":11669,
"zvítězil":11670,
"muselo":11671,
"soudce":11672,
"##asy":11673,
"##hradu":11674,
"souladu":11675,
"osmdesát":11676,
"návrhy":11677,
"##čela":11678,
"##íte":11679,
"nou":11680,
"těmi":11681,
"##kaza":11682,
"Galerie":11683,
"konkrétně":11684,
"bránit":11685,
"##cházeli":11686,
"dokonale":11687,
"měnit":11688,
"nek":11689,
"##rovat":11690,
"léky":11691,
"potvrzuje":11692,
"##line":11693,
"##itostí":11694,
"lží":11695,
"##ecka":11696,
"webu":11697,
"dostaly":11698,
"rezi":11699,
"77":11700,
"Bob":11701,
"##ché":11702,
"profesor":11703,
"minulé":11704,
"##činy":11705,
"##mani":11706,
"zadrž":11707,
"dokáž":11708,
"dělní":11709,
"##jek":11710,
"Hus":11711,
"událostí":11712,
"et":11713,
"plno":11714,
"pádu":11715,
"Polska":11716,
"Pož":11717,
"vztahů":11718,
"obrovský":11719,
"##cházela":11720,
"Led":11721,
"##konom":11722,
"omy":11723,
"rozs":11724,
"bio":11725,
"Tel":11726,
"víno":11727,
"využívají":11728,
"Chci":11729,
"matky":11730,
"##mět":11731,
"listu":11732,
"##stilo":11733,
"legendá":11734,
"ostatními":11735,
"příjemné":11736,
"##fg":11737,
"##ologické":11738,
"finančně":11739,
"pojmen":11740,
"informovala":11741,
"##mám":11742,
"tribu":11743,
"sekret":11744,
"telefonu":11745,
"zakoup":11746,
"##čeho":11747,
"Kab":11748,
"Willi":11749,
"záložník":11750,
"pražských":11751,
"jedenácti":11752,
"Jitka":11753,
"##ere":11754,
"projedná":11755,
"silnicích":11756,
"##chvat":11757,
"##mez":11758,
"místopředseda":11759,
"golf":11760,
"podporuje":11761,
"##ýká":11762,
"DPH":11763,
"odkaz":11764,
"##anem":11765,
"líb":11766,
"řekli":11767,
"žil":11768,
"příprava":11769,
"budov":11770,
"##ktoru":11771,
"vyšla":11772,
"chirurg":11773,
"nedošlo":11774,
"smluv":11775,
"článku":11776,
"trápí":11777,
"porazili":11778,
"slep":11779,
"##hnu":11780,
"průmyslové":11781,
"##livost":11782,
"##řky":11783,
"##lip":11784,
"chalup":11785,
"materiály":11786,
"VY":11787,
"upřesnil":11788,
"sbírky":11789,
"PL":11790,
"Baník":11791,
"##gor":11792,
"##mezí":11793,
"vaší":11794,
"##alizaci":11795,
"##ts":11796,
"##odenní":11797,
"parti":11798,
"přiznává":11799,
"pečlivě":11800,
"neuspě":11801,
"vpravo":11802,
"jevi":11803,
"Los":11804,
"starostka":11805,
"line":11806,
"Olomouce":11807,
"zně":11808,
"jedineč":11809,
"vyzkoušet":11810,
"zapar":11811,
"##meny":11812,
"##ble":11813,
"##rodru":11814,
"ge":11815,
"významné":11816,
"drobné":11817,
"cca":11818,
"mj":11819,
"Prachati":11820,
"Chtěli":11821,
"Doufám":11822,
"něž":11823,
"češt":11824,
"rozvod":11825,
"známých":11826,
"##eld":11827,
"63":11828,
"palub":11829,
"Dů":11830,
"bun":11831,
"Občan":11832,
"Dole":11833,
"opil":11834,
"inžený":11835,
"##UDr":11836,
"##che":11837,
"Ran":11838,
"##dé":11839,
"nesouhla":11840,
"##řina":11841,
"menš":11842,
"slovenské":11843,
"##ovny":11844,
"spal":11845,
"Mr":11846,
"hory":11847,
"lásky":11848,
"návštěvu":11849,
"našla":11850,
"ostatně":11851,
"rozsahu":11852,
"##ovod":11853,
"##tického":11854,
"##inc":11855,
"volně":11856,
"vlastnictví":11857,
"doplně":11858,
"současného":11859,
"studium":11860,
"zůstávají":11861,
"##icky":11862,
"odmí":11863,
"kolen":11864,
"##ádě":11865,
"vyřešit":11866,
"hří":11867,
"##kládají":11868,
"postavy":11869,
"sestup":11870,
"SR":11871,
"zákazníků":11872,
"##strojů":11873,
"##šce":11874,
"představitelé":11875,
"programů":11876,
"elektrárny":11877,
"Fis":11878,
"kamer":11879,
"Sněmov":11880,
"##brá":11881,
"zjistí":11882,
"čtvrtý":11883,
"##wer":11884,
"hmo":11885,
"##kus":11886,
"Unie":11887,
"systémy":11888,
"trend":11889,
"##dli":11890,
"bere":11891,
"##silo":11892,
"spolehli":11893,
"Králov":11894,
"rozděli":11895,
"ustan":11896,
"přišly":11897,
"Můj":11898,
"tváří":11899,
"turné":11900,
"archeolog":11901,
"praxe":11902,
"##fal":11903,
"##běhla":11904,
"##řena":11905,
"Rož":11906,
"##dic":11907,
"víme":11908,
"##arda":11909,
"Festival":11910,
"palá":11911,
"hledání":11912,
"důležitý":11913,
"vyho":11914,
"Hrad":11915,
"pěta":11916,
"obraně":11917,
"zjišť":11918,
"pau":11919,
"stranách":11920,
"běžně":11921,
"Kalou":11922,
"současných":11923,
"Původně":11924,
"jihoče":11925,
"##řicha":11926,
"##deme":11927,
"následujících":11928,
"vteřin":11929,
"účastníci":11930,
"suver":11931,
"švéd":11932,
"vojáci":11933,
"Žena":11934,
"##žby":11935,
"vlh":11936,
"zákony":11937,
"Zlína":11938,
"Návštěvníci":11939,
"Pre":11940,
"malého":11941,
"postavil":11942,
"maxi":11943,
"stavbě":11944,
"##ženy":11945,
"OB":11946,
"exeku":11947,
"nemuse":11948,
"Pam":11949,
"příležitostí":11950,
"Polsku":11951,
"nakou":11952,
"jiném":11953,
"momentálně":11954,
"Bár":11955,
"pořadatelé":11956,
"prvenství":11957,
"##čených":11958,
"snímky":11959,
"zážitek":11960,
"kariéry":11961,
"##ckem":11962,
"měření":11963,
"##teo":11964,
"uhra":11965,
"sedmdesát":11966,
"68":11967,
"Region":11968,
"souvisí":11969,
"nepřízni":11970,
"Bon":11971,
"disciplí":11972,
"existence":11973,
"##hlédl":11974,
"výži":11975,
"unikátní":11976,
"nemov":11977,
"látek":11978,
"odchod":11979,
"svědomí":11980,
"nebezpečné":11981,
"zvyšuje":11982,
"##poru":11983,
"automob":11984,
"Zav":11985,
"risk":11986,
"##ovič":11987,
"##fghá":11988,
"Večer":11989,
"ap":11990,
"smet":11991,
"Utkání":11992,
"výrobě":11993,
"zatá":11994,
"nápis":11995,
"Sez":11996,
"##jn":11997,
"obchodního":11998,
"jasno":11999,
"muzeu":12000,
"Ren":12001,
"známo":12002,
"##kaci":12003,
"materiálů":12004,
"##vedla":12005,
"bon":12006,
"vytvořil":12007,
"problému":12008,
"angažmá":12009,
"úva":12010,
"Nova":12011,
"sáz":12012,
"slibuje":12013,
"lídr":12014,
"##vaného":12015,
"fó":12016,
"Izrael":12017,
"určitou":12018,
"##LI":12019,
"##krás":12020,
"##ývají":12021,
"##nují":12022,
"##terie":12023,
"##nohor":12024,
"trvat":12025,
"poly":12026,
"dařilo":12027,
"Rozhodně":12028,
"nada":12029,
"##stickou":12030,
"perfek":12031,
"62":12032,
"schopnosti":12033,
"povedlo":12034,
"Británii":12035,
"získání":12036,
"Tri":12037,
"přelomu":12038,
"##ráží":12039,
"maminka":12040,
"nemohla":12041,
"světového":12042,
"vyjádřil":12043,
"Zahra":12044,
"metru":12045,
"švýcar":12046,
"##voří":12047,
"DO":12048,
"##onal":12049,
"zájmy":12050,
"ztrátu":12051,
"sklen":12052,
"jednoduše":12053,
"##erová":12054,
"pneumati":12055,
"Oby":12056,
"Soupe":12057,
"Začátek":12058,
"Jizer":12059,
"Písek":12060,
"##ráže":12061,
"úspor":12062,
"málok":12063,
"abyste":12064,
"zopak":12065,
"Dagmar":12066,
"velitel":12067,
"##lesku":12068,
"Kro":12069,
"střetnutí":12070,
"loď":12071,
"objedná":12072,
"##SS":12073,
"knize":12074,
"##tání":12075,
"##slov":12076,
"Bývalý":12077,
"diskuse":12078,
"soudí":12079,
"neznamená":12080,
"médií":12081,
"rozhodlo":12082,
"původu":12083,
"##něného":12084,
"výhradně":12085,
"Takový":12086,
"Takové":12087,
"chystají":12088,
"Londýně":12089,
"ozdob":12090,
"síti":12091,
"Senátu":12092,
"akt":12093,
"Úča":12094,
"##zou":12095,
"Kup":12096,
"správní":12097,
"Spí":12098,
"dramatu":12099,
"##orní":12100,
"##mím":12101,
"důvodem":12102,
"vrátila":12103,
"zámě":12104,
"krádeže":12105,
"##říč":12106,
"##inová":12107,
"##činu":12108,
"doposud":12109,
"Baníku":12110,
"##ventu":12111,
"def":12112,
"RE":12113,
"šestnácti":12114,
"##hová":12115,
"##zl":12116,
"domácnosti":12117,
"Budou":12118,
"koord":12119,
"ryt":12120,
"##plá":12121,
"Fre":12122,
"poskytuje":12123,
"##ovést":12124,
"Vůbec":12125,
"Šte":12126,
"gólu":12127,
"můžu":12128,
"poplatky":12129,
"##lera":12130,
"prezidentem":12131,
"Deník":12132,
"zvítě":12133,
"desetiletí":12134,
"##avil":12135,
"##škou":12136,
"individuální":12137,
"existují":12138,
"##hlaš":12139,
"elektřiny":12140,
"port":12141,
"tvrzení":12142,
"metod":12143,
"osvětlení":12144,
"jízdě":12145,
"##éma":12146,
"Obchod":12147,
"Boj":12148,
"##cuje":12149,
"SO":12150,
"ohlá":12151,
"Ger":12152,
"nevid":12153,
"bak":12154,
"##šim":12155,
"Pardubic":12156,
"vyčer":12157,
"klání":12158,
"gólmana":12159,
"firmou":12160,
"obliče":12161,
"snaha":12162,
"obchodů":12163,
"nebudeme":12164,
"##10":12165,
"rostoucí":12166,
"##OVICE":12167,
"nezaměstnanosti":12168,
"částka":12169,
"sociálně":12170,
"důklad":12171,
"brány":12172,
"##padla":12173,
"72":12174,
"##lební":12175,
"dějin":12176,
"vyčís":12177,
"odejít":12178,
"krev":12179,
"##AB":12180,
"##šenou":12181,
"úspěšné":12182,
"živoči":12183,
"##loží":12184,
"##are":12185,
"Koncert":12186,
"desky":12187,
"Mluv":12188,
"##anční":12189,
"občanské":12190,
"rozhodování":12191,
"nestalo":12192,
"jara":12193,
"rezerva":12194,
"##deční":12195,
"rodinné":12196,
"učeb":12197,
"Tuto":12198,
"mimořádně":12199,
"##bez":12200,
"chat":12201,
"doplnila":12202,
"hrálo":12203,
"nezmě":12204,
"Náš":12205,
"trošku":12206,
"značné":12207,
"textu":12208,
"podobných":12209,
"nejvýznam":12210,
"triumf":12211,
"##šu":12212,
"##dice":12213,
"##struktu":12214,
"##mera":12215,
"tlačí":12216,
"neexistuje":12217,
"##tejner":12218,
"používají":12219,
"Austrá":12220,
"IP":12221,
"odě":12222,
"##pce":12223,
"Motor":12224,
"##NÍK":12225,
"Odpově":12226,
"##ovosti":12227,
"hoř":12228,
"##lét":12229,
"policisty":12230,
"maďar":12231,
"ukradl":12232,
"Měla":12233,
"vyhlášení":12234,
"předvo":12235,
"##zovala":12236,
"zastavil":12237,
"##kři":12238,
"Výbor":12239,
"něčem":12240,
"##zených":12241,
"##NÉ":12242,
"ztratil":12243,
"světla":12244,
"jet":12245,
"spokojen":12246,
"hodnota":12247,
"celky":12248,
"odpočin":12249,
"Domini":12250,
"kino":12251,
"Pob":12252,
"anket":12253,
"Oldřich":12254,
"německých":12255,
"letadla":12256,
"místního":12257,
"grafi":12258,
"##álem":12259,
"kanad":12260,
"přijeli":12261,
"odstart":12262,
"opozice":12263,
"##ologie":12264,
"vyšlo":12265,
"##nuli":12266,
"atraktivní":12267,
"Rakousku":12268,
"vzhled":12269,
"marketing":12270,
"##tt":12271,
"tvorby":12272,
"Vid":12273,
"skand":12274,
"zle":12275,
"slunce":12276,
"Sprá":12277,
"##leji":12278,
"##odob":12279,
"Člen":12280,
"výroba":12281,
"##rku":12282,
"kytar":12283,
"liší":12284,
"zaží":12285,
"házen":12286,
"úsilí":12287,
"krále":12288,
"každým":12289,
"ojedině":12290,
"čtení":12291,
"popí":12292,
"##pustit":12293,
"klou":12294,
"##čany":12295,
"jmenuje":12296,
"vyrovnání":12297,
"##nový":12298,
"zápasem":12299,
"Blu":12300,
"kuli":12301,
"vylož":12302,
"vítr":12303,
"sál":12304,
"ochut":12305,
"Myslí":12306,
"Portu":12307,
"##inku":12308,
"stálo":12309,
"povrchu":12310,
"teoreti":12311,
"Část":12312,
"##slan":12313,
"vždyť":12314,
"##nína":12315,
"Ange":12316,
"Hlavním":12317,
"vydělá":12318,
"změnil":12319,
"vzniká":12320,
"zajímá":12321,
"cestovní":12322,
"Zuzana":12323,
"##DA":12324,
"Olympi":12325,
"Můžete":12326,
"Koneč":12327,
"narazil":12328,
"sedmnáct":12329,
"nelíbí":12330,
"com":12331,
"týdnech":12332,
"pověst":12333,
"gymnázia":12334,
"Závě":12335,
"Jesení":12336,
"spravedlnosti":12337,
"nejmlad":12338,
"charakter":12339,
"##zely":12340,
"Cor":12341,
"pozemku":12342,
"mých":12343,
"štá":12344,
"znamení":12345,
"zkon":12346,
"přenos":12347,
"##koru":12348,
"využil":12349,
"konstrukce":12350,
"Budějovic":12351,
"jakých":12352,
"následky":12353,
"nesmě":12354,
"##šle":12355,
"jád":12356,
"Smet":12357,
"řím":12358,
"bazénu":12359,
"břehu":12360,
"Práce":12361,
"nosi":12362,
"zub":12363,
"Put":12364,
"ústřed":12365,
"##ENT":12366,
"hektar":12367,
"nechala":12368,
"##šetř":12369,
"##int":12370,
"##odo":12371,
"Okresní":12372,
"##bat":12373,
"skvělé":12374,
"autorů":12375,
"figu":12376,
"nejmenší":12377,
"řídit":12378,
"metr":12379,
"dobou":12380,
"zahájí":12381,
"##grace":12382,
"Většinou":12383,
"##ávali":12384,
"soudem":12385,
"Dům":12386,
"ša":12387,
"převzal":12388,
"##vůj":12389,
"##pád":12390,
"ozbroj":12391,
"pivovar":12392,
"##chal":12393,
"předsedou":12394,
"vyvrcho":12395,
"doplň":12396,
"Nedě":12397,
"##ip":12398,
"drah":12399,
"Oprav":12400,
"oken":12401,
"##now":12402,
"brance":12403,
"situací":12404,
"studiu":12405,
"úvěr":12406,
"podobného":12407,
"souboji":12408,
"Prahu":12409,
"takzvané":12410,
"rozhodovat":12411,
"zneuží":12412,
"##škem":12413,
"vítězů":12414,
"reagovat":12415,
"##něnou":12416,
"##ns":12417,
"Nedo":12418,
"Vond":12419,
"mlý":12420,
"tip":12421,
"prodává":12422,
"vývoji":12423,
"Ener":12424,
"roh":12425,
"fakulty":12426,
"##KÁ":12427,
"pohodě":12428,
"##mější":12429,
"Varech":12430,
"přehrá":12431,
"##sali":12432,
"is":12433,
"Několik":12434,
"horo":12435,
"hostování":12436,
"týče":12437,
"vysvětlit":12438,
"ukáže":12439,
"sval":12440,
"glob":12441,
"krajských":12442,
"nemovitostí":12443,
"##ristické":12444,
"pohře":12445,
"zah":12446,
"##jezdy":12447,
"Tran":12448,
"##chla":12449,
"ubytování":12450,
"1945":12451,
"##čár":12452,
"Chr":12453,
"Miloše":12454,
"##SA":12455,
"bývalých":12456,
"staly":12457,
"##letu":12458,
"hrozně":12459,
"bývají":12460,
"pozoru":12461,
"cibu":12462,
"##síme":12463,
"nestačí":12464,
"##dav":12465,
"67":12466,
"Kostel":12467,
"##jímají":12468,
"podepsal":12469,
"zástupců":12470,
"dospělé":12471,
"předměty":12472,
"##fikace":12473,
"ničem":12474,
"armáda":12475,
"vším":12476,
"Hasiči":12477,
"bul":12478,
"MA":12479,
"čtenáři":12480,
"Krejčí":12481,
"otře":12482,
"nos":12483,
"zemědělské":12484,
"větších":12485,
"basketbal":12486,
"klaví":12487,
"Dán":12488,
"místním":12489,
"##líček":12490,
"##zájem":12491,
"orient":12492,
"##ovanými":12493,
"mel":12494,
"##bert":12495,
"##nisá":12496,
"##nese":12497,
"věnoval":12498,
"##esta":12499,
"##nižší":12500,
"##pech":12501,
"ošetř":12502,
"opravd":12503,
"Set":12504,
"Zákon":12505,
"Tan":12506,
"##likvid":12507,
"infrastruktu":12508,
"výdaje":12509,
"playoff":12510,
"překvapivě":12511,
"odpovědnost":12512,
"doj":12513,
"dívka":12514,
"bojov":12515,
"Tho":12516,
"dětských":12517,
"někam":12518,
"fan":12519,
"poky":12520,
"Příbrami":12521,
"jaro":12522,
"volbami":12523,
"##uju":12524,
"bé":12525,
"##ničku":12526,
"vyhro":12527,
"vlak":12528,
"projed":12529,
"Předseda":12530,
"zelen":12531,
"nejstarší":12532,
"jakého":12533,
"manipu":12534,
"##sh":12535,
"Ostatní":12536,
"Voda":12537,
"podpořit":12538,
"##čům":12539,
"představil":12540,
"špatný":12541,
"Pokračování":12542,
"##strono":12543,
"Slovan":12544,
"psát":12545,
"Kříž":12546,
"podpora":12547,
"bro":12548,
"##teorolog":12549,
"Červ":12550,
"linky":12551,
"##pouští":12552,
"integ":12553,
"pátku":12554,
"##láním":12555,
"##cro":12556,
"údolí":12557,
"Malé":12558,
"byzny":12559,
"internetové":12560,
"Čechů":12561,
"##tečná":12562,
"trasy":12563,
"##čkové":12564,
"Schwar":12565,
"prosa":12566,
"útě":12567,
"##tickou":12568,
"užit":12569,
"přesvědčit":12570,
"připadá":12571,
"pohon":12572,
"Sva":12573,
"formy":12574,
"odvět":12575,
"skli":12576,
"marně":12577,
"návštěvy":12578,
"vrst":12579,
"sestavy":12580,
"Litvínov":12581,
"specif":12582,
"jazz":12583,
"jednotek":12584,
"osobního":12585,
"instala":12586,
"##vech":12587,
"Rum":12588,
"dáv":12589,
"natáčení":12590,
"##kin":12591,
"##nuté":12592,
"##čká":12593,
"Jakmile":12594,
"Šť":12595,
"Sb":12596,
"diag":12597,
"##ŠÍ":12598,
"vyžaduje":12599,
"frek":12600,
"##ína":12601,
"##líky":12602,
"ab":12603,
"##álka":12604,
"Sedlá":12605,
"Řekl":12606,
"odstav":12607,
"zajiště":12608,
"Vím":12609,
"investic":12610,
"Michala":12611,
"##udr":12612,
"ohledem":12613,
"Skupina":12614,
"řekne":12615,
"Poháru":12616,
"##lily":12617,
"##kyni":12618,
"jízdu":12619,
"alternati":12620,
"bolest":12621,
"prodávat":12622,
"##zdrav":12623,
"oddílu":12624,
"sezóny":12625,
"hráčům":12626,
"amatér":12627,
"##účastní":12628,
"##řazení":12629,
"šampionát":12630,
"správce":12631,
"mono":12632,
"barok":12633,
"respekt":12634,
"##hen":12635,
"Hled":12636,
"organizaci":12637,
"##mách":12638,
"##éři":12639,
"přinese":12640,
"kuchyně":12641,
"výstavě":12642,
"matem":12643,
"vyrovná":12644,
"investovat":12645,
"reagoval":12646,
"dotací":12647,
"##dol":12648,
"otevřené":12649,
"favori":12650,
"##níček":12651,
"loňský":12652,
"úspěšný":12653,
"odpoled":12654,
"úvahu":12655,
"vypro":12656,
"##važuje":12657,
"##jka":12658,
"zve":12659,
"69":12660,
"úspěchy":12661,
"##ňák":12662,
"##nesení":12663,
"vnu":12664,
"objevily":12665,
"výcvi":12666,
"souvise":12667,
"##kovský":12668,
"učí":12669,
"Davida":12670,
"dvacát":12671,
"zahraje":12672,
"vyjedná":12673,
"##řství":12674,
"hrob":12675,
"Evropa":12676,
"Kle":12677,
"Návr":12678,
"##lib":12679,
"Věra":12680,
"určen":12681,
"Hub":12682,
"lic":12683,
"##atřicetiletý":12684,
"šlech":12685,
"kontejner":12686,
"unii":12687,
"hlava":12688,
"Mit":12689,
"05":12690,
"vzduch":12691,
"neplatí":12692,
"hledají":12693,
"růž":12694,
"herci":12695,
"ostře":12696,
"##kladem":12697,
"nejsil":12698,
"hrou":12699,
"zpěvák":12700,
"jeze":12701,
"jo":12702,
"autora":12703,
"mzdy":12704,
"vypadalo":12705,
"Helena":12706,
"sportovních":12707,
"MI":12708,
"cyklo":12709,
"bezplat":12710,
"výno":12711,
"kapito":12712,
"nejrůznější":12713,
"kůži":12714,
"188":12715,
"Internet":12716,
"nohou":12717,
"##óna":12718,
"Velkou":12719,
"vybral":12720,
"jejímž":12721,
"energii":12722,
"držet":12723,
"Wo":12724,
"jinými":12725,
"otevřít":12726,
"koupil":12727,
"##arch":12728,
"Air":12729,
"informaci":12730,
"hypoté":12731,
"##icko":12732,
"Tip":12733,
"připravují":12734,
"Hráči":12735,
"Začí":12736,
"Moravskoslez":12737,
"záznam":12738,
"systémem":12739,
"nerozhod":12740,
"Hab":12741,
"zákazníky":12742,
"představují":12743,
"přijíma":12744,
"ustanov":12745,
"záležitosti":12746,
"Dru":12747,
"automat":12748,
"pobí":12749,
"Hit":12750,
"##illa":12751,
"##ženě":12752,
"Miloslav":12753,
"demokraté":12754,
"##cených":12755,
"hloub":12756,
"výhra":12757,
"pohledá":12758,
"očí":12759,
"Mor":12760,
"Šeb":12761,
"dlouhý":12762,
"někomu":12763,
"neděl":12764,
"KR":12765,
"Paříži":12766,
"##inský":12767,
"starého":12768,
"připravila":12769,
"režiséra":12770,
"novináři":12771,
"Pozor":12772,
"nikomu":12773,
"mléka":12774,
"Arch":12775,
"biskup":12776,
"modely":12777,
"ME":12778,
"atleti":12779,
"nímž":12780,
"1968":12781,
"York":12782,
"managem":12783,
"doda":12784,
"politickou":12785,
"##lod":12786,
"##vým":12787,
"noh":12788,
"anony":12789,
"funkcí":12790,
"##ben":12791,
"Zad":12792,
"700":12793,
"##fikov":12794,
"nasazení":12795,
"Sedm":12796,
"##telnou":12797,
"sídlí":12798,
"opakovaně":12799,
"přen":12800,
"hodinou":12801,
"snížil":12802,
"NAD":12803,
"jazyk":12804,
"proudu":12805,
"sklon":12806,
"obecní":12807,
"Tachov":12808,
"kombinaci":12809,
"Litoměři":12810,
"litrů":12811,
"##líka":12812,
"tváře":12813,
"##čnosti":12814,
"podal":12815,
"##chl":12816,
"top":12817,
"zřejmé":12818,
"vysoce":12819,
"terén":12820,
"internetových":12821,
"znamenalo":12822,
"Procházka":12823,
"Ší":12824,
"73":12825,
"##děly":12826,
"Hodonín":12827,
"##námit":12828,
"šta":12829,
"Vlastimil":12830,
"nakrá":12831,
"Hokej":12832,
"soupeřem":12833,
"objas":12834,
"Zvlá":12835,
"##nolog":12836,
"ředitelem":12837,
"písk":12838,
"poškození":12839,
"týdně":12840,
"paradox":12841,
"box":12842,
"zato":12843,
"objemu":12844,
"památek":12845,
"úřadů":12846,
"Otevřeno":12847,
"dosáhla":12848,
"doufám":12849,
"sdru":12850,
"##ovská":12851,
"poměr":12852,
"musely":12853,
"demonstra":12854,
"střelou":12855,
"##TI":12856,
"trénink":12857,
"##jů":12858,
"##rád":12859,
"nástroje":12860,
"skladby":12861,
"##loha":12862,
"Len":12863,
"Poděbra":12864,
"nejnově":12865,
"strojů":12866,
"závaž":12867,
"útočníka":12868,
"vdě":12869,
"vybudovat":12870,
"úředníci":12871,
"brej":12872,
"volejbal":12873,
"ras":12874,
"porovnání":12875,
"jelikož":12876,
"automaticky":12877,
"Kav":12878,
"##zeli":12879,
"odlož":12880,
"##hách":12881,
"nepochyb":12882,
"seriál":12883,
"spolé":12884,
"devadesátých":12885,
"třinácti":12886,
"Hlin":12887,
"neobvyk":12888,
"levnější":12889,
"míře":12890,
"JE":12891,
"podnikatele":12892,
"vybudování":12893,
"##ňové":12894,
"##organi":12895,
"Mnoho":12896,
"Bruselu":12897,
"tělocvi":12898,
"Byst":12899,
"prince":12900,
"pun":12901,
"kolegové":12902,
"vytvořili":12903,
"##léze":12904,
"výhodu":12905,
"tlaku":12906,
"##áž":12907,
"##kovicích":12908,
"lázeň":12909,
"##aliz":12910,
"kontin":12911,
"Znojmo":12912,
"obchody":12913,
"vážné":12914,
"diplomat":12915,
"##AP":12916,
"zprostřed":12917,
"mezinárodního":12918,
"mozku":12919,
"Vzpo":12920,
"Úto":12921,
"##řez":12922,
"##íně":12923,
"nesmírně":12924,
"důležitá":12925,
"menších":12926,
"van":12927,
"pokaždé":12928,
"Egy":12929,
"vybírat":12930,
"spokojeni":12931,
"dozví":12932,
"Chu":12933,
"##skají":12934,
"třetinu":12935,
"Plá":12936,
"evropského":12937,
"pocity":12938,
"obchodních":12939,
"zvýší":12940,
"Vojtěch":12941,
"George":12942,
"Komi":12943,
"##lační":12944,
"jídla":12945,
"##bám":12946,
"závěrečné":12947,
"peněžen":12948,
"Pale":12949,
"prestižní":12950,
"klienty":12951,
"zastře":12952,
"postaví":12953,
"##šena":12954,
"vyjádřit":12955,
"herečka":12956,
"Neza":12957,
"##lám":12958,
"sklá":12959,
"žádostí":12960,
"zm":12961,
"poraden":12962,
"nedělní":12963,
"kontaktu":12964,
"objevili":12965,
"Nemo":12966,
"party":12967,
"Hrd":12968,
"sehnat":12969,
"jemuž":12970,
"počátkem":12971,
"lži":12972,
"tepel":12973,
"Klá":12974,
"obsadil":12975,
"přeprav":12976,
"nakladatelství":12977,
"##heň":12978,
"kvalita":12979,
"##noucí":12980,
"##hna":12981,
"Sad":12982,
"##cháme":12983,
"instal":12984,
"sokolov":12985,
"beton":12986,
"poznám":12987,
"Mladí":12988,
"##zemní":12989,
"doty":12990,
"bl":12991,
"##ákem":12992,
"Can":12993,
"známá":12994,
"Pospíšil":12995,
"technických":12996,
"fra":12997,
"##torem":12998,
"61":12999,
"Mach":13000,
"pamat":13001,
"Každá":13002,
"cukrov":13003,
"Boh":13004,
"dobrodru":13005,
"##zít":13006,
"volno":13007,
"nahradit":13008,
"odhal":13009,
"pane":13010,
"válka":13011,
"favorit":13012,
"instru":13013,
"##rušení":13014,
"činností":13015,
"srovná":13016,
"pěve":13017,
"experim":13018,
"přechodu":13019,
"zlikvid":13020,
"zavr":13021,
"inteli":13022,
"přivo":13023,
"nízké":13024,
"vydala":13025,
"medicí":13026,
"Fakul":13027,
"signá":13028,
"Vyškov":13029,
"##zdá":13030,
"denní":13031,
"Ligy":13032,
"##dejte":13033,
"vznikne":13034,
"optim":13035,
"zahrnuje":13036,
"prud":13037,
"Písku":13038,
"##mus":13039,
"##enici":13040,
"Speci":13041,
"##chání":13042,
"Severní":13043,
"bed":13044,
"nabídl":13045,
"vydává":13046,
"příspěv":13047,
"##mán":13048,
"##řelo":13049,
"Později":13050,
"negati":13051,
"Rakouska":13052,
"Karv":13053,
"popsala":13054,
"vstřelil":13055,
"MĚST":13056,
"bli":13057,
"##tce":13058,
"závodech":13059,
"konflik":13060,
"##zon":13061,
"##oria":13062,
"řeči":13063,
"považují":13064,
"využit":13065,
"konzervat":13066,
"##čák":13067,
"Američané":13068,
"ohledně":13069,
"##šeně":13070,
"zákonů":13071,
"##štá":13072,
"dodat":13073,
"nejlepšího":13074,
"##isi":13075,
"Připo":13076,
"Hora":13077,
"trestný":13078,
"autě":13079,
"zdálo":13080,
"zima":13081,
"urych":13082,
"Třebo":13083,
"českobudějov":13084,
"##telných":13085,
"samé":13086,
"##taj":13087,
"vyrábí":13088,
"Moje":13089,
"založil":13090,
"##EFA":13091,
"důvěry":13092,
"##bet":13093,
"Chomut":13094,
"Hen":13095,
"veter":13096,
"živnost":13097,
"psů":13098,
"##akce":13099,
"Ameriky":13100,
"francouzské":13101,
"smů":13102,
"stopy":13103,
"##išti":13104,
"objekty":13105,
"Spartě":13106,
"dluh":13107,
"administra":13108,
"zatí":13109,
"filmové":13110,
"připravena":13111,
"##oder":13112,
"##ser":13113,
"Hud":13114,
"přiblížil":13115,
"standardní":13116,
"Pouze":13117,
"nákupu":13118,
"130":13119,
"oslavy":13120,
"##čovat":13121,
"##ovacího":13122,
"nejúspěš":13123,
"vašeho":13124,
"místostarost":13125,
"Cy":13126,
"stali":13127,
"bezmála":13128,
"pohř":13129,
"kampaně":13130,
"čela":13131,
"prozatím":13132,
"způsobu":13133,
"nynější":13134,
"tren":13135,
"poplatek":13136,
"sotva":13137,
"kanon":13138,
"kob":13139,
"rychlostí":13140,
"##stně":13141,
"##zar":13142,
"produkty":13143,
"##matu":13144,
"##inské":13145,
"##něně":13146,
"typy":13147,
"věk":13148,
"zvěd":13149,
"časopisu":13150,
"žádá":13151,
"Group":13152,
"Dar":13153,
"##zena":13154,
"zkuše":13155,
"##SKÁ":13156,
"Třin":13157,
"##lona":13158,
"kulturních":13159,
"pozn":13160,
"pil":13161,
"##JE":13162,
"Obyva":13163,
"vice":13164,
"porost":13165,
"zajímavý":13166,
"odnesl":13167,
"zastupitelstvo":13168,
"Nat":13169,
"přeje":13170,
"Jágr":13171,
"dřevo":13172,
"neschop":13173,
"některá":13174,
"##zie":13175,
"hád":13176,
"##atý":13177,
"Jste":13178,
"přinesla":13179,
"měsíční":13180,
"##ujte":13181,
"Zak":13182,
"##cest":13183,
"infek":13184,
"Nis":13185,
"Cyk":13186,
"kulturním":13187,
"dám":13188,
"Portugal":13189,
"osoba":13190,
"málem":13191,
"zje":13192,
"##lia":13193,
"##fle":13194,
"zahrad":13195,
"##šín":13196,
"spar":13197,
"##imb":13198,
"systémů":13199,
"Manžel":13200,
"předchů":13201,
"Měsí":13202,
"vzniknout":13203,
"zdůvod":13204,
"včerej":13205,
"smy":13206,
"raz":13207,
"##atele":13208,
"čtenářů":13209,
"##II":13210,
"turisty":13211,
"had":13212,
"rohu":13213,
"rodinných":13214,
"##huje":13215,
"ký":13216,
"přístupu":13217,
"metropole":13218,
"rizika":13219,
"vazby":13220,
"pisto":13221,
"ředitelství":13222,
"zře":13223,
"objevují":13224,
"světový":13225,
"Pelhřimov":13226,
"lyžování":13227,
"útu":13228,
"vozidlo":13229,
"Gross":13230,
"modelu":13231,
"##ased":13232,
"magistrát":13233,
"##skop":13234,
"odol":13235,
"##gel":13236,
"FOT":13237,
"aktivně":13238,
"##sli":13239,
"sekun":13240,
"76":13241,
"Dana":13242,
"bavit":13243,
"##clé":13244,
"pyt":13245,
"chyba":13246,
"fotba":13247,
"Ode":13248,
"skry":13249,
"1000":13250,
"šetření":13251,
"doplňuje":13252,
"##tný":13253,
"součást":13254,
"dražší":13255,
"musli":13256,
"##stalo":13257,
"spočívá":13258,
"##enského":13259,
"zaměstná":13260,
"Američan":13261,
"bojí":13262,
"okamžik":13263,
"##rního":13264,
"patřit":13265,
"Invest":13266,
"Řada":13267,
"odpovědi":13268,
"nutno":13269,
"hov":13270,
"##amer":13271,
"##ÁT":13272,
"poměru":13273,
"dostávají":13274,
"unav":13275,
"Para":13276,
"Kře":13277,
"##ža":13278,
"britské":13279,
"obran":13280,
"vyrazil":13281,
"Vin":13282,
"rozhla":13283,
"konečné":13284,
"Dobrý":13285,
"##později":13286,
"říkám":13287,
"##ctva":13288,
"znají":13289,
"ekonom":13290,
"hygien":13291,
"Luboš":13292,
"pale":13293,
"partnera":13294,
"sestra":13295,
"dynami":13296,
"porušení":13297,
"záležitostí":13298,
"##lených":13299,
"verdi":13300,
"nebe":13301,
"dnešního":13302,
"##počtu":13303,
"Kolem":13304,
"stadi":13305,
"Ab":13306,
"investor":13307,
"##kuji":13308,
"ráz":13309,
"myšlenky":13310,
"rodinou":13311,
"držel":13312,
"atmosféra":13313,
"##ovanější":13314,
"##čoval":13315,
"##čat":13316,
"sý":13317,
"KO":13318,
"modré":13319,
"Zim":13320,
"kW":13321,
"##zřej":13322,
"##kol":13323,
"spotřebitel":13324,
"strážníků":13325,
"fau":13326,
"učit":13327,
"důchodu":13328,
"##pádně":13329,
"DVD":13330,
"podat":13331,
"dohodě":13332,
"sklep":13333,
"plast":13334,
"vyjíž":13335,
"##dows":13336,
"vrátili":13337,
"Starosta":13338,
"dceru":13339,
"sl":13340,
"reprezentaci":13341,
"##kládat":13342,
"dokumenty":13343,
"Beč":13344,
"##komunika":13345,
"publikum":13346,
"manželkou":13347,
"Pas":13348,
"směje":13349,
"vozid":13350,
"vámi":13351,
"##vet":13352,
"vyplá":13353,
"katastrof":13354,
"blu":13355,
"nepromě":13356,
"##náře":13357,
"##terán":13358,
"Přesně":13359,
"cítit":13360,
"přístroje":13361,
"##pust":13362,
"##chova":13363,
"Atlan":13364,
"Soutěž":13365,
"nějakého":13366,
"ránu":13367,
"Sá":13368,
"##zeného":13369,
"budovu":13370,
"map":13371,
"prošel":13372,
"##tší":13373,
"dospělých":13374,
"označení":13375,
"AC":13376,
"74":13377,
"Mé":13378,
"##zrae":13379,
"americká":13380,
"dohodu":13381,
"vlastnosti":13382,
"##metry":13383,
"tvrdě":13384,
"##čte":13385,
"překá":13386,
"pamětní":13387,
"afé":13388,
"Hla":13389,
"volného":13390,
"zóny":13391,
"minutu":13392,
"ropy":13393,
"Havířov":13394,
"Muzeum":13395,
"soukromých":13396,
"zani":13397,
"Vysoké":13398,
"##novou":13399,
"federace":13400,
"smrtí":13401,
"Kučera":13402,
"sporu":13403,
"Zej":13404,
"cele":13405,
"trestné":13406,
"šed":13407,
"Kope":13408,
"vytváří":13409,
"##platí":13410,
"zuby":13411,
"církve":13412,
"##řiz":13413,
"kolega":13414,
"##díme":13415,
"karet":13416,
"červené":13417,
"##nající":13418,
"pojede":13419,
"FOTBAL":13420,
"Izrae":13421,
"##ranž":13422,
"arab":13423,
"Tereza":13424,
"kvalifikaci":13425,
"produktů":13426,
"ČN":13427,
"promile":13428,
"160":13429,
"nevadí":13430,
"Vždycky":13431,
"odrů":13432,
"##tán":13433,
"##nést":13434,
"ostatním":13435,
"brankou":13436,
"Vaše":13437,
"příkaz":13438,
"zamít":13439,
"##tivních":13440,
"skončili":13441,
"půlnoci":13442,
"dalšímu":13443,
"okolních":13444,
"Červen":13445,
"zůstaly":13446,
"střelu":13447,
"##ester":13448,
"uvě":13449,
"dok":13450,
"mezinárodních":13451,
"dálnici":13452,
"porážku":13453,
"##dělo":13454,
"Barce":13455,
"každému":13456,
"orgány":13457,
"vlož":13458,
"záchranné":13459,
"papír":13460,
"##lický":13461,
"##stanou":13462,
"Fr":13463,
"Chebu":13464,
"myslet":13465,
"Gol":13466,
"##LOV":13467,
"Zla":13468,
"##ntál":13469,
"KL":13470,
"##domov":13471,
"Vítkovice":13472,
"##MĚ":13473,
"zma":13474,
"Mel":13475,
"##kovali":13476,
"pracoviště":13477,
"##zali":13478,
"pokoje":13479,
"galerii":13480,
"vybran":13481,
"log":13482,
"neh":13483,
"Jer":13484,
"##zelo":13485,
"větším":13486,
"Pen":13487,
"##harmo":13488,
"##vík":13489,
"institucí":13490,
"koupi":13491,
"široké":13492,
"protivní":13493,
"zelené":13494,
"privatizace":13495,
"koupel":13496,
"##stější":13497,
"ztrácí":13498,
"pacienty":13499,
"##hodil":13500,
"složité":13501,
"tepla":13502,
"autobusy":13503,
"potřetí":13504,
"##ith":13505,
"Byly":13506,
"silnější":13507,
"Elekt":13508,
"krku":13509,
"výbav":13510,
"##řských":13511,
"gará":13512,
"zástav":13513,
"kapitál":13514,
"##tnější":13515,
"vývo":13516,
"Provoz":13517,
"originální":13518,
"##čeni":13519,
"rychleji":13520,
"stůl":13521,
"zmín":13522,
"levi":13523,
"Dal":13524,
"plzeňské":13525,
"pavil":13526,
"střechy":13527,
"drama":13528,
"oblíbené":13529,
"respektive":13530,
"##UŠ":13531,
"posto":13532,
"##rační":13533,
"provi":13534,
"hráčky":13535,
"přeruš":13536,
"jednalo":13537,
"Hašek":13538,
"##lostez":13539,
"výšky":13540,
"##mrtí":13541,
"cenné":13542,
"fale":13543,
"Ačkoliv":13544,
"kilogramů":13545,
"městská":13546,
"věž":13547,
"##ano":13548,
"##váte":13549,
"šper":13550,
"okraji":13551,
"těžký":13552,
"AN":13553,
"sebevraž":13554,
"nevyu":13555,
"zastupitelů":13556,
"##lička":13557,
"úprav":13558,
"výhody":13559,
"socha":13560,
"##ářské":13561,
"Dosud":13562,
"překáž":13563,
"Krkono":13564,
"##ountry":13565,
"stavě":13566,
"psychiat":13567,
"##číst":13568,
"Luž":13569,
"stavebních":13570,
"Andre":13571,
"##šší":13572,
"osudu":13573,
"##kovými":13574,
"přilá":13575,
"aneb":13576,
"tenhle":13577,
"dílny":13578,
"Jihlavy":13579,
"78":13580,
"##ňan":13581,
"lékařské":13582,
"ženě":13583,
"CO":13584,
"Jack":13585,
"út":13586,
"##ózy":13587,
"tyč":13588,
"mládí":13589,
"Jugoslá":13590,
"nabídce":13591,
"Osm":13592,
"zajišťuje":13593,
"Bank":13594,
"##habili":13595,
"obcích":13596,
"kvalifikace":13597,
"nejnižší":13598,
"##last":13599,
"Blí":13600,
"cukru":13601,
"jízda":13602,
"Cupu":13603,
"Nada":13604,
"půle":13605,
"čisté":13606,
"Bau":13607,
"##RAV":13608,
"skle":13609,
"##školá":13610,
"Abs":13611,
"##znali":13612,
"prosadil":13613,
"01":13614,
"odtud":13615,
"##áni":13616,
"kem":13617,
"zabezpečení":13618,
"Clin":13619,
"Windows":13620,
"Wa":13621,
"##novi":13622,
"nepou":13623,
"středisko":13624,
"nedal":13625,
"Pau":13626,
"ohrom":13627,
"kariéře":13628,
"láka":13629,
"vadí":13630,
"láká":13631,
"Klause":13632,
"bezpečně":13633,
"186":13634,
"přijímá":13635,
"##něno":13636,
"mine":13637,
"levé":13638,
"Fal":13639,
"Trutnov":13640,
"prodejny":13641,
"přímé":13642,
"procház":13643,
"##řát":13644,
"SV":13645,
"Zástup":13646,
"##onem":13647,
"##vence":13648,
"kandidátů":13649,
"##chají":13650,
"nemohu":13651,
"zjištění":13652,
"Ul":13653,
"Právo":13654,
"přesah":13655,
"##udy":13656,
"smlouvě":13657,
"průzkum":13658,
"zazní":13659,
"BRNO":13660,
"##trá":13661,
"##pustí":13662,
"listopad":13663,
"uvede":13664,
"##ilomet":13665,
"##skl":13666,
"##zetí":13667,
"##aněk":13668,
"stanovisko":13669,
"působit":13670,
"sedmnácti":13671,
"přijmout":13672,
"režii":13673,
"##bírá":13674,
"zachránit":13675,
"vesnici":13676,
"Cesta":13677,
"šikov":13678,
"muziká":13679,
"Lázně":13680,
"neměly":13681,
"znalosti":13682,
"nejrůznějších":13683,
"komentoval":13684,
"dcery":13685,
"jistý":13686,
"Zřejmě":13687,
"časy":13688,
"rub":13689,
"nikde":13690,
"týkající":13691,
"léči":13692,
"devatenáct":13693,
"literární":13694,
"zaslouží":13695,
"příčinou":13696,
"techniku":13697,
"perspek":13698,
"##stání":13699,
"##nar":13700,
"William":13701,
"stejným":13702,
"UN":13703,
"tenkrát":13704,
"aplikace":13705,
"portré":13706,
"devadesát":13707,
"rozv":13708,
"Gar":13709,
"představu":13710,
"##lejí":13711,
"přinést":13712,
"Šu":13713,
"##tovost":13714,
"Cla":13715,
"##čina":13716,
"kompet":13717,
"vyzna":13718,
"##táž":13719,
"##atřicet":13720,
"čerpa":13721,
"pobočky":13722,
"mínění":13723,
"##keji":13724,
"##žnější":13725,
"tru":13726,
"##PS":13727,
"##ůjde":13728,
"hejtmana":13729,
"opustit":13730,
"pomáhat":13731,
"uplynulých":13732,
"Poslane":13733,
"UEFA":13734,
"Nejde":13735,
"republiku":13736,
"##aka":13737,
"samy":13738,
"ženou":13739,
"Celá":13740,
"##bl":13741,
"myslel":13742,
"##dý":13743,
"reformy":13744,
"bene":13745,
"##stika":13746,
"##náší":13747,
"Moto":13748,
"zbývá":13749,
"Českém":13750,
"zpěvačka":13751,
"folkl":13752,
"human":13753,
"otevřena":13754,
"DE":13755,
"duchovní":13756,
"##VAD":13757,
"tratí":13758,
"oznámila":13759,
"vad":13760,
"plaká":13761,
"Klatovy":13762,
"líto":13763,
"nemocnic":13764,
"Miss":13765,
"přijal":13766,
"nedokázali":13767,
"Toho":13768,
"##čině":13769,
"texty":13770,
"lese":13771,
"trenérem":13772,
"odpovědět":13773,
"187":13774,
"##MA":13775,
"##razilo":13776,
"POD":13777,
"Staro":13778,
"životem":13779,
"AT":13780,
"Pop":13781,
"nedokázal":13782,
"##tan":13783,
"Kroměříž":13784,
"nechybě":13785,
"písní":13786,
"##šík":13787,
"domnívá":13788,
"tvorbu":13789,
"kategoriích":13790,
"##čová":13791,
"různými":13792,
"dílem":13793,
"##šnou":13794,
"##inací":13795,
"opoziční":13796,
"##žbě":13797,
"náhrad":13798,
"Grand":13799,
"Akci":13800,
"Gru":13801,
"vydrží":13802,
"manaže":13803,
"policejního":13804,
"doporučení":13805,
"večerní":13806,
"##inem":13807,
"Jisk":13808,
"vypoví":13809,
"výrobní":13810,
"Jon":13811,
"##pri":13812,
"choro":13813,
"naším":13814,
"účtu":13815,
"metropoli":13816,
"oběti":13817,
"sprin":13818,
"trénovat":13819,
"kouče":13820,
"místy":13821,
"přicházejí":13822,
"lehké":13823,
"Radim":13824,
"##hnal":13825,
"těmto":13826,
"posléze":13827,
"##čist":13828,
"svobodu":13829,
"Příští":13830,
"šesté":13831,
"znamenat":13832,
"##líků":13833,
"tvaru":13834,
"Dis":13835,
"konto":13836,
"král":13837,
"smích":13838,
"vyspě":13839,
"elektrické":13840,
"rozhodnuto":13841,
"koupaliště":13842,
"##kojení":13843,
"počtem":13844,
"##rované":13845,
"moderátor":13846,
"promítá":13847,
"letišti":13848,
"##cená":13849,
"Republi":13850,
"Romana":13851,
"síla":13852,
"dnešním":13853,
"##ůvě":13854,
"brig":13855,
"nejob":13856,
"##bru":13857,
"tituly":13858,
"zvá":13859,
"vyslech":13860,
"účastníky":13861,
"Mü":13862,
"zlaté":13863,
"důvěru":13864,
"samosp":13865,
"strávil":13866,
"Číně":13867,
"Komerční":13868,
"Baro":13869,
"digitální":13870,
"generálního":13871,
"Šár":13872,
"plnou":13873,
"##stán":13874,
"likvidaci":13875,
"Paroubek":13876,
"odpůr":13877,
"nějakým":13878,
"neviděl":13879,
"věděli":13880,
"Situace":13881,
"běže":13882,
"hráčem":13883,
"neboli":13884,
"snahu":13885,
"dokázala":13886,
"uživatel":13887,
"vyrost":13888,
"Litomy":13889,
"filozof":13890,
"dneska":13891,
"obřad":13892,
"flor":13893,
"Veselí":13894,
"pohybují":13895,
"zamil":13896,
"snadné":13897,
"skupinou":13898,
"##vedli":13899,
"##haly":13900,
"šach":13901,
"##tečnou":13902,
"věřit":13903,
"plát":13904,
"promít":13905,
"sociálního":13906,
"zimu":13907,
"Městského":13908,
"Marián":13909,
"čoko":13910,
"Dodal":13911,
"linku":13912,
"##jské":13913,
"automobilu":13914,
"Lubomír":13915,
"Milana":13916,
"ovlivnit":13917,
"odcizil":13918,
"##áb":13919,
"hodí":13920,
"Res":13921,
"délce":13922,
"sum":13923,
"##lišti":13924,
"Vlad":13925,
"Něco":13926,
"nečekaně":13927,
"pravic":13928,
"Ačkoli":13929,
"##hrozí":13930,
"třetina":13931,
"obří":13932,
"vypořád":13933,
"Ostatně":13934,
"mob":13935,
"Majitel":13936,
"MAR":13937,
"zazpí":13938,
"armád":13939,
"##allye":13940,
"sběra":13941,
"víte":13942,
"CZ":13943,
"provést":13944,
"poslane":13945,
"##hající":13946,
"Diváci":13947,
"volit":13948,
"lat":13949,
"Alexan":13950,
"zásahu":13951,
"##kládání":13952,
"Rumun":13953,
"muzikan":13954,
"telefonní":13955,
"##ládání":13956,
"Šlo":13957,
"ord":13958,
"zajistí":13959,
"zakázky":13960,
"nepoved":13961,
"existenci":13962,
"uvažuje":13963,
"ploše":13964,
"umělců":13965,
"##stice":13966,
"##mové":13967,
"herní":13968,
"##žební":13969,
"občerstvení":13970,
"Hokeji":13971,
"Lze":13972,
"záv":13973,
"detail":13974,
"##ovává":13975,
"vybrali":13976,
"##nesla":13977,
"prosaz":13978,
"##boo":13979,
"Štef":13980,
"vzniklo":13981,
"zvládnout":13982,
"dobro":13983,
"učili":13984,
"##dex":13985,
"cé":13986,
"##chra":13987,
"zlepšit":13988,
"úrovně":13989,
"##ters":13990,
"ind":13991,
"##ňovali":13992,
"jesky":13993,
"inte":13994,
"osmé":13995,
"Zub":13996,
"slíbil":13997,
"Klo":13998,
"Alo":13999,
"##entální":14000,
"##što":14001,
"Hrade":14002,
"vyřaz":14003,
"polé":14004,
"##děk":14005,
"##kom":14006,
"##plývá":14007,
"As":14008,
"vyloučení":14009,
"Mnozí":14010,
"rodinného":14011,
"##NÝ":14012,
"připraveni":14013,
"Zájemci":14014,
"##entně":14015,
"gen":14016,
"##wn":14017,
"stejná":14018,
"##ovkou":14019,
"mů":14020,
"Škody":14021,
"smu":14022,
"jub":14023,
[...]
