[PAD]
[UNK]
[CLS]
[SEP]
[MASK]
!
"
#
$
%
&
'
(
)
*
+
,
-
.
/
0
1
2
3
4
5
6
7
8
9
:
;
<
=
>
?
@
A
B
C
D
E
F
G
H
I
J
K
L
M
N
O
P
Q
R
S
T
U
V
W
X
Y
Z
[
\
]
^
_
`
a
b
c
d
e
f
g
h
i
j
k
l
m
n
o
p
q
r
s
t
u
v
w
x
y
z
{
|
}
~
¡
¢
£
¤
¥
¦
§
¨
©
ª
«
¬
®
¯
°
±
²
³
´
µ
·
¸
¹
º
»
¼
½
¾
¿
À
Á
Â
Ä
Å
Æ
Ç
È
É
Ê
Ë
Ì
Í
Î
Ï
Ð
Ñ
Ò
Ó
Ô
Õ
Ö
×
Ø
Ú
Ü
Ý
Þ
ß
à
á
â
ã
ä
å
æ
ç
è
é
ê
ë
ì
í
î
ï
ð
ñ
ò
ó
ô
õ
ö
÷
ø
ù
ú
û
ü
ý
þ
ÿ
Ā
ā
Ă
ă
Ą
ą
Ć
ć
Č
č
Ď
ď
Đ
đ
ē
ĕ
ė
Ę
ę
Ě
ě
ğ
ġ
ģ
ħ
ī
į
İ
ı
Ķ
ķ
Ĺ
ĺ
ļ
Ľ
ľ
Ł
ł
Ń
ń
ņ
Ň
ň
ŋ
Ō
ō
ŏ
Ő
ő
Œ
œ
Ŕ
ŕ
Ř
ř
Ś
ś
Ş
ş
Š
š
Ţ
ţ
Ť
ť
ũ
Ū
ū
ŭ
Ů
ů
Ű
ű
ų
ŷ
Ź
ź
Ż
ż
Ž
ž
ſ
Ə
ƒ
ơ
ư
ǎ
ǐ
ǒ
ǔ
ǝ
ǫ
Ș
ș
Ț
ț
ɐ
ɑ
ɔ
ə
ɛ
ɡ
ɣ
ɪ
ɲ
ɾ
ʁ
ʃ
ʊ
ʒ
ʰ
ʲ
ʹ
ʻ
ʼ
ʾ
ʿ
ˆ
ˇ
ˈ
ˌ
ː
˘
˙
˛
˝
́
̃
̆
̥
̮
̯
̶
͡
Ά
Α
Β
Γ
Δ
Ε
Η
Θ
Ι
Κ
Λ
Μ
Ν
Ξ
Ο
Π
Ρ
Σ
Τ
Υ
Φ
Χ
Ω
ά
έ
ή
ί
α
β
γ
δ
ε
ζ
η
θ
ι
κ
λ
μ
ν
ξ
ο
π
ρ
ς
σ
τ
υ
φ
χ
ψ
ω
ό
ύ
ώ
І
Ј
А
Б
В
Г
Д
Е
Ж
З
И
Й
К
Л
М
Н
О
П
Р
С
Т
У
Ф
Х
Ц
Ч
Ш
Щ
Ъ
Э
Ю
Я
а
б
в
г
д
е
ж
з
и
й
к
л
м
н
о
п
р
с
т
у
ф
х
ц
ч
ш
щ
ъ
ы
ь
э
ю
я
ё
ђ
є
і
ї
ј
љ
њ
ћ
ў
џ
ѣ
ѧ
ѹ
҃
ғ
Қ
қ
ҧ
ҭ
ү
ҳ
ә
ө
Ա
Հ
ա
գ
ե
ի
լ
կ
մ
յ
ն
ո
ս
վ
տ
ր
ւ
ք
ְ
ֲ
ִ
ֵ
ֶ
ַ
ָ
ֹ
ֻ
ּ
ׁ
ׂ
א
ב
ג
ד
ה
ו
ז
ח
ט
י
ך
כ
ל
ם
מ
ן
נ
ס
ע
ף
פ
ץ
צ
ק
ר
ש
ת
״
ء
أ
إ
ئ
ا
ب
ة
ت
ث
ج
ح
خ
د
ذ
ر
ز
س
ش
ص
ض
ط
ظ
ع
غ
ف
ق
ك
ل
م
ن
ه
و
ى
ي
َ
ُ
ِ
ّ
ْ
پ
چ
ک
گ
ہ
ی
ܐ
ܝ
ं
ः
अ
आ
क
ग
च
ज
ट
ड
ण
त
थ
द
ध
न
प
ब
भ
म
य
र
ल
व
श
ष
स
ह
ा
ि
ी
ु
ू
े
ो
्
।
॥
া
ি
ா
்
ు
್
ง
น
พ
ม
ร
ล
า
ิ
เ
་
ཁ
ག
ང
ཆ
ད
ན
བ
མ
འ
ར
ལ
ས
ི
ུ
ེ
ོ
ྱ
ု
်
ა
ბ
გ
დ
ე
ვ
ზ
თ
ი
კ
ლ
მ
ნ
ო
რ
ს
ტ
უ
ფ
ქ
შ
ჩ
ც
ძ
ხ
ჯ
ត
រ
ា
្
ḍ
Ḥ
ḥ
ṃ
ṇ
ṛ
ṣ
ṭ
ạ
ả
ấ
ầ
ắ
ế
ễ
ệ
ị
ố
ồ
ộ
ờ
ợ
ụ
ủ
ứ
ữ
ἀ
ἄ
Ἀ
ἐ
ἰ
Ἰ
ὁ
ὐ
ὶ
ὸ
ῆ
ῖ
ῦ
ῶ
‐
‑
‒
–
—
―
‘
’
‚
‛
“
”
„
‟
†
‡
•
…
‧
‰
′
″
‹
›
€
ℓ
№
™
⅓
⅔
←
↑
→
↓
↔
⇒
∀
∆
∈
−
∙
√
∞
∪
≈
≠
≡
≤
≥
⋅
⋌
─
│
└
├
█
■
▪
►
●
◘
☉
☼
♀
♂
♠
♣
♥
♦
♭
♯
あ
い
う
お
き
く
さ
し
た
と
な
の
ま
み
ら
り
る
ん
ァ
ア
ィ
イ
ウ
エ
オ
カ
ガ
キ
ギ
ク
グ
ケ
ゲ
コ
ゴ
サ
シ
ジ
ス
ズ
セ
タ
ダ
チ
ッ
ツ
テ
デ
ト
ド
ナ
ニ
ネ
ノ
ハ
バ
パ
ビ
ピ
フ
ブ
プ
ボ
ポ
マ
ミ
ム
メ
モ
ャ
ヤ
ュ
ョ
ラ
リ
ル
レ
ロ
ワ
ン
・
ー
一
七
三
上
下
东
中
之
九
二
五
井
京
人
代
会
佐
信
元
光
八
公
兵
動
北
十
南
原
古
台
合
吉
和
四
国
國
地
型
城
大
天
太
女
子
学
安
宗
宮
家
寺
将
小
少
山
島
川
州
市
帝
平
式
成
戦
手
政
文
新
方
日
明
春
時
書
朝
木
本
李
東
林
株
機
正
武
民
水
江
河
治
法
流
海
漢
無
王
生
田
町
画
白
皇
直
省
真
石
社
神
空
立
第
等
自
航
艦
花
茶
華
行
西
語
軍
逐
道
郎
部
里
野
金
長
院
隊
風
飛
駆
高
龍
한
ﬁ
￼
##a
##f
##i
##á
##n
##c
##ů
##e
##l
##o
##v
##t
##é
##u
##s
##z
##š
##k
##j
##h
##ř
##í
##d
##y
##O
##X
##ý
##×
##p
##U
##P
##Ř
##E
##N
##Í
##C
##H
##S
##V
##1
##0
##2
##4
##5
##m
##r
##w
##g
##b
##ľ
##Ý
##Š
##K
##A
##É
##M
##8
##9
##6
##Q
##I
##T
##ž
##ď
##ě
##č
##W
##B
##Z
##Ě
##R
##D
##ó
##L
##ö
##Č
##ü
##´
##7
##ô
##ť
##ć
##ä
##F
##3
##J
##x
##ú
##ň
##Á
##Ž
##q
##ñ
##G
##Y
##е
##л
##о
##д
##и
##ћ
##Ť
##Ú
##Ů
##ń
##ʃ
##ą
##α
##β
##ά
##λ
##ς
##õ
##ł
##ç
##ğ
##ו
##ב
##י
##ד
##Đ
##р
##у
##т
##с
##я
##Ì
##Ď
##®
##ă
##Ç
##ר
##ע
##א
##ן
##°
##ê
##ì
##ø
##ß
##ī
##ə
##й
##к
##バ
##ッ
##ト
##â
##Ð
##ا
##ج
##و
##ر
##а
##н
##г
##ę
##ė
##Ô
##ח
##市
##щ
##х
##œ
##ś
##Ň
##¯
##ы
##Ó
##ë
##צ
##à
##ű
##ˇ
##¨
##之
##è
##ρ
##ί
##Ü
##в
##́
##ő
##ã
##ε
##ο
##π
##Ö
##ン
##パ
##ῖ
##ν
##ֹ
##ז
##ֶ
##ה
##מ
##Ä
##ĺ
##™
##פ
##ם
##ː
##ु
##ल
##ù
##ж
##Ĺ
##Ś
##Æ
##À
##˙
##п
##і
##К
##ه
##ت
##Ą
##А
##Г
##Р
##Д
##ż
##Ľ
##˝
##б
##ǎ
##Â
##Ę
##ラ
##テ
##ィ
##ナ
##τ
##σ
##κ
##η
##ō
##ή
##ş
##ю
##з
##ь
##ē
##ц
##Ţ
##м
##€
##Þ
##ŕ
##ū
##ā
##ώ
##ṣ
##ṭ
##ְ
##ש
##ָ
##ׁ
##ִ
##州
##ˆ
##đ
##Ć
##γ
##Ź
##ò
##王
##Ê
##ų
##Ă
##ɪ
##ب
##ی
##国
##נ
##ف
##ن
##ม
##น
##ो
##श
##ि
##ч
##ל
##ъ
##ṛ
##ı
##ɑ
##ŋ
##ク
##リ
##ї
##ð
##ת
##ش
##ک
##西
##შ
##ა
##ფ
##ი
##ш
##ё
##э
##υ
##μ
##ï
##ּ
##ק
##ַ
##ե
##ն
##ր
##ա
##լ
##ﬁ
##±
##ź
##画
##家
##ス
##タ
##ー
##ṃ
##µ
##ג
##ө
##ә
##ơ
##เ
##พ
##ร
##า
##ง
##ิ
##å
##ט
##茶
##ф
##æ
##ˈ
##ǫ
##ό
##ι
##ل
##ح
##د
##ي
##ة
##さ
##し
##山
##ق
##Ł
##ј
##÷
##ŭ
##ֵ
##њ
##ா
##்
##Т
##Ń
##ס
##民
##û
##ع
##Л
##ệ
##Ò
##大
##型
##人
##م
##س
##ビ
##ゴ
##خ
##ض
##ļ
##ầ
##ར
##皇
##ω
##井
##î
##ξ
##χ
##ņ
##έ
##Ŕ
##್
##ף
##С
##Е
##Х
##ץ
##ύ
##五
##Ø
##Э
##ţ
##ѣ
##♭
##þ
##თ
##ნ
##ო
##ვ
##東
##ŏ
##ķ
##ह
##न
##ा
##き
##み
##џ
##ケ
##モ
##რ
##ე
##ბ
##女
##学
##海
##ζ
##È
##寺
##˘
##ģ
##文
##М
##φ
##θ
##δ
##ʊ
##ʒ
##დ
##უ
##國
##ђ
##љ
##帝
##ș
##−
##द
##्
##भ
##य
##ं
##ხ
##行
##政
##本
##法
##ʲ
##ɛ
##پ
##フ
##े
##स
##ذ
##七
##式
##機
##©
##̥
##安
##神
##宮
##地
##ზ
##う
##र
##ण
##व
##ज
##त
##Ñ
##ط
##გ
##ძ
##ি
##¸
##木
##城
##ी
##下
##吉
##郎
##Ъ
##Ц
##ɔ
##ῆ
##̃
##ʁ
##َ
##ズ
##ロ
##ウ
##ῶ
##כ
##無
##ك
##ى
##ҧ
##ҭ
##成
##南
##省
##Ő
##Τ
##ʹ
##ḥ
##བ
##گ
##春
##シ
##マ
##イ
##書
##Ï
##ế
##ʰ
##ḍ
##部
##Î
##日
##武
##会
##ܐ
##प
##ニ
##メ
##ɾ
##サ
##ǔ
##動
##Ν
##Λ
##Α
##ノ
##コ
##Å
##Н
##語
##ლ
##ん
##ز
##қ
##ғ
##ț
##Ε
##江
##Ë
##グ
##ヤ
##ट
##ら
##म
##ガ
##Ο
##≥
##У
##И
##華
##い
##の
##Ű
##ア
##カ
##合
##ル
##Ż
##В
##О
##Б
##Ж
##生
##プ
##り
##チ
##公
##ས
##ན
##ს
##ტ
##道
##ך
##島
##П
##ʻ
##ド
##レ
##კ
##მ
##ħ
##ị
##天
##く
##ʼ
##ֻ
##є
##ミ
##ャ
##͡
##З
##ք
##ս
##្
##រ
##ǒ
##ड
##方
##デ
##ョ
##里
##ء
##غ
##ү
##ポ
##ツ
##飛
##ĕ
##ắ
##た
##少
##į
##ُ
##ِ
##ّ
##河
##ْ
##京
##正
##子
##Γ
##Ω
##社
##セ
##̯
##朝
##一
##ǐ
##ང
##ქ
##ც
##林
##ׂ
##ʿ
##→
##¤
##ֲ
##ム
##º
##ư
##ब
##ạ
##十
##九
##한
##手
##ո
##ի
##花
##Ρ
##Ι
##Σ
##明
##白
##兵
##Δ
##Κ
##ў
##¦
##ÿ
##ṇ
##҃
##ѹ
##長
##ग
##ボ
##أ
##ψ
##ἰ
##ả
##る
##軍
##ὸ
##川
##流
##二
##ئ
##ѧ
##野
##自
##Ф
##ấ
##ピ
##ू
##̮
##ظ
##ʾ
##古
##ា
##ត
##ュ
##Ш
##上
##将
##थ
##ི
##ག
##क
##ོ
##յ
##Ş
##ġ
##̆
##ộ
##ष
##ः
##北
##ུ
##ལ
##ҳ
##八
##艦
##隊
##治
##和
##三
##ˌ
##ܝ
##ု
##်
##ص
##ւ
##ɐ
##Υ
##ہ
##ố
##龍
##ª
##ǝ
##ồ
##●
##आ
##高
##原
##ὐ
##真
##˛
##田
##ད
##ེ
##オ
##إ
##ハ
##戦
##ſ
##া
##代
##Ч
##ɡ
##ァ
##ễ
##կ
##Ю
##ジ
##四
##⋅
##ὶ
##ま
##時
##平
##ダ
##風
##町
##ờ
##石
##エ
##水
##ध
##航
##空
##な
##太
##ネ
##ῦ
##ブ
##£
##Η
##ギ
##վ
##տ
##キ
##ợ
##چ
##ἀ
##Щ
##ũ
##ŷ
##Я
##信
##च
##立
##ث
##Й
##漢
##新
##գ
##と
##∙
##ứ
##李
##ụ
##光
##宗
##¹
##お
##等
##駆
##逐
##あ
##Π
##ჩ
##直
##Μ
##ゲ
##小
##中
##ཁ
##院
##ล
##մ
##İ
##株
##ủ
##Φ
##ƒ
##Χ
##Θ
##ჯ
##元
##½
##ྱ
##台
##ἐ
##ు
##І
##Β
##≤
##佐
##─
##∞
##金
##ワ
##∆
##♯
##ɣ
##Ξ
##ɲ
##∀
##¼
##√
##Հ
##ữ
##↓
##མ
##²
##¾
##ཆ
##≡
##东
##འ
##Ā
##Ō
##Ј
##³
##Ș
##≈
##¬
##st
##ní
##ov
##ch
##ou
##en
##la
##ra
##le
po
##ro
##li
na
##te
se
ne
##ře
##ho
##ce
##sk
je
##in
do
##em
##ak
##al
##an
##ně
##rá
##at
pro
##ni
##or
##od
##ři
##ří
##on
st
##de
za
##ci
##lo
##ku
##ti
##jí
##ka
##no
vy
##er
to
##je
##it
##ky
##ad
##ar
##ých
by
##to
##ší
##el
pře
##il
##né
##av
ro
##cí
##po
kte
##tě
##na
##et
že
##vě
##va
##ed
##ck
ob
##mi
##ek
od
##ého
##ru
##lu
##ko
zá
js
##ová
##mě
##ná
##dy
ve
##lá
##me
ná
##sti
##mu
##ob
pod
při
##ze
##dě
kter
tak
vý
##že
pr
##vo
mě
##ví
##ez
##by
##vá
##ji
##ské
##tu
si
##ové
##as
##es
##ká
##tí
pří
##ta
ně
##id
##ým
ko
jak
ale
##lí
##ním
##ud
před
##ál
##mo
mo
##rav
##še
##ova
##ly
##ist
jed
##is
##nu
roz
##led
##lad
##tel
sv
##čí
##nou
ch
##át
nej
##ční
##bo
##uje
Po
sou
mu
##lav
##ště
##ent
##ny
##ád
##am
##ný
##ím
##ém
kon
##hod
##ri
##kon
##ne
##ili
##up
mí
##ty
##stav
##če
##ních
##lov
##ali
##ude
##mí
##ovat
sp
##nost
##est
vě
spo
##du
##rov
##ma
##oru
##vní
##ží
re
ho
##do
##ků
##bu
ni
##pad
##má
in
ji
##da
te
jsem
le
jako
už
Na
##lou
má
##pe
##pě
##dá
##kov
kdy
##ují
##ick
který
##bě
##sto
##prav
##ba
##ran
ví
##jší
##oval
##zi
ma
které
##ský
##sí
##sta
##kou
##ního
ka
##stup
tr
jsou
Ne
bude
vz
##vět
##ec
##vr
##inu
hod
jen
##ry
dě
##00
##tá
##vy
##klad
jsme
##ského
##se
##či
##ené
##bí
vš
co
##ve
##di
nebo
ze
##vod
##ol
##sled
os
##ování
##nosti
##jem
##hu
prá
pra
##alší
##řed
##ům
##ných
##cích
Če
jeho
lid
##pu
19
byl
##zí
bud
Je
##men
vel
##ově
##ter
##rát
let
také
##om
##ste
tu
##si
tě
##stí
##ruh
##lem
##za
##val
##ská
bý
až
Pro
##re
##ství
##ot
poli
##žit
##kem
další
##ena
cel
##ži
aby
##my
##dí
ří
##ských
pot
##ovan
##vi
##ina
##op
če
##sku
##hra
##lé
##ový
##ha
moh
vše
To
##oz
##chá
##leč
di
která
pů
##cké
##iny
však
##ovi
##ám
##alo
##rů
##ného
##tek
##zna
##sa
##koli
nep
tře
St
mi
než
nap
##raz
##hy
##ie
bez
##iná
##ůže
##řej
##ir
když
de
ži
druh
proto
##há
##stě
##len
##ši
Do
koru
##ved
au
pou
##ezi
##ct
ještě
pa
##lat
Pra
li
##ální
podle
##nice
##chod
bylo
##pr
Pod
##kt
byla
dob
jin
zp
##čas
##sob
##oup
##sko
korun
té
ak
##gra
##spě
##bor
##čně
přes
poz
nad
##jich
ani
stá
##itu
##vat
##ových
Mi
společ
mili
##tní
zd
##nes
##hrá
ško
být
##ič
##ení
své
řek
minu
##sp
##ala
vla
budou
##stat
dů
zač
##ys
Ji
první
něk
všech
stra
tý
##rod
##ená
##zení
bo
kra
##zd
##ub
tom
kde
##ček
##nější
pak
##let
vys
rozhod
hlav
##ští
##itel
mož
zem
dí
jedno
roku
##mé
pě
200
či
ku
jejich
##aro
ten
op
##ké
Za
##nit
něj
sk
##for
Mar
roce
dva
##ana
##eno
lé
##jící
čá
není
vá
##tom
##ani
##um
rad
mezi
##kra
Mo
##čit
toho
vo
##žd
##un
sku
hrá
tři
##tej
kteří
##stní
záp
##ovou
##isí
##ců
##ším
může
##sté
##kud
Jak
dost
##vu
hra
##ového
stav
ex
##řad
##dr
##tem
##ár
stře
prost
Ve
##ený
pos
Ch
již
sa
##hled
##pl
tím
##ovali
##eny
##vé
##án
##ska
nez
ty
##lan
min
svě
vět
##chu
##eně
20
##nout
##pa
živo
dv
##ině
jí
Ko
##co
lo
##chy
čt
##im
##vý
##ným
##rg
##ab
nás
proti
##vro
rod
sy
des
##ech
případ
tisí
zápas
##ková
čer
##eme
##ském
několi
##lní
pat
##ovala
čty
mno
zí
par
##lep
##ion
pov
##ych
sto
prac
##bli
uved
##atím
##vali
nemo
její
posled
##sá
kom
##cký
##ej
##kr
##hem
ta
##lém
tra
představ
neb
##tra
##tech
##hla
řekl
##čka
##ur
leto
##fi
##řád
##cky
ru
tam
prav
fir
##aly
více
##ovní
mají
##cha
Zá
##rob
##skou
dá
##stá
##ané
ní
měl
##ující
##čet
##čil
##ření
čas
##lení
##sky
##žení
stát
žád
##říklad
##log
##tor
##tiž
##tká
proje
##vají
každ
totiž
Ale
##edy
hodin
##us
Kdy
pla
prob
##slav
slu
##ati
##kaz
prů
Bo
Nej
Ně
bě
##šení
##ber
##ické
Při
domá
##rně
Vy
##kla
##ver
konce
cest
##čení
##tiv
stej
sil
##ném
##luv
vi
ře
so
##ča
Ma
polici
##děl
tomu
chy
místo
##vrop
##nov
##měst
musí
##nil
##lád
no
ke
spolu
Li
Podle
Pře
##vů
star
soutě
bych
dvě
protože
##hlá
ved
##čera
př
##ilo
##ležit
Ka
##sed
vod
##pra
nich
klu
nám
nabí
tisíc
##tr
##bra
sob
##ník
Od
##ut
##čky
obje
##žel
osob
##az
Tak
##děli
vů
Pet
##and
##nění
##stoup
ur
Ho
##chni
##ených
##těz
zna
infor
##enta
sm
asi
##šť
an
##kové
##roz
##ými
##ily
##čer
prov
##cent
##ing
dlou
##rch
##tele
##ort
##ila
##sou
##ckého
##mer
##ady
politi
##ory
Jan
neby
##ner
nedo
dom
ov
pop
bod
lidí
##bal
##ene
týd
##ůsob
By
stud
milion
sí
tedy
velmi
##nici
##mín
##tkání
##nám
##káz
##su
například
Kar
15
##emi
změ
fin
vyš
seb
##ností
mal
třeba
##teč
##měř
fot
Mě
##ost
den
10
##hl
dnes
Vý
Ná
##liv
##ale
tří
sch
##ul
muž
sed
##ís
##nání
čtvr
##man
##nika
##lož
problém
##ori
pomo
dvou
skup
jim
Jed
##van
##kod
tele
##yní
několik
mlad
Když
cí
říká
##ždy
minist
Te
##ven
připrav
##nutí
potře
##pí
kam
##šem
##ckých
nějak
30
##ůj
samo
##eni
18
##šel
mohou
nech
An
podob
byly
##mou
zahra
dne
##publi
Br
##stra
krá
##řejmě
mod
zatím
města
sez
řed
Vá
bran
##dal
domácí
nic
##eb
včera
pouze
##pět
ote
Ob
pl
vol
##ání
##ag
svět
##zor
rů
met
##lici
mít
##zem
ti
fil
##inou
##rom
měsí
dokon
##dení
prostřed
##rán
kraj
kole
chtě
nes
součas
čtyři
odp
##roj
##ard
##ráv
plá
Jo
##til
##RA
199
##las
org
##jde
##nik
##rou
závod
jeden
době
rych
##ane
progra
získ
rok
zdra
nov
nik
lidé
##té
##rost
##bi
náv
In
vyu
republi
##lově
přede
mluv
pá
Sp
Pr
způsob
rek
##lik
šp
##jeme
##vůli
##cet
17
##del
##itua
##rt
měst
řad
Ten
##tit
cen
finan
Hra
pořád
nové
Le
tým
##pla
kli
neu
obchod
##vad
Co
trené
kterou
##des
Lu
##sil
fun
staro
letech
##rat
tvr
##cká
cent
Jiří
##ký
##ceti
##ato
Fran
uvedl
nevy
##kách
##vid
gó
##řit
12
##rem
nepo
##esti
nemoc
##lez
veřej
##nad
práce
Pokud
##lý
##hle
vlá
oprav
##sad
##álně
##pi
této
##enou
stále
utkání
někter
##áz
právě
pět
zde
##lice
ode
##dek
těch
situa
sna
výstav
##ance
##čních
část
něco
##víc
##vání
měli
České
##ovo
##vším
informa
postup
jste
uz
vlast
prv
Pav
Ví
větš
zů
##ga
což
prez
##sy
Ro
##emo
##krát
tento
kou
chce
##kovi
skon
základ
##gy
##bav
vítěz
##pis
kap
měla
zak
led
umě
##met
##liš
nyní
##ským
##eti
druhé
děti
##čan
##nat
zákon
##anou
vyso
poslední
člen
##ktu
00
##šek
##ráž
Před
Pří
úřad
zv
##jed
kont
úspě
##šní
##stru
byli
##čku
##kce
reg
oko
##romě
##tů
mist
šest
##hlí
##nů
##bec
kvali
##děla
##spo
ča
##mys
##cti
země
##vis
##ách
mus
##OV
kvůli
čin
##ctví
komu
##zu
##desát
##telé
##loven
##ke
míst
##ari
rád
##bní
především
všechny
tur
půl
kolem
výkon
##rál
kri
##městn
16
##ned
##he
##ůž
postav
procent
##ovém
provoz
##větší
Pl
sta
##jím
tro
du
hist
##hou
uni
##zku
##lit
svého
##zeň
##hov
##eč
for
oby
##zy
vlastní
##žil
kni
##ák
##řilo
##ované
##peč
doprav
společnosti
vždy
dobře
mluvčí
##řil
##letí
letos
ředitel
otev
pož
up
##stva
Evrop
úto
určit
##chází
vyt
dr
##yslí
##átku
##bý
##čin
Kč
##voj
Mu
Ni
##šlo
##ata
##ář
##sla
##otu
##aně
11
těž
Praha
Pa
14
trest
##oví
Re
nem
obla
##cela
kul
svou
##lil
třetí
##losti
##lepší
##dět
##lekt
##oto
případě
##kro
moc
hodno
Vě
život
list
dál
soud
##tivní
Sou
vyp
##níků
##teri
##sah
vysvět
auto
návště
mé
##gen
##sem
##šit
##věd
ci
Par
organi
dobr
##sty
něm
##ději
ček
ban
soci
lí
##rní
##znam
##krač
člově
kr
201
nemá
sice
##rodní
Mart
##enci
##eň
jednot
Petr
##kono
##lek
zku
##jít
začí
##tře
nejen
##dil
vůbec
##eníze
podí
##šti
chod
##ment
teď
##hru
##yk
sr
##dob
13
Bu
počí
##aví
nabíd
býval
##ický
##stře
##pozi
dalších
##zace
##žně
opět
smě
odbor
##var
##oda
##aná
připo
##nem
##ence
hled
##oucí
zda
och
my
Jaro
mimo
man
prezid
poč
neza
##ava
rov
kdo
##ST
hodně
##ška
zájem
voz
sport
Roz
růz
téměř
násled
kultu
##opak
svých
dos
##lon
zra
Jen
navíc
##níci
##bali
##teg
##ev
fotbal
elekt
##ér
spe
úča
##au
##nými
roční
nemě
části
soupe
patří
poku
##vyš
##odu
##ity
zdravo
##cho
al
##race
##per
hor
osm
##stvo
Vel
##ckou
vrá
##ovy
So
dop
va
školy
Kon
milionů
Rad
##ména
svůj
##én
##dou
sobotu
her
inter
sedm
peníze
##nal
služ
prode
stejně
otá
##čá
zahrani
dra
##slu
já
komp
##šet
Ta
Spo
##sle
každý
##álu
##hat
##cem
##éf
##ig
naše
##lých
výsled
Prá
br
příští
##onu
zvý
jist
##stu
##zv
##stů
hlavně
výro
##boru
boj
světa
největší
##ken
víc
akci
pokud
dokonce
##nictví
##dech
ovšem
jde
Se
nejlepší
jiné
##les
##tal
závě
##cháze
ČS
pokrač
##čního
chví
rá
##kres
##roveň
techni
##ňuje
škol
##cení
větší
během
obyva
##bou
ostat
##ia
##št
policie
polov
##py
televi
##ovým
amer
obě
hráč
##ely
Má
##mat
takže
léka
podp
vás
##byt
spí
##nic
Dě
##kci
##lů
působ
trenér
snad
Tře
firmy
nakon
##žší
Al
řid
##drž
Ba
nakonec
sebe
vedení
##kům
bře
OD
potvr
##novu
jas
místě
##tečně
da
##lín
##lin
Praze
Di
pi
##ap
čtvrt
##nila
##prez
##osti
Jose
##ít
##znamen
praž
jedin
bar
on
zase
##olog
důvod
zaměstn
muse
občan
Vác
##řů
Já
##stém
vám
##čila
##teli
strany
##ony
tradi
##zni
lze
hosp
pan
foto
mohl
ČR
##ín
film
zaji
##lomou
výrob
##dělá
##měr
zná
##dní
##obil
dis
##náct
ps
speci
dru
zastup
slav
tohoto
##letý
sní
původ
##lost
##koj
##ond
##poč
25
lá
##plně
lep
Josef
US
polo
##min
pracovní
květ
##pení
##hruba
##zní
##inále
##prve
často
##hdy
##kal
práci
##cen
slov
voj
tady
Už
hlas
med
##dit
podmín
možné
střed
##ovaly
##gi
##řízení
umí
několika
##zřejmě
##hro
zi
##ických
##hli
##jní
##art
##vky
vstup
celé
obdob
naši
##lech
##konomi
##klá
##stech
město
červ
svým
těchto
soutěže
šéf
jej
deset
##ovice
Ku
##žní
autom
##NÍ
Sa
dět
zji
Tomá
Kra
at
nebude
Něme
ulici
fak
##graf
Proto
##prá
ry
výraz
##gu
smlou
velké
##jení
##hrál
poji
produ
##her
Ru
potřeb
##ovalo
večer
##anci
Ty
##jímav
hned
Čer
##sal
akce
##stal
žen
##žen
##fer
program
loň
roky
##lán
##poled
##cím
##šla
koup
zkuš
spoj
##mír
týmu
prof
##koho
tomto
příliš
##štění
##ovatel
##běh
české
bi
##jet
prý
##voji
divad
reprez
##ického
systém
divá
dodal
##ron
Ti
##prvé
přitom
velk
díky
##šli
všechno
dov
poda
##řel
mez
##bs
ekonomi
Martin
využí
##den
gene
##vest
škod
ter
později
blí
zhruba
čtyř
zví
Pavel
doma
##net
oz
Jeho
Další
pode
##vyk
ost
podni
su
Vo
##padu
##spoň
pěti
##ává
per
tep
##stli
pár
zástup
Au
ODS
##SK
##jte
##šky
možnost
##teř
##říve
##mp
znovu
##hlé
stří
důležit
##děj
##stou
##kami
týden
sám
pořad
##kam
gól
víken
##dce
##městí
kar
návr
hlavní
21
něme
##ER
pohy
##kva
Cel
##cház
pora
##pod
použí
##ant
klubu
Liber
peně
kontro
pova
minister
##odě
##něž
maji
evrop
století
vzta
pozi
prostředí
Op
premi
##čním
Lo
září
pohled
přímo
##rum
##díl
##dává
##hor
rám
špat
region
předsed
dota
odpově
vál
náro
##ován
titu
ba
##ích
##čné
jednou
stan
##klady
zt
vytvo
pri
sam
Du
##lova
zej
jedna
##vala
Lid
##kur
lepší
zejména
##dění
##ge
hři
trochu
turna
zcela
kilo
jedn
máme
##líb
lety
##žuje
##ruš
schop
První
##dat
pom
##cou
histor
pís
vypad
##rie
##LA
##yslím
dopl
##der
##ická
dětí
obec
chvíli
##mít
nav
vši
Ber
nikdy
Zatím
##zemí
počet
##zá
celý
##HA
##stala
zřejmě
##zra
##skyt
##prac
##jíž
dlouho
mohli
Něk
##kup
všichni
vítězství
znamen
##ovaný
##řá
nový
##átor
vole
##čen
čís
prvním
##vil
zastupitel
##lová
##kti
##ice
##vit
nev
dobu
Mí
vyj
##čili
základní
##rý
##ince
opravdu
##dra
nedá
##álních
minut
poh
hrát
žá
ar
##jezd
pros
společnost
##any
##ají
bychom
Slav
nut
republiky
prohlá
sko
##ovací
##ovky
vyz
##stit
##atel
obra
manžel
přij
klub
##hnout
kro
mistrov
náměstí
mám
##ara
vznik
Amer
sva
uzav
Olomou
##iče
zahá
správ
ce
Tr
dostal
##iči
vra
stě
svém
##čem
stojí
##kají
poch
Bě
##estival
rámci
vých
##koliv
##méně
##kej
vyrov
možná
##stil
znám
zab
čeká
##eta
Vi
abs
nejsou
has
##IN
poté
##kově
tvrdí
pon
nikdo
ním
pam
komi
##cit
Bar
posledních
věci
Plzeň
##ckém
deseti
##ii
##ym
zapo
oblasti
50
##lal
skuteč
##adva
mělo
doby
##sně
##pozor
člověk
otáz
okres
##sek
##emokra
autor
Sta
význam
##teční
jež
krát
##EN
úda
Dob
##ško
obraz
##onstru
sebou
##stro
červen
##nému
loni
##poledne
plo
sc
jednání
##hů
odh
vedoucí
profes
##dělí
##entů
##ito
poprvé
##dru
of
situace
zvlá
ope
zap
sně
někdo
##zuje
tuto
##lání
kateg
##ita
Hav
mat
##orii
Václav
##ujeme
období
zákaz
jednoho
##kli
Vše
bezpeč
##IC
Ra
příprav
bu
men
##kat
problémy
##dala
##četně
otevř
řízení
##rání
kdyby
mnoho
##idel
přiz
jehož
ener
Kromě
22
neděli
la
aktiv
Jana
##son
##hé
##luje
abych
##nd
mil
staveb
jinak
##dání
letoš
##ější
zkou
##hledem
Mezi
řekla
##zen
are
##ic
les
návštěvní
jestli
##alu
##ovaných
Pardu
##gli
projekt
zajímav
##kali
##níku
##nácti
##ladi
přesto
##nické
##lého
ok
určitě
arch
rychle
zdravot
naopak
strán
Kr
zach
pozor
##SD
telef
Morav
kraje
##pro
Pak
nimi
##RO
usku
##ouf
sled
přev
##hr
překva
Stra
proč
##ších
Mich
USA
PRA
včetně
straně
##elu
tabu
stro
dub
##vou
minutě
výbě
##kových
místa
##nili
##gr
informace
milió
nemu
zapla
jedné
zách
##ůžeme
méně
##fek
slou
mas
##vesti
##hléd
##žila
pohá
skupiny
##bud
##aný
##ord
ukáz
začátku
Jin
ves
oček
zat
starosta
Tomáš
požad
státní
ven
zařízení
##desá
cyk
říj
listo
rozhodnutí
úspěš
internet
domu
nemocnice
##desáti
samozřejmě
ozna
ver
zprá
##líč
nebyl
Miro
##hráli
metrů
demokra
##tila
##andid
úplně
Zem
##rální
##mov
##AL
##řes
##šil
prezident
us
tvo
některé
##žili
##dělení
bra
##lym
NA
##zdu
##vající
zkušeno
##cie
##so
upozor
##tím
pok
domů
Ju
##ary
sním
##br
prodej
##žné
24
dítě
hude
##idla
set
exist
Hor
vr
police
nového
nepři
programu
níž
##metrů
měly
okolí
##pově
festival
##tov
hy
vyšet
##lky
Pe
ome
jich
##kovou
konkur
##tuje
rest
Přesto
##kl
##vno
sty
zlo
##ůmys
##fin
##vyšší
##razil
Král
vlastně
pí
zby
##blí
zas
obyvatel
okam
##nitř
##dila
podařilo
obce
podzi
100
tla
Čech
##zaci
umo
takové
##átky
Franti
zároveň
vlád
Jako
##tili
ri
ceny
sobě
situaci
##boj
tyto
Prahy
uvedla
Zd
198
##ará
##rd
PRAHA
trá
jmé
Dav
ČSSD
##lympi
Mlad
Rom
srp
##vor
spoluprá
kola
Ostra
##bit
##pli
Polici
sla
ja
miliar
trhu
pátek
tehdy
vyh
stal
##řili
##kář
reali
současné
dosud
##ler
##řila
##cku
##fé
budeme
##kyně
Min
##ckým
opat
počíta
hospod
celkem
Vys
života
místní
přin
hud
##ket
obou
ot
##ast
hráči
##více
##be
##amp
part
některých
##níky
naší
meziná
plat
Va
nepří
Vladi
Rak
jaz
služby
kan
##žití
vzpo
jednu
moder
##obod
povin
tá
kandid
##alí
vid
jaké
vyhlá
##krá
Spar
##žství
investi
zel
23
začal
dobré
středu
##telem
mistrovství
kolo
pát
podstat
Ar
pravidel
světě
veli
##rac
##mý
##úča
vlády
##inci
českých
##vědo
##aných
dále
scé
Vla
ši
zastav
hro
zalo
přije
přesvěd
nor
fung
vede
##chno
můžete
muze
budouc
rovněž
poskyt
Jaroslav
Šp
ply
nebylo
##ES
Ned
No
druž
materi
pomě
body
trén
řidič
pondělí
jenž
prakti
velký
kriti
##cko
mlá
##kový
druhý
##inách
##spí
##nek
málo
komuni
rak
konci
bodů
tri
Byl
lidi
spíše
finanční
úřadu
zvo
kromě
vody
pad
svá
Brno
##eného
Tu
##atu
mana
Soko
Nová
Sch
##cům
paci
##stří
žádné
##iv
##verz
Uni
Tento
##ůvod
přístup
##teří
##mů
zákona
listopadu
radnice
podnika
##mně
agen
##orů
pu
stani
Sloven
ligy
##couz
městě
alespoň
##říž
vyšší
motor
##zovat
##zo
neví
nebez
De
##hlas
tex
rozdíl
celou
##zer
slo
zeměděl
##nách
psych
##kré
##ten
Nem
byd
res
invest
rodin
přá
průmys
ústav
fotbali
rekonstru
výbor
##lec
zemi
ostatní
Tě
##ral
vzá
Bud
##ede
začíná
##go
##xi
předpo
##žeb
##tou
jednodu
smr
příležit
Karlov
nová
firma
vrch
Česko
##ickou
nových
##centa
Hlav
##vka
##čín
řád
nebud
##stoupí
##lava
Evro
##lel
##částí
dvěma
##mysl
ztrá
premié
ly
tém
blíz
dosá
hru
tou
pozem
hry
##kám
##podob
dře
věn
mohla
prod
cenu
jenom
##mají
##enty
##rněn
peněz
Vz
Pardubi
##AR
prostě
40
většinou
hvě
jmen
Ani
ned
doku
##fika
##ada
##hlíd
hokej
úter
lin
plán
##zdy
stavu
##ována
spokoj
zám
##raci
někdy
##AN
##ton
Dnes
vzni
kab
##čů
##voje
Bohu
údaj
dnech
host
##vin
inform
sprá
sociální
kterým
nichž
roli
srov
##TO
chtějí
kraji
ště
##smu
##žovat
vedle
sděli
##ovu
##zích
nena
vybra
průbě
##děpodob
Leto
##tera
pé
str
##telů
##stili
dola
##skými
Mal
##oun
procenta
##družení
proce
bí
sem
jednotliv
musel
sestav
energ
chtěl
##lig
přece
účastní
mar
pohyb
Karel
David
##šku
##xu
Dí
řešení
potom
Bra
##stické
skutečně
nemůže
zemí
Vyso
##žná
náz
území
##ováním
##nuje
ženy
prostor
##tvar
##pozici
hodiny
##dají
soudu
Be
přišel
##skem
##vek
zůst
dny
##řské
dříve
útoční
uči
##oby
stup
úč
dlu
##tně
Sv
roze
##kova
##ger
##tý
dve
Že
##řen
##stává
Není
##islav
posti
spou
pomoc
automobil
Ex
času
EU
##EL
##ovaná
šanci
dokáz
síd
##CH
##chodu
fanou
množství
dělat
rozpoč
čist
podzim
Česká
autobu
##nilo
##vem
Škod
Kla
mys
##avíc
##uji
žena
kterého
Nap
Navíc
brá
ledna
##chov
Ještě
##stoupil
Mat
##fici
uděla
Buděj
miliardy
pub
finále
##hrad
druhou
navr
nepře
Králové
##bur
platí
##mar
II
PO
souvis
prázd
##lové
moci
##enti
náklad
28
vidět
nějaké
vybav
agentu
tato
Miroslav
jezd
způsobem
Cho
olympi
projektu
objev
soupeře
leh
##řím
třet
hraje
úvod
kapit
fran
skvě
nechtě
##ca
gra
rozší
záj
26
zahraničí
zpě
##anu
##zně
##hody
##ps
mnohem
stí
nejd
Lidé
hoke
prová
získat
oba
skončil
výji
odvo
policisté
Bez
##tické
##avy
Druh
došlo
Jsem
získá
snaží
##álním
##ld
##kládá
chybě
letošní
Hod
stad
##dejší
##stému
nabízí
##vku
##rig
šesti
dopad
nejvyšší
komunika
mladí
republice
##prava
fotograf
La
##tivně
podpo
##álního
kterých
##jak
##LO
nevě
sklad
pomoci
red
cena
##dělat
Rozhod
##sledek
Bylo
Každ
kup
##olf
Vět
restau
##žené
dce
řadu
věc
##sů
archi
##akrát
##ino
##rek
##bývá
##dec
27
##stoupení
muže
chla
vhod
Su
probí
vláda
##něné
Jenže
##ujících
60
odmít
ochra
toto
různých
velkou
##ker
##účast
obrá
reži
sami
##níka
as
##zdí
##slava
hlu
očeká
Evropy
reprezenta
neboť
##ortu
Teď
##vce
dohod
policejní
kla
května
##lila
znamená
##kých
##rii
předseda
extra
národ
služeb
##pek
novou
dvacet
Sed
##ich
##bách
přesně
sbí
dale
doká
dospě
obsah
hospodář
##ancelá
##lodě
jiných
##čný
udá
pen
velice
soutěž
všem
oh
Ze
června
Právě
##tat
taky
konkré
tolik
hráčů
Star
##dci
spotře
schvá
##pou
zápasu
##lej
My
##mit
tisk
kor
vyšetř
##dem
##kty
úspěch
##míná
##ému
uvá
koncer
Pol
##aru
##čuje
něho
systému
##ona
Také
rez
neod
zbo
##ju
##časí
státu
dal
##gist
##ren
Ha
##hodob
##cka
Ústí
sli
##nech
víkendu
našich
vl
zn
##čilo
příjem
##rech
##mentu
Ost
obrov
##itele
účin
Stej
starší
sportov
Kdo
úterý
##hodno
zne
##lie
##ývá
techno
pracov
##ampion
Tur
dosta
Milo
dvaná
tvá
##eněk
západ
prohlásil
přines
vyjád
##rb
##VA
ráno
##sme
##nul
začne
Michal
the
výsledky
pravděpodob
umož
##ablon
##skému
tran
He
partner
kancelá
krás
##nostní
##nějších
sé
##rej
##hlav
##šov
##lce
začala
odpoledne
studi
ztra
##vol
##cházejí
##OR
telefon
Ště
disku
čtvrtek
##ET
Zdeněk
sever
bá
##chyb
popu
společně
října
##KA
kur
mnoha
##važ
areálu
výši
získal
##mil
Nez
##ff
##tora
pre
##lace
##ostí
194
##jel
povo
minim
##veřej
zlep
museli
majet
##nič
koncem
##uper
##mr
mohlo
ukon
test
želez
malé
neda
zranění
ky
alkoho
příslu
Petra
##řka
odhad
teplo
milionu
zaměstnan
pe
35
umění
90
Jsou
##vám
##ktor
zprac
noci
nejvíce
kop
výrazně
opak
český
odpoví
##ály
meda
univerz
zpět
##odní
takový
##šlen
##rych
kři
informací
firem
dubna
svat
##žis
##ův
poho
##arié
nezá
technolog
postupně
neo
klid
kamará
doporu
půj
března
##OU
##vně
zdravotní
Minist
ser
zim
dům
Ži
uži
oddělení
##ňují
pově
českého
pomá
ČT
##žer
lidem
sá
doz
##esu
desít
Stu
##advaceti
ju
parla
francouz
Nov
komise
brněn
adr
##vidí
elektro
druhém
dé
196
považ
##lík
úno
koncert
dlouhodob
##ičů
poločas
Výstav
urč
podporu
běž
##láš
Klad
kost
jiného
Stan
dostat
Bí
Evropské
##vaz
čím
posí
zakáz
##pozice
hlad
počasí
##řiceti
napo
napro
##ety
zav
sloven
##nie
teprve
daleko
nepro
samot
dod
můžeme
##ovicích
úřed
31
Proč
##rostřed
##tky
unie
vliv
dvakrát
dolarů
názor
##valo
45
vzdělá
##lili
Or
##leslav
muset
umístě
rádi
Lab
insp
Samo
ročník
zákla
vzd
zmi
muži
Ja
němž
dodává
vojen
ministr
fy
padesát
osmi
##kového
kouč
právní
ročníku
zásad
Svět
lépe
##ovány
Milan
Ad
29
Myslím
##stitu
##niční
výhod
Česku
ide
Bře
##žený
součástí
trénin
sen
nu
centra
##rny
##zala
Měst
##ečně
ad
rozhodně
##pá
žádný
ohro
##rus
##luví
naz
věku
##elí
Až
##mem
úrov
papí
Brně
zápasy
spolupráci
dopravní
sezony
uspo
skupina
soused
sdružení
nebyla
Praž
nemají
##cemi
##hal
sportovní
auta
přijde
##sit
cho
Kom
ST
hokeji
kterém
##olv
jedná
jejím
##mení
přibli
##bá
popis
##hne
tzv
stran
centru
Sy
zmí
organizace
lou
##ace
ať
podmínky
Například
pomocí
nato
stop
většina
František
hudební
kilometrů
##kan
stráž
prvního
##mos
oči
##slední
##livě
opu
197
Kam
Brit
průběhu
srpna
Pan
nadá
základě
##nicích
##rojů
Zatímco
Kdyby
##EK
tisíce
Prostě
##risti
tentokrát
škole
zvlád
##uro
2007
hlí
ší
##ovic
dispozici
hroz
km
Mas
Mil
##ovce
účast
typ
dalším
##avor
příro
muzi
##ED
##áci
##ovými
řada
##ON
nehod
##car
poslan
Hu
příj
bohat
šampion
##mila
uli
##lub
měsíců
para
osobní
dělá
##apon
##hn
Me
Stře
Asi
Evropě
##šen
Čí
nemusí
angli
zúčast
##vez
Město
filmu
Vladimír
Zlín
mláde
závěru
##lka
např
Os
##nami
stadion
##grafi
léta
hrozí
##kala
##šťov
dvoj
##ré
odpad
měsíce
dostali
##isté
var
budu
jméno
letošního
jiný
miliard
konstat
Větš
potrav
Tam
neměl
svými
udělat
výtvar
čtená
vystav
titul
Něm
ra
cit
Ří
##telné
kontak
miliónů
##olu
architek
uskuteční
neob
Jejich
provozu
cestu
##jov
Jde
##uk
##zel
SK
##nají
prosince
funkci
stanov
polovině
drá
post
##řem
úko
rizi
##ss
voleb
80
výsledek
rekla
poznamen
manažer
sym
novin
střední
##ile
městské
##ono
Ves
společen
##toři
publi
působí
Kou
dní
regionu
Krá
##aněl
##por
Bro
##delní
##zda
##EM
##ista
##řich
##drže
##šila
##kání
tem
##klád
##ef
##emoc
##čko
Vl
hráče
jazy
banky
stranu
smí
ulice
zápase
režis
##rali
nájem
chrá
##ismu
vysvětlil
Domá
##ovaného
zdá
návrh
nechá
Kraj
##xim
##kolog
Každý
července
uměle
byt
Společ
##oně
pal
brit
##kého
##finále
hřiště
důchod
našeho
podez
vylou
##jším
##šně
pev
řadě
uží
##avě
rodiče
nutné
minulosti
LN
seri
##komu
jasné
obvyk
sly
stala
oslav
##lze
rozhov
věcí
##EC
lit
##vině
am
nějaký
Lit
komb
jednotlivých
##tvr
třídy
klas
##čtí
##sch
poš
##rovol
soutěži
##mýš
##řít
mužů
vysvětluje
kolik
skoro
Nyní
zbra
še
ovliv
absolv
model
zítra
##livé
včer
svobod
pol
jistě
menší
##ine
##štěstí
Vždy
New
Nový
##aty
náklady
přízni
##čím
jedním
2000
dát
knihov
vyž
tvor
##pravě
svoji
Bene
##ft
vyrá
Bude
##orie
nahra
##hi
daň
##sloven
##rách
těm
##hrála
musíme
tvoří
Lí
Tra
čem
spíš
nově
přihlá
##žet
2006
šance
##řív
napad
rozhodl
Pat
hosté
##kraj
náš
ruce
##letá
##plo
zvíř
##mosfé
Jablon
vari
The
##EZ
úvě
počtu
##enáct
syn
##lynu
Chtě
divadla
radě
##zila
##amin
reprezent
##set
karié
vyvo
spoluprac
rukou
Sk
února
záchra
zábav
příspě
pas
náměst
branky
Dvo
člověka
důležité
##sud
Ostrava
navští
ministerstva
cz
díl
##eru
##ůležit
##terá
myslí
jít
##ickém
devět
vzdu
jejichž
##saz
Ben
války
2008
začali
##hání
lu
požadav
různé
záležit
stalo
poměrně
##ními
70
Pi
dovol
celého
##střed
váno
ciz
smlouvy
fanouš
zraně
níz
sedmi
rodiny
spl
vyd
Nové
abychom
škola
Nik
festivalu
noviná
##ováno
Jest
diva
zboží
##qu
pochop
promě
hovo
denně
lyž
zdraví
##ativní
zaznamen
##vedl
velká
pocit
vysoké
hřišti
##rovna
##bora
chtěli
sama
majitel
##stěji
shod
prodá
mne
##opis
Fin
koali
zaměst
Val
rozpočtu
##io
Dom
hře
jednom
##tají
prvních
##stoupit
drob
profesion
ofici
brzy
norm
##kosti
##han
pěk
nelze
představí
##kazuje
číslo
formu
Takže
##etu
##rací
Během
##kcí
vaše
##rové
podpor
činnosti
##rají
por
##šné
##ICE
Pla
##valy
##roti
paní
setkání
pražské
výzku
##hý
vybud
##ilí
Man
##andard
##stila
Ter
zveřej
##žek
změny
trh
##říd
kaž
pojišťov
##avou
Letos
asist
sezoně
##říz
Rob
##sila
komple
Její
##átek
Nak
##ickým
prezidenta
dat
##ktivní
Domácí
máte
##nává
soutěží
##lku
stejné
vždycky
##zvem
Dá
světové
Sla
redak
jar
zad
Liberec
názvem
##čce
radost
defin
každé
nesmí
##nín
udrž
žal
fon
##hře
Var
oblíb
Jiho
Zde
##vila
vyhrál
##edl
tř
##cát
říct
poško
mezinárodní
mobil
člán
hledi
Tato
##nově
šť
nechce
děj
institu
##nictvím
činnost
nen
##měru
obcí
##cího
Byla
zlodě
##čková
Cí
nižší
##ore
stoup
reag
obchodní
##ceně
druhého
Ond
domě
##žal
potvrdil
nadále
##dl
dnešní
životní
soubor
##ktiv
odstra
aktu
##mot
##žitě
##tali
lékař
inf
me
Micha
představení
štěstí
obrán
##avad
vězení
myslím
##anta
##leg
##čích
vysí
Fi
chara
dvaceti
slova
Voj
dostane
televize
téma
svěd
Český
##bují
konečně
##sen
ozná
##nějším
##tách
##ůl
dodá
Chce
místech
přišla
##ůraz
DN
##jších
atmosfé
Tá
zástupce
kvalitní
zpo
Bla
děla
desítky
stru
maxim
charak
možnosti
##ert
##átkem
cykli
předmě
chu
jednoduch
Váno
Ivan
médi
podot
nesta
##tro
Podob
občas
přispě
dopravy
bohu
vystoupení
ká
##har
podobně
##kovat
dobrý
##ovanou
těžké
##čkou
opatření
##edi
vidí
nedě
start
Ur
uprav
historii
##stvu
##mech
##lovat
##RÁ
##uj
nebudou
čtr
##cvi
##mana
silnice
##kování
zru
práv
##jezdu
vybí
##ama
##hlo
##řitel
Díky
obvině
hlá
##mut
památ
Škoda
zatímco
vůči
##OL
nemocnici
vývoj
Hradec
rady
Nic
##og
dopis
##pětí
hrom
indi
dokument
py
vyprá
ner
špič
Mám
ředitele
##hají
2005
##pravy
##čná
Možná
potr
Tím
##pt
mimořád
měsíc
play
##ón
kultur
důsled
posu
##arma
rezer
dnů
kategorii
směrem
Ke
##stoj
Velké
Stá
##star
výstava
němu
Boleslav
sprav
plánu
jízd
Bran
Lad
##odi
##oub
víkend
del
rokem
organiz
tref
Ostrav
myšlen
napl
Roman
be
zaslou
jaký
spis
Vít
třech
Ře
byste
předcho
##ádu
dro
poráž
Her
kultury
jediný
stál
soupeř
##řice
Jestli
strom
nebezpeč
2004
zkušenosti
##our
potí
##tiva
efek
##hel
cesty
prospě
podobě
##itě
voli
okol
Rakou
Klaus
pamě
prakticky
##letého
samostat
nád
dem
vztah
##ondý
dostala
##plat
##HL
tradiční
Fot
##fri
##lostí
##žím
##čítá
Slov
juni
pacha
dobrovol
domácím
širo
bývalý
někteří
mně
Jind
##líně
souvislosti
smrti
posledním
prou
Tři
fa
koment
ple
střel
##násob
##tar
mohly
patnáct
Šum
Rud
plav
##chů
Hrá
aut
reak
veřejnosti
##adě
zůstává
Všech
slož
vzdál
okamži
exper
##leté
sdělil
##ňovat
najde
prote
Pri
zvyš
šlo
Per
##ět
přibližně
přestá
##jdou
neú
##před
rost
##rovi
veš
##ejt
##átní
turnaj
osla
##vati
zámku
cílem
##řené
ber
góly
posla
##énu
Dva
##řela
##enka
##bere
mateř
tajem
požád
lev
##NO
##véd
##rodního
##zet
##stem
zprav
průměr
##ingu
domácích
vydá
##zací
osud
koste
##IS
##kým
Mno
opti
čele
##enými
##fa
Pou
##áda
vytvá
Základ
Nech
##eným
##gres
stavební
speciali
##haj
stanice
žije
dár
pracovat
kal
národní
Ste
Slová
##pat
dorost
Marie
##nily
neznám
##kor
míč
potřeba
sho
##nali
Jihla
Ry
##zením
##ster
##štní
bou
prostoru
peč
195
nau
##padá
##jímá
mrt
poko
pokračovat
##ité
rozvoj
magist
Vši
poru
prostřednictvím
bohužel
Luká
uvědo
jakou
##hly
##stěh
Stejně
##zev
##stky
cír
##klid
Máme
najít
prací
vrátil
der
Bor
hrál
olympij
##lína
Protože
poplat
Hol
budovy
##mítá
Anto
##stev
##ja
prosad
hu
##nický
fotografi
Labem
##rově
loňského
ane
výmě
Musí
nedávno
Poslední
vzájem
##aného
tabulky
Lou
důvě
útočník
doh
vnitř
##čel
exp
ročně
omez
mladší
funkce
stavby
knihy
poháru
Inter
naprosto
##rami
slib
právo
končí
využít
##jednou
##adu
vyře
NE
##str
původní
##šením
nádra
symbo
Jeden
##padech
blo
##IT
začít
zahraniční
SP
##ktů
##počet
refor
super
složit
##vůr
konfer
##ela
kol
nejméně
zlat
##óny
primá
životě
hrd
financí
##nických
Dr
parku
minuty
Ano
Policie
##tah
zased
##UD
193
závodu
ohled
klíč
##telu
převá
##átu
##kém
Aby
Výstava
##čeno
sub
Han
třicet
plzeň
centrum
platit
Mod
odsou
přítom
spad
hav
##nec
tane
můj
##leží
##ií
rekord
##istů
Oba
Spoj
##ďar
##tují
koneč
##zal
##kop
ml
cm
chceme
kulturní
dvoji
32
##rátu
tan
Sto
##CE
sítě
Lé
tělo
om
ital
Američ
Vysoč
našem
získala
ún
překvap
skó
trenéra
Jiřího
fakt
respek
jíd
##stka
raději
říci
stati
smlouvu
Naopak
politické
politiky
##sket
##zek
členů
přátel
skončila
dovo
celá
zaměř
baz
Let
##ovka
2010
##sahu
fond
##enky
údajně
uspořád
zabý
##raž
##výcar
věří
šet
##chem
poj
##lépe
majetku
prodlou
péče
výše
##álů
Hel
speciální
extrali
česko
##jit
##end
##ex
Dení
##land
##hých
pru
Mez
prázdn
##tev
##os
##loni
docela
##šak
douf
##sala
300
představuje
bole
typu
akcí
hou
okolo
##čej
nezávis
jezdí
dvanáct
##desátých
gale
##moc
zdůraz
práva
Plzni
pozici
##udí
##dějí
##šly
sbír
Zeman
dodala
fakul
hlavním
Ky
cvi
hlavou
##mili
Pardubice
turnaje
##nce
##IE
nesou
vypadá
Mon
schů
záchran
leti
##OM
##DU
branká
důvodů
překon
##razí
pravidelně
zápasů
##ang
velkých
případech
vnit
##chop
zrovna
nápad
řešit
##nicí
lize
ministra
Martina
Příbra
volbách
živ
počátku
týdne
jiho
středi
chystá
Více
gym
##ini
tun
současnosti
leží
##cii
student
Olomouc
##mile
kg
voda
##obu
klad
těžko
##ody
včere
podniku
Určit
obci
divadlo
výjim
chodí
Všichni
Největší
##volu
nástup
chybí
strana
diváků
##bil
zo
Da
závěre
krimin
Sob
##ok
podnik
nějakou
2002
stovky
Rod
podíl
##šené
##ťan
uvol
životního
##enu
##mění
kry
neroz
každého
##působ
konstru
létě
##zky
##adí
snímku
Sport
dosavad
uživa
Ved
vědo
##těž
nijak
Měl
nim
hlavu
uplynu
minulého
##ovku
vypl
tímto
##AD
##isty
úrovni
utr
##rna
barev
##váme
##vení
anti
svému
ekolog
přestup
mluví
Chy
Může
##názi
##vést
obnov
staré
žid
##člen
##onec
##řin
##pán
pohád
##smě
cestě
Přestože
prostředky
kle
silnici
##hodě
##áků
##broj
časopis
králov
##razili
příběh
On
Českého
školá
##cena
nezaměstn
##gar
jaře
Poz
síly
ste
Samozřejmě
##OVÁ
průzku
##fo
##ujícím
nest
##cházet
špatně
##alý
soukro
Poté
Muž
problémů
##lím
poro
brankář
##jích
celkové
nom
##lev
jednozna
##OP
vešker
##kace
dramat
ministerstvo
Dra
zástupci
krátce
Nav
500
ano
zemích
souk
há
Mora
lav
Den
hasiči
vyrovn
##nka
kuchy
doprov
##pas
Žád
##růst
spor
##pečí
Divad
Německu
Rych
ut
##chách
##áme
##out
pracuje
##OD
těsně
případně
námi
skupin
##rut
náhod
Hy
Minister
kata
##razit
minulý
##kázal
zaměstnanců
##koval
nejde
##žky
Ham
##ňů
##drží
divi
##noj
uplat
náhra
##klo
Har
##ese
##ise
##vost
##hlédnout
kandidát
uvádí
##jícího
uskuteč
##ést
stab
podrob
počítá
hodinu
##rosta
vide
##vodu
mou
předtím
##tít
koná
sezonu
##vero
Čá
nece
##ička
Pavla
neček
atra
malí
Nakonec
třiná
##nová
prvo
energie
2003
##ař
původně
hranice
sobot
nákup
FC
obsad
Jakub
mlé
nechal
cesta
##enost
tvar
tvrd
sti
branku
##ránit
hot
##tace
##itelé
volby
leg
At
Brna
podnikatel
Již
ochot
nádraží
buď
oce
celo
hum
##vím
##šová
financ
fá
##šili
##růz
chlap
desí
nejbli
2009
##čnou
dek
premiér
Car
##teré
##vací
zla
Kan
stane
americké
zvýšení
##ovský
Ge
##inace
vním
##leli
škoda
##IL
##ročně
Policisté
nesp
obli
##war
##víti
##pal
Marek
pořádku
##ota
zvu
společností
36
taková
##ZE
růst
Itá
##dná
výběr
##hdejší
##emí
prozra
veřejnost
časem
Ot
##skup
##ratu
##skok
##jícím
medi
disci
odmě
Vol
odpo
energeti
##nové
zdarma
zvyk
##chová
Stav
nekon
##lým
nalez
Mus
podobné
##vaný
týmy
##však
výstavy
soukrom
piv
bytů
moje
##tern
kterému
nejprve
přiblí
zastá
dětmi
ráda
rozp
hla
hlediska
moment
týdny
Místo
kre
mamin
obvykle
seni
vaz
okamžitě
Ostravě
##zech
pohledu
otázku
Rich
##sat
obrany
##čemž
neměli
koleg
dlouhé
jasně
##nického
rela
semi
##zují
vrátit
##ks
dětem
##bran
zisk
taj
celém
obtí
here
##řením
musím
##50
obránce
Ov
musela
pravděpodobně
##sledy
##uz
přiná
Tý
standard
Přes
Sil
##bře
pravda
několikrát
zvláštní
elektri
##žela
Vítěz
bal
Určitě
Prů
rece
zdro
propa
strateg
##řaz
##seda
Děti
##ovit
lokali
moderní
krok
##tka
##UM
##ovské
miliony
druhá
objem
##ána
Všechny
##kvid
sbor
Budějovice
elektrá
odboru
Právu
výročí
letošním
33
Václava
##inaci
Kvůli
nejlépe
kompli
Svat
##balisté
přišli
##vili
Iv
##stoupili
##tečné
legen
kvalifika
150
přičemž
bezpečnost
veřejné
někde
##lar
šel
Dol
závis
Kub
internetu
vytá
Třeba
delší
Přitom
zvítěz
##mněl
naro
pohod
místosta
rakou
potřebuje
##cion
konec
##lových
##ávají
zdravotnictví
poznamenal
spon
křes
nastav
##lích
ubyt
##chut
##rudi
lete
##jd
ošet
##hav
jedenáct
kapa
disk
##morav
##lus
Proti
ori
hlou
##čené
troj
##zná
počítač
východ
##ŘÍ
nas
mon
##aku
statisti
##ředu
##rátor
vyrob
učitel
Frý
##AV
##jil
příč
řady
útoku
žáků
vzor
vyzkou
slá
##bami
poně
vydání
and
sněmov
bývalého
konf
fotografie
regu
deva
##ery
přednost
##stále
##ičky
zakon
##ložil
smys
Fir
tuzem
##red
eta
regist
##ora
pomalu
sig
kře
kní
Kateř
Českých
členové
##nos
##čením
Si
odpověd
jejíž
##nář
minimálně
lig
oceně
bývá
zásob
kráde
vzpomín
##stek
##lární
##čané
nevím
budete
onemoc
##ůr
hudeb
plné
##neme
občanů
částe
Ci
Třebí
Náv
Většina
##tovat
podstatě
Prav
nejvíc
stadionu
výboru
##ropo
Angli
střet
Uher
takto
eur
možností
fotbalové
fi
proved
2001
##ložit
pojištění
bav
zemřel
svazu
rozhodčí
apli
tehdejší
MF
##řily
Někteří
vzhledem
muzea
##entní
##tice
díla
výkonu
##kry
evropských
úro
domác
skupině
pořadí
nachází
##mal
For
##žených
půjde
Dlou
##hrát
##lor
doplnil
ostatních
Hon
##ůžu
česká
poklad
Sparta
lékaři
šan
ped
##fu
##míra
MS
opera
oble
##čeb
otec
nepoda
nedosta
likvid
zprávy
##clav
školu
bit
Základní
##pustil
##vede
mr
pole
##stům
zahr
##nova
Jsme
zamě
příštího
##kční
Jedno
Wil
pořádá
##gram
poví
drží
naroz
192
naho
defini
proběh
Pí
kád
sociálních
hráli
Gu
Londý
žádnou
##TA
Fili
Miku
změnu
##kuje
##itelně
evid
hotelu
zaplatí
##rad
takovou
OS
##ýt
každém
ram
centi
##ňování
##námil
zep
bytu
dalšího
##lid
##áru
##vahu
Ban
Britá
##ach
Blan
rozhodli
zpí
přijít
čase
ků
Hlavní
dali
hejt
##káže
deb
Nebo
##vidu
nejbližší
nemohl
bankov
34
jejího
územ
Lukáš
And
fotbalisté
##čty
čekají
většinu
##ovět
##forma
napsal
##čily
ptá
##alizace
##lii
##vnitř
dokáže
Tep
přišlo
činí
##oboda
##enosti
nepod
dneš
##mutov
far
žádná
slovo
najednou
přís
pán
##ýval
uvidí
třemi
##vách
proces
hlavy
název
Ladislav
zved
zajišť
zavá
##nesl
##fe
##mní
##tala
2011
zkla
##AM
začalo
##kovice
##tku
##voz
Nes
##KY
vstře
##ymbur
##stin
nazna
##stan
Mosk
TJ
##slá
nejvý
fondu
dotace
mužstva
##dka
pokračuje
##áky
hasičů
televizi
DNES
dveře
Čechách
dává
##jících
Slu
obchodu
Euro
natá
##cová
##jede
##pit
##rodil
stanovi
vyhrát
Nor
Japon
##vých
##anech
jednat
nedale
tohle
##hraje
Sokol
##nii
hudby
posta
ryb
mužstvo
středo
##větším
##ckými
přiroz
Tyto
ostrav
velkým
##stři
##ňka
vznikla
##odpově
##denti
Kal
ben
států
rozsá
léč
dopoledne
Yor
Doma
Stanislav
projev
##čkem
struktu
noc
inten
PRO
Cest
Nad
Některé
vysoko
Eva
mladých
rekonstrukce
přeno
váž
příležitost
hlubo
KS
##ung
oto
viděl
##chodem
vle
značky
každou
představit
##zrael
otázka
##stroj
účet
Cent
Char
ga
##mati
zimní
agentury
třetím
televizní
Českosloven
krajského
##ávat
Hradi
##leh
přiznal
##ovek
dalšími
##spek
arg
##nická
chování
Kop
Bohem
bet
neustále
přiví
návštěvníci
šťast
##ribu
konkrétní
##jat
cestou
##romady
minulých
posil
skutečnosti
stačí
historie
tábor
##entu
evropské
výroby
sbě
letad
hrají
změně
spoustu
školství
Lubo
příklad
##pela
zájmu
Auto
alkoholu
##rák
Češi
mohu
individu
deníku
využití
vánoční
letní
sni
policii
prim
takz
Vzhledem
Des
Štěpán
Dod
##znamu
##psal
Novot
takového
##SKÉ
##kovým
Národní
trans
poloviny
##ozem
krize
závěr
##atřiceti
stat
##níkem
55
stránkách
web
činu
tero
upřes
nechat
oslov
vedením
autobus
úz
##sedy
zbav
arm
výjime
38
##ivní
propu
expozice
##jev
ag
Bru
příležitosti
##tla
radní
hr
##cené
žlu
Krát
získali
neg
obžal
mého
Bi
##tních
pokus
lidmi
Jar
vyhráli
Dne
##éra
vystup
##tilo
osoby
##xe
##láda
##entem
termín
psa
zálož
Bel
srovnání
##ase
hranici
potě
zápasech
těší
místopřed
Klat
čí
Bohužel
tenis
##dku
##kola
chtěla
trati
Tro
##leně
##řeno
Foto
Španěl
Go
Řek
rodina
##zka
stejný
rozhodla
Čty
Prob
srdce
pobo
2012
basket
##něných
##vaná
400
##pří
pozornost
hez
osobně
##držel
dozvě
zu
Rus
problem
##zejí
vážně
Meziná
privati
Mari
##zoval
hř
patnácti
následně
generál
Most
pó
##ted
uspě
hlavního
##AT
režisér
čerst
Klu
dist
jinde
důkaz
propad
##čík
##exist
##poj
zdrav
Roky
favor
histori
povod
##ruhé
trag
kapitán
bur
dokázal
ran
##advacet
směru
fyzi
dřevě
doslova
##jekt
191
person
velko
úse
bron
celek
domov
##lob
vyrábě
hmot
funguje
desítek
##OB
tal
základních
podě
Ši
Snad
Karla
##enější
gólman
##alaš
ústavu
##jedná
vidění
kategorie
nahrá
Bal
##lala
Ga
aka
malý
##pil
třiceti
novým
smysl
tvůr
spojení
Trené
##avatel
##stroje
olomou
##zené
rekonstrukci
##rigin
syna
Sna
nechy
##roval
zpěvá
Chod
37
NHL
##soci
oni
##čt
úsmě
Zároveň
##ány
gymnázi
správy
ovo
svoje
nemám
##dilo
##AK
slouží
Výsled
sal
##tip
##šný
vrací
parlamentu
##etro
##oná
1998
nast
##letou
konstatoval
Vset
vozu
změnit
##řík
vteř
oblast
divadelní
předná
míní
obyvatelé
ona
##itou
Jindřich
Obec
vypla
Ač
sněhu
vozidla
Fil
##žením
##ladu
slavnost
mnou
##oři
zauj
##nalo
snížení
daně
Jes
##čují
Lan
##bili
výš
nebyly
ovlád
řidiče
dodnes
##ónu
vyboj
řidiči
##ash
strach
##cyk
##níkům
##ujete
opra
důvodu
##cel
parlament
vyv
##dali
Zí
doba
##áka
Řid
42
nejča
spolupráce
nená
zajímavé
odliš
nejspí
otázky
##bylo
pozdě
považuje
##žíme
mó
výrobu
komunikace
průmyslu
##ůležitější
Jihlav
udělal
penal
německé
Josefa
okra
remí
##die
discip
Ondřej
cíl
##lesk
nemohou
##nské
názoru
nepříjem
Slavia
##rati
Polá
prově
poci
objeví
##anů
ins
jím
derby
Chrudi
##ráz
nabídku
náměstek
Ver
##káž
soustře
vynika
prostředků
diplo
ředitelka
zdejší
plně
pochyb
přechod
podívat
##řa
Ir
##visí
##řeli
##ovaným
##ničky
pravo
hospoda
připomíná
##par
devíti
kdysi
výz
obsa
##gem
místních
dobrou
případů
týdnu
dohromady
##lali
sexu
ČTK
vodu
##vilo
Dop
Zač
státy
Představ
oproti
dosah
##idlo
mech
investice
##zozem
jména
přeboru
##vedení
péči
sví
kru
##řov
Mer
turisti
rychlost
vymě
chvíle
##OT
HC
##dej
souhla
##rea
Německa
schod
##vát
kres
##taci
##AS
Havlíč
Žď
##lejší
zachy
Vyš
postavení
uměl
armá
KSČ
##rné
vrátí
pit
vyžad
povrch
1999
kamen
##žena
##dub
##ujícího
váš
jiná
##nala
##telný
Zel
Pel
bydlení
Důvod
##nímu
podání
slab
##ebu
mistrů
kriminali
vzniku
proz
##gn
dostanou
##tury
podotkl
dar
diváci
Radek
zůstal
poved
##nky
proná
začaly
##žování
všeho
žáci
uva
##NA
těla
příštím
ruku
##něný
policistů
neře
žeb
##stoupila
bás
san
##ident
podmínek
někoho
Svoboda
mluvit
##eném
##lovou
poslal
Zájem
mění
##nak
Naše
princi
cuk
##obo
##ovatelé
polovinu
##zilo
neměla
##poz
fyz
najdete
všude
vnitra
šancí
Švéd
Včera
doprovod
vystoupí
##něji
soupeři
nicméně
mini
našel
dveří
##iss
##vané
Ser
##kas
##ill
Zv
oddí
pivov
břez
předchozí
##lář
reál
##třeb
ledě
aspoň
eu
off
náskok
ukra
vybavení
##zační
akcií
zabez
objektu
##loval
řem
romá
##jeli
##OS
Fer
##lela
##ik
##škod
skutečnost
zahraničních
##lému
úroveň
##ární
pardub
zasá
současně
junior
##div
Jedná
##kost
zpráva
poby
SE
loňském
Francie
##kázala
##ros
průvod
vrchol
vypo
horší
1997
##kův
##chý
nejdříve
knih
čet
dostup
říkal
##mon
série
předpis
nejrůz
Med
zloděj
emi
Ča
mladé
##cové
taneční
popsal
zemědělství
1989
pivo
výkony
nezaměstnan
reprezentace
usil
##hala
Hned
oboru
jader
zasedání
preven
##tové
Znoj
##ovatele
předem
vím
Cena
bývalé
Problém
třídě
Poli
inspek
Kde
odmítl
Vždyť
chci
revolu
šampionátu
##tický
pedag
snadno
vůz
##IV
škodu
Obě
domácího
poslou
##dky
Lin
odehrá
Nymbur
##lena
##stali
zdo
##žilo
zdrojů
##ley
vedl
Sáz
trval
trvá
##mlou
##ban
##ID
##niky
##ády
zůstane
chuť
mládeže
Has
skóre
MU
uzavř
předvá
pozice
Jihoče
##štěm
lednu
Loni
každo
hnutí
vítě
##IM
moto
Kli
##žují
##atelé
sportu
cizí
existuje
##enácti
nedostat
kilomet
vystří
vládní
39
##obec
domní
Jinak
semifinále
jediné
zpátky
zajistit
##itomě
dávno
Ostat
Jir
pořádně
stráv
kterými
##LE
Součas
nedáv
premiéra
Lud
jsi
##lepším
48
hrad
též
##řídit
Olomouci
##ess
##kovy
vytvořit
připravuje
Hosté
Původ
hledá
##cu
zaměstnání
Chceme
kles
odvá
vodou
kontra
jezdit
##inové
##laci
soubo
hodnocení
upozornil
Vod
vědět
dle
hodnoty
poněkud
zruš
udělá
Dokon
##rand
Jednou
##mout
metropo
státního
##oty
tlak
##žnost
dojde
restaurace
nezbyt
##cházející
inici
anebo
dolů
neexist
##leb
zpravoda
##šený
spočí
show
parkovi
##ládá
##poví
##smus
##tily
nejmen
dřív
generace
čekat
##háně
ženu
ač
Cup
volební
spole
malých
odst
Karlovy
1996
libere
Násled
měsících
Ovšem
Jihlava
polož
##rka
týmů
školní
pravdu
Země
částí
##ózní
výsledků
chtít
chyb
dobrá
očekává
stavbu
Lip
informoval
centimetrů
výda
##top
koncep
Tech
##horší
##nut
umístění
popisuje
potřebu
Autor
dodrž
##uš
nepodařilo
přehlíd
průkaz
svobody
##dělen
##OK
##nička
přesu
výu
průměru
známé
čtrnáct
rozhodne
předved
přípravy
studentů
kanceláře
Alex
##ňa
Tele
seriálu
přírody
##zt
kolegy
Dan
konzer
prohlíd
Maďar
přízniv
křižovat
##íme
děje
eli
koupit
návrhu
studenti
generální
přítel
navrh
190
poločase
kapely
##era
##feren
##oden
Západ
hlasů
75
Ukraj
skončí
týká
hvězd
krou
Rudolf
Kor
fron
vzpomíná
směř
příbě
deta
##pravu
bronz
smyslu
##sné
domy
navá
##cov
čín
dokázali
doč
##cher
##stický
rozdí
##tová
prodeje
plynu
Hradci
John
primátor
pokles
##zdob
servis
##říme
kau
dot
jisté
##wa
kategori
vztahy
liga
znalo
povolení
boji
or
těšit
origin
##ski
##řák
dala
umožňuje
banka
převážně
včerejší
##tivy
největším
hale
Společnost
řemes
týdnů
##letr
hledat
Tepli
presti
Sparty
dlouhodobě
##xus
Zlat
bezpečnostní
Vlt
jakým
##centní
role
stroj
##zování
##řech
##kál
maje
musejí
saz
anga
oži
##edie
Vary
analy
používá
NATO
##odpověd
sérii
nohy
elektř
vládě
##stku
dílo
##form
##rová
Ol
##něn
částku
##bro
úřady
Mimo
pokr
San
případu
##enice
trž
takových
##lový
neděle
zájemci
##ďte
šla
jarní
##chou
hygi
Vstup
##iru
##hali
uniká
sjezd
Hana
Plzně
en
Terez
##rin
vyhled
Návště
##žily
Novák
Con
##HO
síť
000
psychi
řeší
##čných
avšak
tradičně
##ple
Miloš
konz
chlad
##minist
byť
pali
Švýcar
volej
věz
přemýš
Střed
extr
##alé
druhým
##cin
imp
##lovi
##jedou
hodlá
Dále
transp
2013
čtyřicet
rybní
##ÍN
##stel
##jce
důraz
svo
podeps
tram
Tom
brankáře
fotografií
takhle
cíle
nebezpečí
Tábor
klidu
Pě
##jili
někdejší
##aci
přísluš
jednoduché
potíže
rada
##uží
jednoznačně
##eš
zaměstnanci
přijdou
aniž
závody
Prostějov
našli
venkov
rock
přestože
zvířat
vhodné
shro
Okres
píše
něhož
##rový
Druhý
naposledy
spotřeb
##vější
kov
ostrov
ház
Toto
Win
pilo
##káři
##paň
hostů
televiz
Kun
firmě
Strako
tabulce
##oni
desig
Svobod
úsp
##oče
potřeby
Ústav
##čena
##leti
Kladno
vez
novém
##lada
Chomutov
kapaci
##berg
Moravě
##adř
demon
litera
branek
určité
podaří
##lené
nábo
začátkem
návštěvníky
obo
##voká
výstavu
brat
pana
##mene
En
střele
válce
vzal
americký
adresu
podla
Muze
##enzi
##ovaní
absolu
Dani
splá
seku
osvět
##lické
##ovatelů
##lením
tomuto
potenci
##nál
##lum
Masary
zni
nikoli
##nera
##rchest
údrž
##štej
bom
Vedení
zaplatit
##áty
městem
silnic
44
##zidel
##tení
##hři
ukazuje
##lár
matka
obhá
##burg
venku
Havel
radi
obsahuje
vozidel
projekty
vyšetřování
částečně
zastupitelé
stává
##rub
##tním
##liko
##jíždí
##pol
##spěš
přináší
použit
nepla
Vrch
zkušenost
Želez
třikrát
Fak
výpově
##šuje
##eolog
divadle
nechtěl
výzkum
zimě
##oti
##telně
objevil
pravidla
##čov
Středo
představen
zůstat
Kaž
Teplice
Nikdo
Tady
Kul
Pov
jednotlivé
##hry
špatné
uzaví
žít
##org
českou
##bar
Rou
Há
postavit
vyhrá
obavy
vychází
##řům
ČEZ
##niku
nezná
balí
rozum
chud
Ag
vozů
##orem
psycholog
stabili
##ismus
##álové
krajské
herec
Pís
budoucí
46
červnu
radnici
nedaleko
Jaroslava
43
duel
Měli
Ri
##měrně
odv
Sokolov
pohár
Úřad
šestnáct
jenže
nevz
##seli
domin
Kni
postupu
##čený
maximálně
maso
##kladu
vysokou
Sko
podpis
##tin
výrobce
odvez
rozhovoru
působil
souhlas
mezinárod
park
diváky
týmem
boje
##liště
čeho
nemáme
ZŠ
uvnitř
Láz
aktivní
okna
energi
omezení
ruka
hlavních
##rala
nejlepších
Litví
##sili
odborníků
fo
Tehdy
prohlášení
hodině
Kri
praxi
přípravě
Gale
veřejných
družstva
jejích
vstupu
bezp
##rám
škody
##jedn
Zby
dopravu
členy
##lic
Ca
##diční
setká
##stál
fig
sle
##ilu
vyprac
Liberci
desát
Břeclav
ideální
použít
##říčí
ochranu
chá
padesáti
návrat
Otev
##ša
posky
##ík
Jel
malá
##šeli
FK
tová
Trenér
nákladů
návratu
výběru
Krátce
bor
Prac
Tat
Přerov
##vkou
Jaké
starosti
ušet
události
jedinou
spousta
Horní
##chat
dvanácti
char
##sař
členem
mikro
Gr
zahájení
pád
vzrost
začínají
##advacetiletý
##jas
Bed
##los
turnaji
##antní
spoluhrá
##rozu
miliónu
nevi
jinou
##eniny
termí
věnovat
65
##armo
Karlovar
podruhé
##chař
chodit
##inami
Rů
Slavie
použití
market
##ove
Beneš
vydal
bab
##dili
bram
pracovních
41
jaká
##gion
Lucie
řeky
pochval
duelu
onemocnění
aktivity
majetek
hek
neuvě
jiným
##git
Filip
##ria
slíb
porov
přím
připomín
technické
fede
##nav
prostory
##čného
květnu
lehce
Robert
##minu
##gal
Úste
KIN
novo
růstu
Ivana
muzeum
##ŘE
jménem
Moravy
pozitivní
charakteri
nese
##menout
cu
##rab
Příbram
nejspíš
přichází
##áku
Brod
opravy
slyšet
speku
dopředu
Vedle
Kateřina
šéfa
hasič
##alup
závodě
společné
závaz
##lují
mír
##livý
slad
1995
stránky
vykon
šedesát
bojovat
úspěchu
##ans
Ministerstvo
hromad
Celkem
##říže
sledovat
rodičů
opa
Dvě
odkud
Bus
univerzity
hřbit
odešel
Sever
hodnotě
##IP
nabídky
španěl
půli
mysli
##hned
##mun
medaili
zbyt
250
##žoval
09
filmů
čtyřech
spol
nejdůležitější
vozí
form
Prez
##moř
působení
techniky
oznámil
##ham
mode
##mála
##chom
Afri
##ňky
##jila
naštěstí
včas
server
chybět
Mc
využívá
Vr
49
nadě
způsobil
třináct
val
svaz
mládež
Adam
Spolu
Státní
zkra
seznam
##ovacích
sociali
##kán
Wal
důstoj
##ell
úpl
poznat
překvapi
##fon
distribu
##dor
děl
Řed
Nep
kostela
příbu
##ráku
Jedna
dochází
Vů
Met
KDU
Kut
##zat
pacient
##avé
posou
Slez
kláš
##kladatel
budoucnu
ekonomické
##ářů
budoucnosti
##hnou
##kne
##pres
blíží
věde
uprostřed
nepat
stylu
stavba
zní
rozšíření
##áč
pokou
Haví
žebří
japon
snažil
vnitřní
agres
##pon
hovoří
##iště
obvod
starosty
##mes
vyvá
##jetí
chem
největších
##krátka
##likož
Hlu
zaví
přání
návštěvníků
prospěch
povinnost
CH
duše
ocenění
##rolog
he
##pečně
##hrade
Douf
##áře
pracoval
vzduchu
vyjadř
##cházel
zahrá
##aným
ucha
zamí
só
##ovník
dostav
zdi
hostí
předčas
kostel
byty
utká
údaje
překvapení
1994
městského
52
Rokyc
stará
podvod
##šilo
El
##FA
připad
výrobky
##žená
odpovídá
##enátu
##itka
šo
nalé
Kot
zpěva
##LAV
účasti
smrt
Jí
Slovensku
produkce
medaile
Hodo
51
nádher
Premi
místnosti
obyčej
poslu
Deníku
Sal
##udek
spu
ocit
dosavadní
názory
Valaš
porod
mak
poptá
ren
47
##zované
odmítá
pracovníci
Old
digit
druhů
skla
nejstar
Mist
koncent
republika
zjistili
areál
kas
Ameri
filo
##domí
poled
##horvat
opráv
režimu
koní
začátek
kamarád
120
círk
Jablonec
analý
zpracování
smut
klient
##nickou
zlín
úkol
pohybu
##mum
odpověď
##vice
##isto
##stane
Sem
##ždění
##žích
Pos
##bod
Dy
extraligy
normální
vedou
minulém
zaháj
Francii
dosáhnout
##vanou
##naj
nezapo
přípravu
Kos
přidá
Sně
záležitost
neznámý
kapela
dvojice
##óně
policej
posledního
magistrátu
podnikání
##stávají
dlouhá
žádost
Mag
varian
Mad
##razila
firmu
výhru
veřejného
vztahu
vzít
hypo
bezpečnosti
zásadní
vybrat
Té
verze
zákro
##štěv
stol
nejlepším
kříd
formou
Žiž
##edení
zavo
zdroje
přírod
občany
##zdě
písem
dalo
dotaci
národního
Viktor
Bul
##nějšího
trefil
Postup
##stran
pěst
##stvím
přivez
mra
Vesel
západní
##ováni
počítat
armády
vyžád
##tního
Nejd
stříbr
finančních
nehody
materiál
čtver
pracovníků
koalice
rozpočet
bilan
##kazují
##tec
Firma
##isla
DP
Spojených
Gre
##denní
Veli
poste
korup
Fo
drog
majitele
##ici
Své
Musíme
prohrá
##leka
barvy
prohráli
startu
##řicet
záko
mul
Čechy
městech
Neu
Vil
##zny
demokracie
studia
Býval
zr
Jaromír
Dvořák
podezře
altern
inscena
1990
rodině
##pání
euro
Mot
vyčí
##telná
##UT
pracovi
podezření
Tvr
možno
Krum
sále
politických
oblečení
úspěšně
##inář
tlu
ohledu
##stý
udržet
nasa
začnou
potřebné
##drželi
zbytek
Ká
vlastním
přesil
rozhodnout
místostarosta
nábožen
probíhá
atd
třetiny
titulu
svěř
jednotky
vyhrála
##jela
##klí
vyprávě
touto
zámek
luxus
##rovou
podpory
Fotbal
ambi
##KO
celku
starých
##komp
motiv
přestávce
Ed
čtvrté
odbo
##ovaně
Rek
utrpě
kvalitu
projektů
primátora
##OVÉ
BR
ČE
##NĚ
##itní
Konce
##vého
Nabí
bratr
JI
oslab
rozu
Šumper
převez
úste
Bou
morav
složení
šir
vznikl
zob
Nevím
kluci
odci
text
pohybuje
Litomě
připravit
ČSL
fol
vyslov
ny
čísla
technologie
oč
mm
vína
##rového
##vosti
rakov
Rád
##áno
##želi
Am
plan
##ovníci
zastupitelstva
Gra
piva
Děčín
##lom
vzác
chcete
řečeno
Maji
záslu
ochran
##vním
##port
##pec
stejnou
##odí
Ph
pry
devat
míry
Třetí
zvláště
záme
##dějov
karty
povz
řez
řídí
známý
##aticky
emo
zvy
vodní
Hru
inspi
##ovol
KINO
orchest
účel
Lenka
##lají
tamní
##stříc
kvality
forma
Barto
míru
šat
##kální
podniků
protest
zpravodaj
kami
jez
obrazy
##éru
tera
všechna
##aned
vypu
vaši
pozná
povede
veškeré
##klu
společného
pacientů
Krej
##nete
##vního
##žije
hodinách
##jmu
##nej
dostává
velkého
##tura
cítí
##vlád
tisíci
dostatek
přehled
tréninku
hol
Daniel
nejčastěji
Mladá
naje
divo
Stří
orgán
Koz
prokáz
akadem
Antonín
##ánek
vyhra
rodinu
předpoklád
##átů
Případ
katastro
účastníků
Les
požadavky
lékaře
##ením
##čník
1992
organizací
pochází
##rátil
plný
trať
ská
Aleš
komplex
vylep
vytr
veletr
##tud
Procház
##něte
hradu
##něk
##zvané
jižní
aktuální
##apa
správně
##žas
##ovému
Tomáše
##prch
amerických
##rich
zprávu
zvolen
náku
mag
inkas
chyby
##UR
##eda
předlo
##lomu
stupně
##pel
##letě
##jíma
##pen
##roční
vlastních
Máte
Spart
březnu
##BC
hokejisté
předsedy
##muje
##řídil
koho
##rových
##ždě
##bel
politici
##rova
Czech
historické
strá
Richard
##rovoz
jediná
Nejvíce
galerie
sboru
vládu
plány
Vlasti
mladý
úseku
druhy
narodil
moře
informační
ilu
dělají
roste
Pohá
##él
Ať
##20
Spe
KSČM
Odbor
klasi
hotel
vynikající
přihrá
konferenci
Pu
tvář
prosto
##mann
čímž
blízkosti
sestavě
okru
výsledku
ově
Brus
##bude
občané
Program
Com
dvo
dvojnásob
##rky
jihlav
##dám
Velká
pražského
##oved
##kací
##we
##aném
sdělila
míří
trium
identi
Změ
1993
Tes
Nejvyšší
##dělal
službu
váleč
pedagog
Nejlepší
Někdy
naděje
gólů
prosinci
Šim
úpravy
častěji
českém
Ven
asistent
##hové
Zuz
pek
##čata
Ředitel
doved
amerického
styl
dokumen
cigar
##endá
okamžiku
zápis
většině
klí
Jedin
vést
##enské
prvolig
Sobot
Jičín
##pokoj
konkurence
stroje
dojít
##šan
##inky
GAL
oper
##ami
Fe
##omy
Jestliže
##hrady
Paroub
násil
subje
krásné
filmy
zodpověd
interi
rostlin
kompletní
přírodní
##stají
dětské
zásah
kav
státních
viz
fanoušci
Ostravy
naf
##strá
definitivně
Rusko
##nt
pomáhá
Kol
Mezinárodní
útok
Gi
##tická
znát
rodič
lékařů
##ERIE
profesionální
zdr
případy
##mluv
Člově
nikoho
##stického
obecně
Dub
##ánu
mnohé
Vých
##zkou
##vaných
Kři
oteví
silné
Lá
rozvoje
zvýšit
##erční
Podobně
stromy
fanoušků
mírně
uj
Počet
vstříc
Divá
zaved
plyn
znak
jemu
##FS
##nku
Nicméně
nastoupil
dubnu
spá
##něna
změna
albu
uvaž
zločin
proží
běžné
Cheb
zpří
##byl
dovolenou
poruš
letiště
##lák
východní
##říži
54
Orli
Stráž
čest
##hot
láz
kousek
každá
nejm
bydlí
říjnu
Bur
Chtěl
daří
Sám
kus
Topo
penzi
##EJ
potrvá
##lant
Mladé
Stud
sílu
budově
klo
Karlových
Zápas
##ínek
baro
souboj
hudba
##čném
dosa
vodě
pomůže
CD
gu
##VĚ
obětí
im
##pky
obyvatele
VÝ
únoru
klidně
##prová
hosty
##ovaném
##sní
potrest
trpě
Tentokrát
##pka
##grafie
usmí
##čtyřiceti
domova
ceně
mistr
plochy
zbraně
problemati
ihned
dosti
kabin
Libere
##BAL
odchodu
We
##lovar
dojem
TV
financování
Super
##áček
hejtman
záleží
Celý
##stických
círke
zařad
Přede
Tou
video
výsledkem
strav
kruh
odborníci
zázemí
žijí
okresní
Důležit
čeští
##sociace
Šest
kříž
zasah
bodu
##šťast
panel
trestného
odborné
ulož
jízdy
Fa
rekor
vojenské
Ková
kin
přední
Domaž
Kad
##avý
otevře
vze
##sel
fondů
křesťan
literá
Velmi
Pardub
apod
Pit
obvinění
##ickými
##vních
Sen
hrade
Kat
Františka
zhodno
dostatečně
56
##cek
vyjádření
pravé
uhlí
Nepo
příspěvek
uchaze
Nejen
ulicích
##pera
Čtyři
Matě
Sázavou
##zela
hlavě
ali
Návštěvní
III
líbí
##mání
adres
zážit
##yer
úvodu
Česka
600
výjimkou
nahoru
##BA
Třebíč
věnuje
půdě
strašně
GALERIE
Kolik
##lana
Pá
Součástí
organizátor
procesu
spořitel
nebyli
##ecku
##enin
##něná
##óz
nakup
výstavbu
oznámení
čtyřmi
částky
řádu
##menu
značně
baví
organ
##pů
natolik
Břez
označ
zbý
všemi
##úto
administ
##rid
fas
posád
##tisk
druhu
Nikdy
těles
stavět
blízko
stávající
##gh
##dách
divadel
prodeji
nemůžeme
vlou
##bek
pobyt
intenzi
##ací
středních
Dvořá
Boleslavi
Svit
Zdeňka
zdaleka
Několi
Hlavně
příčku
53
zabí
##komo
vloni
##rant
SM
oficiální
přebor
##sic
##one
ekonomiky
centrální
politika
Jedním
##štích
##udíž
představitel
studie
##pením
pojišťovny
mani
souboru
plánuje
##žka
vozy
##tion
Českou
Sim
##wo
aku
součá
Stále
##blíž
##řený
slune
fotbalového
Chrudim
legisla
OSN
##ally
vydat
sel
fotbalu
angaž
vzdělání
hlasování
noční
potravin
skupinu
Německo
##běhl
polovina
nějaká
zlepšení
družstev
##ovně
Sam
dlouhou
stupňů
následující
##nuto
Sku
vysoká
stromů
výrobků
##též
##ling
dotaz
Men
ha
karlovar
zvlášť
snížit
vzdělávání
dých
zaměstnance
zvě
skří
rostli
pódi
srpnu
vyvolá
dla
##ovského
sloužit
Stát
fanta
sedí
kapel
brambor
čtrnácti
zrušení
najevo
##žku
nejsem
extralig
##tur
Byli
prozradil
dresu
dotá
Krist
##ashing
##pež
látky
trávní
##něním
Rov
přestav
Brati
Kolín
##ýr
soko
##skobu
##cy
##tější
Nejprve
podmínkách
Film
##ženou
mnozí
provedení
PR
pes
##bus
Van
##př
##stická
Léka
školách
Skup
##IA
vyjde
riziko
musíte
údajů
otevření
klubů
pokračoval
vyšetření
rozhodující
prezenta
##štěné
zvíře
logi
potvrdila
Tem
spat
vyhov
výbu
mand
##STI
lidské
##NÁ
dají
doprová
zaru
##kovém
Branky
zbraní
Ruska
potřebují
##lník
##fil
opo
schopni
budoucnost
obor
služba
MO
##ejte
ZÁ
důsledku
rychlosti
rozví
tm
dítěte
Náchod
zachrá
odbě
aud
pořadatel
připravili
mateřské
svob
##veroče
vlasy
##RAD
schopnost
##ross
skončilo
příslušní
ztráty
##hrou
##SKÝ
##lis
pokro
Jižní
shromá
místem
OP
zjistit
pachatel
Pokrač
Libor
57
mnohdy
lůž
rána
2014
ukázal
objekt
##áš
Pek
silný
podstatně
domluv
zes
##čným
prior
Sc
nabízejí
poslanci
##kované
zisku
uzavřel
Zajímav
##vajících
58
řetěz
kroky
zajím
stanici
chvil
##SKO
požár
záměr
dědi
zoo
spravedl
Qu
ole
pochopitelně
oblé
dovolené
##štěn
Potom
Hist
českosloven
věděl
Projekt
úžas
šli
##hodné
##evrop
aktivit
kamp
formě
kabel
Net
Novotný
událost
starost
zaměstnava
vin
stála
Čím
advoká
Střední
pryč
Hou
minutách
Pelhři
Trut
využívat
regionální
půlno
jediným
popla
##use
##had
osobních
Francouz
úvodní
Org
soustřed
nesk
##knout
##řích
##kající
zkrá
nedostatek
obslu
fázi
##šiř
trestu
##šela
prodloužení
##kladů
paměti
plate
ligu
změn
##ult
pražském
##eku
agentura
Horá
Bab
minimální
zří
nárůst
deník
nabídne
dodava
zahradě
##zovali
##dro
##leš
obe
závodů
zvýšil
##tici
##tisí
Nizozem
knihovny
##šice
##ající
##iš
knihu
upozorňuje
##čerst
říkají
##tik
otce
hně
##stné
českým
Svě
Patri
kalendá
vedli
vysoký
##padl
materiálu
##ložení
jel
zázra
dovoz
talent
cer
zůstala
soudní
slovy
##irurg
nemovit
Rusku
pás
ochrany
##razu
Itálie
měsíčně
##stvem
městských
Meziříčí
pomohl
Vojtě
##uda
pobytu
neúspě
schopen
blá
DV
vyví
železniční
##rií
##ml
konat
programy
##tory
Ministr
Ško
##jedno
kerami
tudíž
připravil
##ticky
zadní
nehodě
kontrolu
Černý
poto
prohlí
zbytečně
ruky
##tré
prvky
čtvrtfinále
Dolní
operaci
koně
rozlou
malou
Všechno
opozi
zvlášt
výkonem
##moci
směr
konkurenci
Topolán
##CI
starý
##produ
převod
sponzor
odvolání
vlivem
##muni
##islava
prosadit
##avu
kniha
alkohol
##érů
přijel
přizpůsob
třída
fungovat
referen
starších
##lina
třetině
léto
Poprvé
nevad
duch
##lilo
učin
brněnské
velikosti
atmosféru
nenech
Peter
Anna
##pem
nikoliv
rovnou
Mir
##tiku
mobilní
založení
##držení
Pořád
##žný
##šková
Novém
##ávání
##žnosti
roman
Výsledky
navštěv
okrese
##bral
Srb
nemohli
Urb
reakce
Michael
Tedy
ředi
ruské
Hradce
brání
prostorách
hodnotí
hodnotu
##oko
hvězdy
##nojem
silni
dy
Šéf
skvěle
překro
##ňte
volný
pne
##US
Akce
##břeží
publiku
Nového
moderni
##ženo
##ánské
horách
namí
##dox
##lohy
dívky
tat
skončení
zdroj
akcie
Žid
Hum
##slane
##th
bes
##ěl
##ňoval
zahrady
devá
Letošní
ovoce
oběma
Těž
1991
##TE
##žitek
Osob
##mské
Slovensko
politice
data
nejhorší
patřil
předpokládá
##UB
osv
put
zabývá
ZA
čemu
osobnosti
Věřím
##zátoři
měsíci
##skal
##ney
Evropská
##itím
Zku
##nula
hospodářství
##dající
##ws
takovém
takřka
ný
třetího
soukromé
osvěd
Tour
##tes
obrazů
smlouva
pokoj
##holig
han
hes
Gene
##skos
##onů
koruny
Ce
mali
vývoje
pokry
seh
##TĚ
IV
Člověk
středově
nastup
##mrz
##čkami
##praví
##čína
vyplývá
prodat
Zlodě
politiků
Ček
LI
KRÁ
strážníci
udělali
##inec
##NI
věřím
záchranu
beze
uví
poškod
počítače
Teprve
##ki
netr
podniky
výhře
##náři
kontrol
teror
používat
vir
hal
Jez
tvrdil
obvin
osa
dcera
skrý
ukázalo
Washing
##řeny
##kázali
všim
##vej
krátké
PŘ
civili
Soud
poblíž
odhali
Ivo
nepřed
nastoupí
Pal
tab
Národního
Hodně
argum
Vláda
volné
restauraci
velkém
most
dří
oficiálně
poslucha
##enční
koupali
lan
85
##škol
Budějovicích
##vědomí
Mají
##ves
zvířata
##dlí
tj
narození
děv
##gie
hudbu
kat
násilí
Klub
kato
obhaj
Němci
##tex
Vladimíra
##padlo
##ůh
##ott
sobotní
ulic
léká
seznamu
fanoušky
59
sráž
##kými
##enek
nabídka
##kují
vrace
vlevo
rozšiř
##ph
světlo
vesnice
zkušeností
##tolog
zdůraznil
klientů
kombin
nef
dohody
189
budoucna
připraven
okresu
dráhy
politiku
pozemků
okruh
Prostěj
Sý
Živo
##zdory
netu
Ros
##ount
optimi
večera
##atické
##tických
Miroslava
porad
Tř
Sr
představenstva
dělal
veřejně
krve
objed
##procentní
##posud
NÁ
dění
##fy
Ly
hlásí
duchu
trpí
neop
kampaň
přidal
slaví
označil
##UP
vina
stránce
sezon
##zený
dokud
Por
zdob
Slovenska
sklo
Žďár
jdou
Jas
spisovatel
Zlíně
družstvo
Pořad
matur
amat
sebev
náročné
přesvědčen
odstup
800
váp
Kry
skal
jídlo
##tic
příjmy
očekávání
dech
Především
proslu
verzi
snažit
očima
oblastech
červenci
lyža
sníh
trestní
snažili
Rozhodčí
chvá
amp
prezent
##brž
vyhodno
##dla
vojáků
Dokonce
Slá
##čování
Prezident
viděli
bytě
pracují
lhů
kilogra
cvičení
##tné
symp
Radnice
utek
##ovci
HN
ono
kavár
každoročně
zhor
žáky
ukončení
motocyk
zajištění
horní
vrcho
páté
net
nemoci
##čkách
Třeb
Otá
##vie
dostalo
správné
kos
okresního
dosáhl
návštěv
##zof
tradice
nález
Jist
vit
##ičtí
příštích
očekávat
Michaela
obdiv
stejném
bank
##rnu
##ktem
Beroun
dozor
zájemce
Pala
vysílání
##ičku
oblastí
krité
vysvětlila
okruhu
Rat
podiv
uprch
stěh
Alb
nýbrž
Kur
pořadu
prohrál
podzimní
zkrátka
bla
Hradiště
Ital
##ÁL
údo
ul
##měsí
Peníze
MUZE
lah
##šlení
##torů
pošt
Divadlo
maj
Jaký
izo
automobilů
předchozích
krizi
##počátku
monit
nerv
uzná
##market
chři
komedie
rozhlas
podél
německého
nechtějí
pozemky
##rný
##nutím
nebudu
klasické
náhodou
kolech
svatého
problémem
doprava
hrub
Druhá
redakce
havá
hospodářské
sklád
jihu
##cený
tramva
##mec
koncertu
požáru
symboli
těle
navý
orienta
zaz
##amat
státech
okolností
##ind
doktor
##držela
hokejové
##lací
##lohu
Duk
investiční
##ryně
64
##mie
##řiv
##číně
zpráv
pokračování
znal
neznamen
silně
objevila
vtip
mladík
##ep
snímek
kot
negativní
##skoslez
##desátiletý
##ation
##livu
nabídnout
##oté
coby
##jednodu
##ww
Předpo
mail
připomněl
nejrych
benz
##sím
nechali
Musím
##spod
střediska
průběh
Zdá
##éry
věd
##živo
Open
projíž
kluby
premiéru
##čnost
kontroly
kina
Stačí
všeobec
##mali
žádném
recep
##tika
Moc
bezprostřed
##ruje
##romi
maximální
Důvodem
Británie
současný
scéně
Závod
##vale
nemys
##tive
mechan
povol
ští
Čtvr
napětí
lidských
MĚ
motiva
naději
##deň
naplán
Nemoc
kádru
trhy
většiny
chybu
Vysočina
##bytek
kusů
tradici
Univerz
Rada
černé
Sig
déle
surov
TOP
přestěh
extrém
Ing
lesa
lup
severu
senátor
výhrad
Zna
Staré
##anc
uji
odpor
čtvrtletí
dočka
nechci
Zdra
Vánoce
tel
ztrát
Mni
ukázat
uklid
Prach
městu
procen
přírodě
##žitel
vědí
Ceny
výstup
Opava
lodi
krajský
soft
bru
bub
záru
čekal
zabezpe
jede
populární
reprezentant
IN
Řím
Sdružení
##střelil
dopravních
##oreti
světových
Čas
zabývat
##teru
vyšel
##nět
vypadat
odciz
Minu
Er
žalob
turistů
##enský
Pardubicích
zahy
píse
##lými
Městské
##áři
kandidá
pouhých
Yorku
najdou
sest
##stiky
hostující
##itelné
##tečný
majitelé
##otva
##líme
DI
##lený
celost
zabránit
##nikl
Exist
95
hospodaření
kontakt
úsek
nešťast
##ilní
Kaš
hlasy
Mys
Naštěstí
##kovic
Ježí
##tak
scény
Red
haly
poka
##goslá
##pravo
Liberce
zřej
dálnice
fotbalistů
cestov
##ston
vrtu
##šily
manželka
plu
sovět
##čků
historických
##UL
podobu
nakladatel
##ůžou
osmnáct
mý
##řená
lyžař
Arg
Často
obrovské
##kalo
##mel
##vejte
nomin
##lového
umožní
divize
odpověděl
##ladatel
autem
Vero
jimi
přispí
Geor
Tohle
výzkumu
dané
komory
Karo
##ňující
Zi
##tín
písně
noviny
propo
dlouh
operace
oku
brus
půdy
Vsetín
případné
graf
##šená
rozmě
předbě
severní
přijetí
pest
##brat
##čátek
##ong
used
svědčí
čtvere
jednak
##sadil
žádosti
iniciati
resp
##venství
##ouště
Cílem
##tim
opravu
vítěze
vytváře
neji
soustředění
poslanec
limit
celkově
##agu
běhu
Řidič
##líbí
MUZEUM
vych
podzimu
##šejí
##chově
nárok
vraž
##sová
##pul
připomí
##tonu
sítí
Připrav
##enec
soustav
výlet
##encí
staví
peti
jih
stopro
Nedá
pěkně
zpravidla
léčeb
mistra
shr
vedla
vyrovnat
poslanců
Bohemi
obrat
rý
tiskové
Benešov
sezná
odpadu
mostu
##DÁ
Dag
www
jab
nejú
##skočil
dole
nádob
průzkumu
porazil
postoj
ocen
vytvoření
klá
Napo
##umati
manželství
Klatov
##razy
##znala
##ždé
##ero
vymys
občerst
zábě
Karvin
Jenom
##ink
Jihlavě
ohrožení
##jdeme
Americe
kariéru
rychlé
##tami
zare
Organi
neuvěřitel
bolesti
##avá
vysokých
naci
nezvlád
izrael
zlato
##sech
Fotbalisté
Lho
instituce
99
Středoče
angličt
Marké
Velký
##inka
##alog
vyvr
terénu
lek
Novo
sezona
##vent
čtyřiceti
nevý
interpr
##čice
konference
##átka
Podí
##loze
pohodl
vzápětí
nemělo
##ens
Gab
proběhne
pokutu
spokojený
prohlédnout
stolu
hvězda
slavnostní
netra
pokle
parkoviště
komunikaci
hrála
Indi
těžce
náhradní
dres
##číme
Kap
##maz
Tým
Kru
Fu
##šího
jídel
##stud
řidičů
Situa
odhod
článek
##jně
##nam
dávat
odev
zákonem
tragé
vlastního
umělecké
##tám
kulturního
technologií
##šených
hů
povinnosti
osmnácti
##enců
##boře
##kaly
přinesl
podobný
Chorvat
rozhovor
Podě
sněmovny
Informa
album
##gan
stovek
tříd
ska
média
odehrál
olej
##něny
Hal
kopu
povr
bílé
pokut
kostele
vědomí
##cházelo
spojené
##jíme
studenty
##míru
Budeme
HD
kartu
##lety
labora
180
libe
Zastup
dohled
necelých
otázkou
Dět
černo
##dlo
úsměvem
Slavii
Hude
Dalším
##OZ
Víd
Itálii
dokončení
vidím
Než
##čená
##ženého
dovolit
žebříčku
cestující
Pospí
památky
##ával
Doprav
##hlou
změní
režim
úsil
patrně
budova
německý
přijede
propaga
termínu
##večer
##enku
dětství
příbuz
brát
měste
##šná
Soci
plod
daní
teploty
Pět
zkoušky
Ša
Leo
##pev
zařaz
takovým
důvody
druholig
detek
naplno
dřeva
nepřá
Němec
dočas
reprezentační
##kret
jem
Cha
zjistil
Brněn
vypráví
nesmysl
Hvě
##svět
otevřel
hub
Eli
zaned
vznika
##ženým
stranou
##jedině
výstavby
přístav
##toru
Bá
OK
příjmů
pozd
nimiž
velvy
loňské
řeč
prázdnin
lib
reprezentan
Alena
voličů
66
návštěvě
Pot
osobností
Bohemians
##hoda
dávají
obranu
nešlo
##cad
##jením
rekrea
zavedení
zouf
infra
##ránek
osobnost
soli
konc
jiní
Kas
kurz
nere
Iráku
kó
Téměř
relativně
doklady
##off
zaří
Hej
##ičce
##livá
##skobudějov
##xy
Růži
Hro
výborně
kancelář
navštívit
zastavit
Kali
##avori
poločasu
##hlu
tisku
##šíme
masa
veče
##att
Nečas
Mak
troji
jistotu
koncerty
skončit
žán
samotné
objektů
civil
fotbalový
zvítězil
muselo
soudce
##asy
##hradu
souladu
osmdesát
návrhy
##čela
##íte
nou
těmi
##kaza
Galerie
konkrétně
bránit
##cházeli
dokonale
měnit
nek
##rovat
léky
potvrzuje
##line
##itostí
lží
##ecka
webu
dostaly
rezi
77
Bob
##ché
profesor
minulé
##činy
##mani
zadrž
dokáž
dělní
##jek
Hus
událostí
et
plno
pádu
Polska
Pož
vztahů
obrovský
##cházela
Led
##konom
omy
rozs
bio
Tel
víno
využívají
Chci
matky
##mět
listu
##stilo
legendá
ostatními
příjemné
##fg
##ologické
finančně
pojmen
informovala
##mám
tribu
sekret
telefonu
zakoup
##čeho
Kab
Willi
záložník
pražských
jedenácti
Jitka
##ere
projedná
silnicích
##chvat
##mez
místopředseda
golf
podporuje
##ýká
DPH
odkaz
##anem
líb
řekli
žil
příprava
budov
##ktoru
vyšla
chirurg
nedošlo
smluv
článku
trápí
porazili
slep
##hnu
průmyslové
##livost
##řky
##lip
chalup
materiály
VY
upřesnil
sbírky
PL
Baník
##gor
##mezí
vaší
##alizaci
##ts
##odenní
parti
přiznává
pečlivě
neuspě
vpravo
jevi
Los
starostka
line
Olomouce
zně
jedineč
vyzkoušet
zapar
##meny
##ble
##rodru
ge
významné
drobné
cca
mj
Prachati
Chtěli
Doufám
něž
češt
rozvod
známých
##eld
63
palub
Dů
bun
Občan
Dole
opil
inžený
##UDr
##che
Ran
##dé
nesouhla
##řina
menš
slovenské
##ovny
spal
Mr
hory
lásky
návštěvu
našla
ostatně
rozsahu
##ovod
##tického
##inc
volně
vlastnictví
doplně
současného
studium
zůstávají
##icky
odmí
kolen
##ádě
vyřešit
hří
##kládají
postavy
sestup
SR
zákazníků
##strojů
##šce
představitelé
programů
elektrárny
Fis
kamer
Sněmov
##brá
zjistí
čtvrtý
##wer
hmo
##kus
Unie
systémy
trend
##dli
bere
##silo
spolehli
Králov
rozděli
ustan
přišly
Můj
tváří
turné
archeolog
praxe
##fal
##běhla
##řena
Rož
##dic
víme
##arda
Festival
palá
hledání
důležitý
vyho
Hrad
pěta
obraně
zjišť
pau
stranách
běžně
Kalou
současných
Původně
jihoče
##řicha
##deme
následujících
vteřin
účastníci
suver
švéd
vojáci
Žena
##žby
vlh
zákony
Zlína
Návštěvníci
Pre
malého
postavil
maxi
stavbě
##ženy
OB
exeku
nemuse
Pam
příležitostí
Polsku
nakou
jiném
momentálně
Bár
pořadatelé
prvenství
##čených
snímky
zážitek
kariéry
##ckem
měření
##teo
uhra
sedmdesát
68
Region
souvisí
nepřízni
Bon
disciplí
existence
##hlédl
výži
unikátní
nemov
látek
odchod
svědomí
nebezpečné
zvyšuje
##poru
automob
Zav
risk
##ovič
##fghá
Večer
ap
smet
Utkání
výrobě
zatá
nápis
Sez
##jn
obchodního
jasno
muzeu
Ren
známo
##kaci
materiálů
##vedla
bon
vytvořil
problému
angažmá
úva
Nova
sáz
slibuje
lídr
##vaného
fó
Izrael
určitou
##LI
##krás
##ývají
##nují
##terie
##nohor
trvat
poly
dařilo
Rozhodně
nada
##stickou
perfek
62
schopnosti
povedlo
Británii
získání
Tri
přelomu
##ráží
maminka
nemohla
světového
vyjádřil
Zahra
metru
švýcar
##voří
DO
##onal
zájmy
ztrátu
sklen
jednoduše
##erová
pneumati
Oby
Soupe
Začátek
Jizer
Písek
##ráže
úspor
málok
abyste
zopak
Dagmar
velitel
##lesku
Kro
střetnutí
loď
objedná
##SS
knize
##tání
##slov
Bývalý
diskuse
soudí
neznamená
médií
rozhodlo
původu
##něného
výhradně
Takový
Takové
chystají
Londýně
ozdob
síti
Senátu
akt
Úča
##zou
Kup
správní
Spí
dramatu
##orní
##mím
důvodem
vrátila
zámě
krádeže
##říč
##inová
##činu
doposud
Baníku
##ventu
def
RE
šestnácti
##hová
##zl
domácnosti
Budou
koord
ryt
##plá
Fre
poskytuje
##ovést
Vůbec
Šte
gólu
můžu
poplatky
##lera
prezidentem
Deník
zvítě
desetiletí
##avil
##škou
individuální
existují
##hlaš
elektřiny
port
tvrzení
metod
osvětlení
jízdě
##éma
Obchod
Boj
##cuje
SO
ohlá
Ger
nevid
bak
##šim
Pardubic
vyčer
klání
gólmana
firmou
obliče
snaha
obchodů
nebudeme
##10
rostoucí
##OVICE
nezaměstnanosti
částka
sociálně
důklad
brány
##padla
72
##lební
dějin
vyčís
odejít
krev
##AB
##šenou
úspěšné
živoči
##loží
##are
Koncert
desky
Mluv
##anční
občanské
rozhodování
nestalo
jara
rezerva
##deční
rodinné
učeb
Tuto
mimořádně
##bez
chat
doplnila
hrálo
nezmě
Náš
trošku
značné
textu
podobných
nejvýznam
triumf
##šu
##dice
##struktu
##mera
tlačí
neexistuje
##tejner
používají
Austrá
IP
odě
##pce
Motor
##NÍK
Odpově
##ovosti
hoř
##lét
policisty
maďar
ukradl
Měla
vyhlášení
předvo
##zovala
zastavil
##kři
Výbor
něčem
##zených
##NÉ
ztratil
světla
jet
spokojen
hodnota
celky
odpočin
Domini
kino
Pob
anket
Oldřich
německých
letadla
místního
grafi
##álem
kanad
přijeli
odstart
opozice
##ologie
vyšlo
##nuli
atraktivní
Rakousku
vzhled
marketing
##tt
tvorby
Vid
skand
zle
slunce
Sprá
##leji
##odob
Člen
výroba
##rku
kytar
liší
zaží
házen
úsilí
krále
každým
ojedině
čtení
popí
##pustit
klou
##čany
jmenuje
vyrovnání
##nový
zápasem
Blu
kuli
vylož
vítr
sál
ochut
Myslí
Portu
##inku
stálo
povrchu
teoreti
Část
##slan
vždyť
##nína
Ange
Hlavním
vydělá
změnil
vzniká
zajímá
cestovní
Zuzana
##DA
Olympi
Můžete
Koneč
narazil
sedmnáct
nelíbí
com
týdnech
pověst
gymnázia
Závě
Jesení
spravedlnosti
nejmlad
charakter
##zely
Cor
pozemku
mých
štá
znamení
zkon
přenos
##koru
využil
konstrukce
Budějovic
jakých
následky
nesmě
##šle
jád
Smet
řím
bazénu
břehu
Práce
nosi
zub
Put
ústřed
##ENT
hektar
nechala
##šetř
##int
##odo
Okresní
##bat
skvělé
autorů
figu
nejmenší
řídit
metr
dobou
zahájí
##grace
Většinou
##ávali
soudem
Dům
ša
převzal
##vůj
##pád
ozbroj
pivovar
##chal
předsedou
vyvrcho
doplň
Nedě
##ip
drah
Oprav
oken
##now
brance
situací
studiu
úvěr
podobného
souboji
Prahu
takzvané
rozhodovat
zneuží
##škem
vítězů
reagovat
##něnou
##ns
Nedo
Vond
mlý
tip
prodává
vývoji
Ener
roh
fakulty
##KÁ
pohodě
##mější
Varech
přehrá
##sali
is
Několik
horo
hostování
týče
vysvětlit
ukáže
sval
glob
krajských
nemovitostí
##ristické
pohře
zah
##jezdy
Tran
##chla
ubytování
1945
##čár
Chr
Miloše
##SA
bývalých
staly
##letu
hrozně
bývají
pozoru
cibu
##síme
nestačí
##dav
67
Kostel
##jímají
podepsal
zástupců
dospělé
předměty
##fikace
ničem
armáda
vším
Hasiči
bul
MA
čtenáři
Krejčí
otře
nos
zemědělské
větších
basketbal
klaví
Dán
místním
##líček
##zájem
orient
##ovanými
mel
##bert
##nisá
##nese
věnoval
##esta
##nižší
##pech
ošetř
opravd
Set
Zákon
Tan
##likvid
infrastruktu
výdaje
playoff
překvapivě
odpovědnost
doj
dívka
bojov
Tho
dětských
někam
fan
poky
Příbrami
jaro
volbami
##uju
bé
##ničku
vyhro
vlak
projed
Předseda
zelen
nejstarší
jakého
manipu
##sh
Ostatní
Voda
podpořit
##čům
představil
špatný
Pokračování
##strono
Slovan
psát
Kříž
podpora
bro
##teorolog
Červ
linky
##pouští
integ
pátku
##láním
##cro
údolí
Malé
byzny
internetové
Čechů
##tečná
trasy
##čkové
Schwar
prosa
útě
##tickou
užit
přesvědčit
připadá
pohon
Sva
formy
odvět
skli
marně
návštěvy
vrst
sestavy
Litvínov
specif
jazz
jednotek
osobního
instala
##vech
Rum
dáv
natáčení
##kin
##nuté
##čká
Jakmile
Šť
Sb
diag
##ŠÍ
vyžaduje
frek
##ína
##líky
ab
##álka
Sedlá
Řekl
odstav
zajiště
Vím
investic
Michala
##udr
ohledem
Skupina
řekne
Poháru
##lily
##kyni
jízdu
alternati
bolest
prodávat
##zdrav
oddílu
sezóny
hráčům
amatér
##účastní
##řazení
šampionát
správce
mono
barok
respekt
##hen
Hled
organizaci
##mách
##éři
přinese
kuchyně
výstavě
matem
vyrovná
investovat
reagoval
dotací
##dol
otevřené
favori
##níček
loňský
úspěšný
odpoled
úvahu
vypro
##važuje
##jka
zve
69
úspěchy
##ňák
##nesení
vnu
objevily
výcvi
souvise
##kovský
učí
Davida
dvacát
zahraje
vyjedná
##řství
hrob
Evropa
Kle
Návr
##lib
Věra
určen
Hub
lic
##atřicetiletý
šlech
kontejner
unii
hlava
Mit
05
vzduch
neplatí
hledají
růž
herci
ostře
##kladem
nejsil
hrou
zpěvák
jeze
jo
autora
mzdy
vypadalo
Helena
sportovních
MI
cyklo
bezplat
výno
kapito
nejrůznější
kůži
188
Internet
nohou
##óna
Velkou
vybral
jejímž
energii
držet
Wo
jinými
otevřít
koupil
##arch
Air
informaci
hypoté
##icko
Tip
připravují
Hráči
Začí
Moravskoslez
záznam
systémem
nerozhod
Hab
zákazníky
představují
přijíma
ustanov
záležitosti
Dru
automat
pobí
Hit
##illa
##ženě
Miloslav
demokraté
##cených
hloub
výhra
pohledá
očí
Mor
Šeb
dlouhý
někomu
neděl
KR
Paříži
##inský
starého
připravila
režiséra
novináři
Pozor
nikomu
mléka
Arch
biskup
modely
ME
atleti
nímž
1968
York
managem
doda
politickou
##lod
##vým
noh
anony
funkcí
##ben
Zad
700
##fikov
nasazení
Sedm
##telnou
sídlí
opakovaně
přen
hodinou
snížil
NAD
jazyk
proudu
sklon
obecní
Tachov
kombinaci
Litoměři
litrů
##líka
tváře
##čnosti
podal
##chl
top
zřejmé
vysoce
terén
internetových
znamenalo
Procházka
Ší
73
##děly
Hodonín
##námit
šta
Vlastimil
nakrá
Hokej
soupeřem
objas
Zvlá
##nolog
ředitelem
písk
poškození
týdně
paradox
box
zato
objemu
památek
úřadů
Otevřeno
dosáhla
doufám
sdru
##ovská
poměr
musely
demonstra
střelou
##TI
trénink
##jů
##rád
nástroje
skladby
##loha
Len
Poděbra
nejnově
strojů
závaž
útočníka
vdě
vybudovat
úředníci
brej
volejbal
ras
porovnání
jelikož
automaticky
Kav
##zeli
odlož
##hách
nepochyb
seriál
spolé
devadesátých
třinácti
Hlin
neobvyk
levnější
míře
JE
podnikatele
vybudování
##ňové
##organi
Mnoho
Bruselu
tělocvi
Byst
prince
pun
kolegové
vytvořili
##léze
výhodu
tlaku
##áž
##kovicích
lázeň
##aliz
kontin
Znojmo
obchody
vážné
diplomat
##AP
zprostřed
mezinárodního
mozku
Vzpo
Úto
##řez
##íně
nesmírně
důležitá
menších
van
pokaždé
Egy
vybírat
spokojeni
dozví
Chu
##skají
třetinu
Plá
evropského
pocity
obchodních
zvýší
Vojtěch
George
Komi
##lační
jídla
##bám
závěrečné
peněžen
Pale
prestižní
klienty
zastře
postaví
##šena
vyjádřit
herečka
Neza
##lám
sklá
žádostí
zm
poraden
nedělní
kontaktu
objevili
Nemo
party
Hrd
sehnat
jemuž
počátkem
lži
tepel
Klá
obsadil
přeprav
nakladatelství
##heň
kvalita
##noucí
##hna
Sad
##cháme
instal
sokolov
beton
poznám
Mladí
##zemní
doty
bl
##ákem
Can
známá
Pospíšil
technických
fra
##torem
61
Mach
pamat
Každá
cukrov
Boh
dobrodru
##zít
volno
nahradit
odhal
pane
válka
favorit
instru
##rušení
činností
srovná
pěve
experim
přechodu
zlikvid
zavr
inteli
přivo
nízké
vydala
medicí
Fakul
signá
Vyškov
##zdá
denní
Ligy
##dejte
vznikne
optim
zahrnuje
prud
Písku
##mus
##enici
Speci
##chání
Severní
bed
nabídl
vydává
příspěv
##mán
##řelo
Později
negati
Rakouska
Karv
popsala
vstřelil
MĚST
bli
##tce
závodech
konflik
##zon
##oria
řeči
považují
využit
konzervat
##čák
Američané
ohledně
##šeně
zákonů
##štá
dodat
nejlepšího
##isi
Připo
Hora
trestný
autě
zdálo
zima
urych
Třebo
českobudějov
##telných
samé
##taj
vyrábí
Moje
založil
##EFA
důvěry
##bet
Chomut
Hen
veter
živnost
psů
##akce
Ameriky
francouzské
smů
stopy
##išti
objekty
Spartě
dluh
administra
zatí
filmové
připravena
##oder
##ser
Hud
přiblížil
standardní
Pouze
nákupu
130
oslavy
##čovat
##ovacího
nejúspěš
vašeho
místostarost
Cy
stali
bezmála
pohř
kampaně
čela
prozatím
způsobu
nynější
tren
poplatek
sotva
kanon
kob
rychlostí
##stně
##zar
produkty
##matu
##inské
##něně
typy
věk
zvěd
časopisu
žádá
Group
Dar
##zena
zkuše
##SKÁ
Třin
##lona
kulturních
pozn
pil
##JE
Obyva
vice
porost
zajímavý
odnesl
zastupitelstvo
Nat
přeje
Jágr
dřevo
neschop
některá
##zie
hád
##atý
Jste
přinesla
měsíční
##ujte
Zak
##cest
infek
Nis
Cyk
kulturním
dám
Portugal
osoba
málem
zje
##lia
##fle
zahrad
##šín
spar
##imb
systémů
Manžel
předchů
Měsí
vzniknout
zdůvod
včerej
smy
raz
##atele
čtenářů
##II
turisty
had
rohu
rodinných
##huje
ký
přístupu
metropole
rizika
vazby
pisto
ředitelství
zře
objevují
světový
Pelhřimov
lyžování
útu
vozidlo
Gross
modelu
##ased
magistrát
##skop
odol
##gel
FOT
aktivně
##sli
sekun
76
Dana
bavit
##clé
pyt
chyba
fotba
Ode
skry
1000
šetření
doplňuje
##tný
součást
dražší
musli
##stalo
spočívá
##enského
zaměstná
Američan
bojí
okamžik
##rního
patřit
Invest
Řada
odpovědi
nutno
hov
##amer
##ÁT
poměru
dostávají
unav
Para
Kře
##ža
britské
obran
vyrazil
Vin
rozhla
konečné
Dobrý
##později
říkám
##ctva
znají
ekonom
hygien
Luboš
pale
partnera
sestra
dynami
porušení
záležitostí
##lených
verdi
nebe
dnešního
##počtu
Kolem
stadi
Ab
investor
##kuji
ráz
myšlenky
rodinou
držel
atmosféra
##ovanější
##čoval
##čat
sý
KO
modré
Zim
kW
##zřej
##kol
spotřebitel
strážníků
fau
učit
důchodu
##pádně
DVD
podat
dohodě
sklep
plast
vyjíž
##dows
vrátili
Starosta
dceru
sl
reprezentaci
##kládat
dokumenty
Beč
##komunika
publikum
manželkou
Pas
směje
vozid
vámi
##vet
vyplá
katastrof
blu
nepromě
##náře
##terán
Přesně
cítit
přístroje
##pust
##chova
Atlan
Soutěž
nějakého
ránu
Sá
##zeného
budovu
map
prošel
##tší
dospělých
označení
AC
74
Mé
##zrae
americká
dohodu
vlastnosti
##metry
tvrdě
##čte
překá
pamětní
afé
Hla
volného
zóny
minutu
ropy
Havířov
Muzeum
soukromých
zani
Vysoké
##novou
federace
smrtí
Kučera
sporu
Zej
cele
trestné
šed
Kope
vytváří
##platí
zuby
církve
##řiz
kolega
##díme
karet
červené
##nající
pojede
FOTBAL
Izrae
##ranž
arab
Tereza
kvalifikaci
produktů
ČN
promile
160
nevadí
Vždycky
odrů
##tán
##nést
ostatním
brankou
Vaše
příkaz
zamít
##tivních
skončili
půlnoci
dalšímu
okolních
Červen
zůstaly
střelu
##ester
uvě
dok
mezinárodních
dálnici
porážku
##dělo
Barce
každému
orgány
vlož
záchranné
papír
##lický
##stanou
Fr
Chebu
myslet
Gol
##LOV
Zla
##ntál
KL
##domov
Vítkovice
##MĚ
zma
Mel
##kovali
pracoviště
##zali
pokoje
galerii
vybran
log
neh
Jer
##zelo
větším
Pen
##harmo
##vík
institucí
koupi
široké
protivní
zelené
privatizace
koupel
##stější
ztrácí
pacienty
##hodil
složité
tepla
autobusy
potřetí
##ith
Byly
silnější
Elekt
krku
výbav
##řských
gará
zástav
kapitál
##tnější
vývo
Provoz
originální
##čeni
rychleji
stůl
zmín
levi
Dal
plzeňské
pavil
střechy
drama
oblíbené
respektive
##UŠ
posto
##rační
provi
hráčky
přeruš
jednalo
Hašek
##lostez
výšky
##mrtí
cenné
fale
Ačkoliv
kilogramů
městská
věž
##ano
##váte
šper
okraji
těžký
AN
sebevraž
nevyu
zastupitelů
##lička
úprav
výhody
socha
##ářské
Dosud
překáž
Krkono
##ountry
stavě
psychiat
##číst
Luž
stavebních
Andre
##šší
osudu
##kovými
přilá
aneb
tenhle
dílny
Jihlavy
78
##ňan
lékařské
ženě
CO
Jack
út
##ózy
tyč
mládí
Jugoslá
nabídce
Osm
zajišťuje
Bank
##habili
obcích
kvalifikace
nejnižší
##last
Blí
cukru
jízda
Cupu
Nada
půle
čisté
Bau
##RAV
skle
##školá
Abs
##znali
prosadil
01
odtud
##áni
kem
zabezpečení
Clin
Windows
Wa
##novi
nepou
středisko
nedal
Pau
ohrom
kariéře
láka
vadí
láká
Klause
bezpečně
186
přijímá
##něno
mine
levé
Fal
Trutnov
prodejny
přímé
procház
##řát
SV
Zástup
##onem
##vence
kandidátů
##chají
nemohu
zjištění
Ul
Právo
přesah
##udy
smlouvě
průzkum
zazní
BRNO
##trá
##pustí
listopad
uvede
##ilomet
##skl
##zetí
##aněk
stanovisko
působit
sedmnácti
přijmout
režii
##bírá
zachránit
vesnici
Cesta
šikov
muziká
Lázně
neměly
znalosti
nejrůznějších
komentoval
dcery
jistý
Zřejmě
časy
rub
nikde
týkající
léči
devatenáct
literární
zaslouží
příčinou
techniku
perspek
##stání
##nar
William
stejným
UN
tenkrát
aplikace
portré
devadesát
rozv
Gar
představu
##lejí
přinést
Šu
##tovost
Cla
##čina
kompet
vyzna
##táž
##atřicet
čerpa
pobočky
mínění
##keji
##žnější
tru
##PS
##ůjde
hejtmana
opustit
pomáhat
uplynulých
Poslane
UEFA
Nejde
republiku
##aka
samy
ženou
Celá
##bl
myslel
##dý
reformy
bene
##stika
##náší
Moto
zbývá
Českém
zpěvačka
folkl
human
otevřena
DE
duchovní
##VAD
tratí
oznámila
vad
plaká
Klatovy
líto
nemocnic
Miss
přijal
nedokázali
Toho
##čině
texty
lese
trenérem
odpovědět
187
##MA
##razilo
POD
Staro
životem
AT
Pop
nedokázal
##tan
Kroměříž
nechybě
písní
##šík
domnívá
tvorbu
kategoriích
##čová
různými
dílem
##šnou
##inací
opoziční
##žbě
náhrad
Grand
Akci
Gru
vydrží
manaže
policejního
doporučení
večerní
##inem
Jisk
vypoví
výrobní
Jon
##pri
choro
naším
účtu
metropoli
oběti
sprin
trénovat
kouče
místy
přicházejí
lehké
Radim
##hnal
těmto
posléze
##čist
svobodu
Příští
šesté
znamenat
##líků
tvaru
Dis
konto
král
smích
vyspě
elektrické
rozhodnuto
koupaliště
##kojení
počtem
##rované
moderátor
promítá
letišti
##cená
Republi
Romana
síla
dnešním
##ůvě
brig
nejob
##bru
tituly
zvá
vyslech
účastníky
Mü
zlaté
důvěru
samosp
strávil
Číně
Komerční
Baro
digitální
generálního
Šár
plnou
##stán
likvidaci
Paroubek
odpůr
nějakým
neviděl
věděli
Situace
běže
hráčem
neboli
snahu
dokázala
uživatel
vyrost
Litomy
filozof
dneska
obřad
flor
Veselí
pohybují
zamil
snadné
skupinou
##vedli
##haly
šach
##tečnou
věřit
plát
promít
sociálního
zimu
Městského
Marián
čoko
Dodal
linku
##jské
automobilu
Lubomír
Milana
ovlivnit
odcizil
##áb
hodí
Res
délce
sum
##lišti
Vlad
Něco
nečekaně
pravic
Ačkoli
##hrozí
třetina
obří
vypořád
Ostatně
mob
Majitel
MAR
zazpí
armád
##allye
sběra
víte
CZ
provést
poslane
##hající
Diváci
volit
lat
Alexan
zásahu
##kládání
Rumun
muzikan
telefonní
##ládání
Šlo
ord
zajistí
zakázky
nepoved
existenci
uvažuje
ploše
umělců
##stice
##mové
herní
##žební
občerstvení
Hokeji
Lze
záv
detail
##ovává
vybrali
##nesla
prosaz
##boo
Štef
vzniklo
zvládnout
dobro
učili
##dex
cé
##chra
zlepšit
úrovně
##ters
ind
##ňovali
jesky
inte
osmé
Zub
slíbil
Klo
Alo
##entální
##što
Hrade
vyřaz
polé
##děk
##kom
##plývá
As
vyloučení
Mnozí
rodinného
##NÝ
připraveni
Zájemci
##entně
gen
##wn
stejná
##ovkou
mů
Škody
smu
jub
nejvyš
Lokomo
manže
Col
produkt
komo
nezi
včerejším
##EČ
člověku
redaktor
monitor
uzavření
##ers
##cech
naučit
těším
rozdělen
##áte
##ÁN
běží
##burku
Troj
##řádek
osobu
##mlu
Tomu
inci
nejenom
přístroj
##hradě
##EST
komunikací
##sea
Nymburk
Jistě
kanalizace
jindy
navzdory
Vra
##SL
cizin
Kubí
střelec
Clinton
dohrá
Lib
gólem
neprav
listy
maximum
průmysl
##bice
vysky
Sh
peri
obvodu
Schu
finál
##RAVA
dárek
letních
obchvat
88
Zloděj
výrobci
##15
vzala
trase
kůže
pobřeží
##sková
Krajský
Rady
vstoupil
Občas
potraviny
##edu
hokejistů
##padení
Severoče
nemovitosti
zájemců
Blesku
hit
podmí
uch
Zítra
Rado
svojí
##odr
zbroj
donu
##ovníky
útvar
módní
kádr
ude
technika
##káře
kně
hranic
jediného
vraždy
udělala
##pění
organizátoři
Mistrov
##kovo
##graci
##loru
##čenou
nespokoj
pohybovat
##šte
říkat
##šeno
zadá
pocti
podep
Dou
Far
##ovkách
láska
ublí
Dobře
stromu
změnila
mimin
##RAN
londý
zbytečné
##áteční
úc
zeptal
##ovníků
Veronika
eleg
postižené
platební
Prof
konal
Nevy
oprava
zkušený
##zlo
nezů
populace
##šných
Zejména
náhle
Klí
pohot
VZ
ruchu
celkového
##uman
skvělý
##nicky
tlakem
připustil
Což
brněnského
nejpozději
##sia
##ňová
##rálního
kategorií
##DR
##řicho
##pak
Zda
##řská
expon
mari
metody
daňové
certi
plus
datab
těmito
##ovec
soupeřů
vé
inspekce
cha
pozadí
příznivci
Ža
připojení
##pustili
##ovné
odvětví
Jihomorav
##roste
dovnitř
významných
Sí
##hopis
Malý
boty
##ware
očích
obsaz
##sť
DIVAD
narozeniny
Danie
Nel
##JÍ
prázdniny
požádal
Dali
převahu
realizaci
Micro
seda
##INA
Život
skrom
nepatří
ryby
sazby
konzul
rom
proud
koncertů
schval
##zeb
##znak
užívání
Malá
Strana
Jirá
##nickým
##kul
pacienta
pochod
Hodno
vyrovnal
Chel
dívat
Strakonice
Muži
potá
ukaz
02
##ední
plná
nejzná
sektoru
nastoupit
dnem
##kovu
stačilo
ustanovení
##pid
Tří
lim
lokalitě
Gott
Lípa
zůstalo
vůdce
výhled
vyvinu
nud
##IST
Nechci
námoř
zlomen
sezóně
##štejn
##anice
##razily
Aka
puk
získalo
##sport
##kářů
##lywo
zaznamenali
uvést
Nebylo
##tiky
bazén
krajiny
Velikono
opav
usnad
asociace
univerzitě
kdybych
##zav
seminá
společenství
Start
pražský
Madrid
vyšpl
MH
Kolář
USD
Zas
rozsud
úprava
Nedvěd
kontrole
kosme
vůle
dluhy
##liny
89
rehabili
bot
##uba
##rálních
##sticky
Černo
pomů
provozní
příběhu
nejdřív
hala
Afghá
Důležité
##átory
pozvá
seniory
vyhý
záda
mladá
tisková
hodnot
uděli
můžou
běh
Pomo
cíli
dobrého
úkoly
nedělá
dědictví
povolání
##turu
pevně
##mál
úmysl
kamarády
důchodců
bouř
##hodou
připoj
Ps
nevá
zahájil
sleduje
zapoj
Zhruba
##měl
Str
sjedno
navštívil
##jan
##wy
##hlý
oleje
knihovna
79
našim
senior
pobav
##zvlá
tvorbě
klesá
##vné
kouzel
příběhy
Eri
nemůžu
##áním
vyhlíd
##lonu
opustil
140
shromáždění
produkci
potká
jakém
Brazí
##áren
cyklostez
##dicap
odsu
dramati
110
Frank
vyplatí
komunál
71
kated
poskytnout
##nostech
##árny
Poji
remi
odškod
nepotřeb
##žto
přená
##emii
pátý
dispon
jablon
Každo
nejv
KAR
82
rej
poznání
neumí
nasaz
Karviné
##ril
##obra
Maj
##ičkou
testy
##likt
Karviná
##zce
Urban
Rodiče
kombinace
spodní
vzájemné
##taž
##řský
zjednodu
akademie
##žijí
pomáhají
přezdí
Bet
pojist
čtvrti
železni
Krumlov
uplatnění
konzu
nevěděl
Tex
##mněla
zámo
rychlý
not
plech
OST
studií
veteriná
liber
sobota
Nově
podnikatelů
##kilomet
Návrh
boku
Místní
největšího
##din
sídliště
Kau
vzali
otevřených
##viz
##OVÝ
Fab
letou
##rim
vysvětlení
##hrají
nástroj
##bytku
bojů
##berk
pivovaru
okraj
vybraných
dorostu
ohni
zbavit
čel
zdě
AR
##rních
bezdomov
Ap
##škr
zneu
##lejte
marat
tajemník
suverén
islá
Py
pravděpodobností
sůl
blízké
##sche
Bulhar
hudebních
##stavě
##wal
vrcholu
tajemství
navzájem
trestných
pronásled
Jane
##choz
mrav
##aroděj
rozli
mediální
Rokycany
funk
pokusil
ztráta
VŠ
##rover
stavebního
fáze
84
zúčastní
ples
##áváme
uvedené
##brali
platy
oslabení
zaúto
zapl
organiza
svátek
jazyka
odstranění
stíhání
##šer
##měs
plnění
rostliny
##nových
zpočátku
##ICK
jasný
sekund
nezbytné
řádně
čes
bankovní
považuji
rukama
nar
územní
projít
pul
Gym
##řených
vědci
homo
stránek
návštěva
pokuty
nákladní
fyzické
nesly
TR
alerg
Nád
měk
snažíme
určena
##toch
šum
##ram
naznačil
absolutní
Hranice
zachování
společenské
způsoby
##stánu
pojišťovna
severo
sex
obu
vzdálenosti
pěkné
spolupracovat
ukázala
##LAVA
komplet
##mují
##30
autobusu
##tner
doru
zneči
Bub
##udi
rodičům
humor
šťá
ministerstvu
##schop
##sie
rodiči
City
Potvr
hovořit
nedovo
vedoucího
Stavba
con
##pouště
##vidíme
určené
##žším
nejbližších
Radka
##bas
školky
plochu
out
měří
##que
výstavba
celých
Fri
stejného
kriz
##ánku
Frýdek
Ská
##adatel
##gace
zrcad
Markéta
Prý
harmo
pololetí
turisté
fyzicky
08
##námý
holči
srovna
##stojí
azy
##jíždějí
novými
zastoupení
##ovacím
producent
##děluje
ateli
dopravního
občanům
Orlicí
zůstanou
Centrum
jedině
cukr
adrese
##cením
předmětů
sexuální
Pon
98
Max
sestry
##žnou
Cu
##hoř
KD
kade
prst
tole
dirig
činů
##nulo
Poru
96
povinností
pozů
skleně
##SP
lístky
zásadně
##místě
provozuje
vyšších
1948
brou
výšce
Bl
Wor
Polsko
zadarmo
omluv
přis
##cházely
##eri
starou
Anglii
##onáři
přítomnost
kontě
##ávám
Nedávno
dětského
kompromi
Kvali
##nickém
prohře
nedostal
##tační
návštěvníkům
dobrých
učitele
orgánů
kmen
stanic
prosím
rychlejší
##dová
přibývá
Zprá
sobotním
Gal
závodníků
ranní
politik
vyřad
##ňá
dlouhých
##oboleslav
##kovské
tí
lepším
##ňské
reakci
operační
jakoby
SMS
rud
nejtě
Bush
politický
celosvět
zmíněné
veterán
zdravotních
spě
moste
partnery
těžší
svát
zlom
dokumentu
rodu
vyprav
ovzdu
##cejí
čekali
střechu
středoče
čistě
úmrtí
penalty
mluvil
Dobrá
objevit
##řenou
přínos
Brou
Vysočině
uzá
zranil
zmiň
Nejča
##nci
dluhopis
slavnostně
císa
zmizel
nosí
dárky
odstranit
využili
zúčastnilo
Východ
kří
fotbalista
popel
pořídit
řadou
rostou
##měsíční
rozdělení
Jaká
##třebu
soutěžích
zahrát
přispět
Roud
Nemocnice
majiteli
vesel
rozehrá
rychlo
Oproti
dávky
útoky
oddíl
webových
divákům
trvalo
koaliční
italské
##óza
Kore
potvrdit
97
debu
vyda
Bohuslav
pokoji
předpově
##itky
##hol
dveř
##stím
pracovníky
širší
trvale
Světového
Eu
záři
Svou
ruského
##rála
desku
propoj
##rumlov
Art
konala
##LAD
silniční
pruh
##fikaci
kvalitě
těs
prostějov
postižených
vydali
rozdá
diskusi
prodava
slavné
##lastní
původního
350
86
domku
los
dodávky
Ženy
dopla
Fischer
dopadne
úkolem
poplatků
politická
zvět
Vysočiny
zvýšila
centrem
basketbali
manžela
##perto
Police
##vna
vybojoval
zaplav
##dělali
Moskva
FO
##pie
Viet
nejkrás
volan
lesní
cenou
čísel
MUDr
Roku
lžíce
##byla
zúčastnit
Společně
sfé
efekt
kuf
##leba
zkomp
03
domácností
politického
87
šam
Rock
zastupitelstvu
nahoře
Výsledek
chlapce
zaznamenal
Naši
zelených
##iz
neleg
BM
Zji
##menším
vedlejší
##hlíže
výběrové
výrobců
PA
##ality
slavnosti
odpovídající
předsti
Sním
##ovských
dramaturg
##kyní
2015
##ille
sedmé
##olven
kuchyni
Flor
brý
udržení
chut
##uer
fand
prefer
odsouzen
stupeň
přid
##milion
obrovskou
cestujících
##lop
pozemek
Dnešní
pátrání
vejce
zapá
zrych
soukromí
##bin
porce
rozdíly
zása
##nuta
inženýr
snaze
Em
skončily
Opat
##kodob
jablone
výhry
zajímavá
##orizon
obnovu
rytí
##bů
zajímavých
Dušan
svěřenci
supermarket
Úspě
##ĚJ
mrzí
souhlasí
##mrt
podně
zadlu
zlepš
sportovního
81
zvládli
Dukla
přibý
účely
veletrhu
Berou
Někdo
znič
Sokola
Rober
Kopřiv
Tvrdí
Překva
spraved
Vám
dez
Bak
občanského
úspěchem
ČM
ministrem
byto
trzích
obrana
sochy
Juni
reklamy
členství
výtvarné
poradce
Divadla
vlaj
garan
##hodnější
přijatel
Paní
nedaří
Těžko
pracovního
virtu
milost
##anými
Československa
##klop
ukraj
televizních
lodí
##raději
raj
restaurací
chlu
Had
reklamní
##sexu
výstavbě
Čap
ošetření
vysíla
##povídá
ovzduší
plní
vlaku
novinách
vůli
Agen
##rály
Smí
ukončil
písničky
dělali
ploch
proměnil
moz
pěší
Rok
##ye
pojetí
věže
Záleží
##andar
nasad
Veřej
komisi
Johan
moři
dest
učení
##ÁR
atent
##žných
Boží
##edii
rozporu
barva
##rava
vzbud
Byd
##sce
varianta
Nejsem
papíru
otevřeno
##board
Argent
nápoj
podílel
##ejmenším
##mená
JAK
schválila
Bosk
##ckému
tend
berou
Buď
román
sdí
programem
pomohla
##lovice
objevuje
##sák
##čeného
soboty
poslance
úvodním
##ralo
číst
afri
zloději
počkat
absolvoval
roztr
##ležet
Naposledy
Jaz
Brodě
zú
krásný
Del
zasko
značek
fungování
místopředsed
##těte
přetr
handicap
Řez
Oček
publici
skutečné
zažil
zpochyb
výher
##hád
##dišť
##ction
používání
nejsme
##níkovi
poledne
##třebí
provádí
psy
odmítla
vstupné
zobraz
Ker
policista
hektarů
obtížné
oběť
##ces
##lování
dějství
silná
BUD
úmys
Avšak
rozsáhlé
##lického
Opavě
PET
ture
správný
demo
pracovník
Oh
tráv
##ceno
známého
zahaj
Veselý
mluvčího
##lená
Spojené
drahé
Města
poradit
zabezpeč
##ovatelem
nesti
Anglie
myšlení
dosahuje
kabině
vítězstvím
Bůh
malým
Wolf
scénu
konání
vstupenky
kámen
záva
Smr
Taková
nastavení
Rakovník
patro
lidové
svěřen
malém
Smo
Doub
šedesáti
ODA
##jíždět
finance
trenéři
dobrým
##jez
hní
Iva
dž
obsahu
čtyřikrát
partnerem
zjistila
cestování
fotbalisty
tempo
fotoapa
diskoté
ochraně
##ceny
příspěvky
##rot
##nation
##tví
krajském
kluk
Ryb
158
ukázky
Zů
Zdravo
##slavi
##dorf
domem
Mana
Havla
čtenáře
##omet
Žižkov
UDÁ
83
korunu
Dříve
olympijské
pramen
##ister
srb
rozhled
zrušit
ukazují
UDÁLO
Gam
úvěrů
zastavení
intele
patřila
malíř
##zín
nadšení
KRA
Kohou
baru
Kdybych
pohla
soutěžní
revi
##mněli
Koste
##chovan
prestiž
jízdní
##čelem
uvidíme
betlém
navrhl
neli
autorem
Dopravní
##ding
překonal
skr
krokem
##andal
příjmu
drogy
Lom
06
Jablonci
##odár
bomb
fotografii
Pokor
prázdné
##IK
Frýdku
Obyvatelé
Předpokládá
poslat
Vyplývá
##asu
##brod
spek
okamžit
referendu
ada
nesouhlasí
zjiště
##enému
##vými
úředníků
pochvá
##stoupily
pachatele
##idu
váží
rozhoduje
nedařilo
Číny
defenzi
mým
Evropského
zástupkyně
zpřístup
scénář
nahradí
lob
nároky
Moskvě
##zená
##žít
výrazné
Současně
obrazu
dlouhodobé
Sun
tuhle
##hodin
dospělí
kroku
zbraň
dokumentů
##lií
##VÍ
nekoneč
požádat
olympijských
##stevní
nezas
Víte
spla
kolá
dětský
cir
rozšířit
klen
uc
Hory
nejp
nevyhov
snímků
koleč
strojí
čtverečních
výpověď
ža
##mož
##ovců
zapotřebí
Staveb
hlídka
uzavírá
Mostě
Nisou
utrpěl
##alou
samozřej
VÍ
Lis
##těl
Takhle
novinky
nepřij
správa
mechani
výborný
klášter
##ilem
##ČR
##hledy
sběr
nemocných
##jímat
komfor
variant
reklama
##ložila
mezitím
Napro
Hlubo
získaly
zapomenout
plocha
Heř
výborné
em
Průměr
předvedl
herce
##sání
koalici
chro
##šl
Třinec
##dici
svátky
alba
titulů
Sní
slabší
Sice
jaderné
obchodech
pokusu
viděla
podporovat
nizozem
hrající
funkční
otázek
##iček
naprav
pošty
sme
nespl
stěny
##opat
chovat
porazit
##istům
normálně
tís
##ey
světovou
laborato
parkování
Havíř
Moravské
hyper
##hon
rovno
ruský
skladatel
Janu
nutně
sudí
tržby
##rok
neštěstí
osobním
stres
##tací
Bri
škr
oka
pohádky
věcech
##žád
potřebujeme
##řadí
##RU
##toval
sídlo
##BER
##hlížet
favorita
předvedli
170
dopravě
1500
vernisá
povinné
##rekonstru
vzpomí
léků
Opět
ohně
pouť
výsle
Otak
##alisté
čtvrtém
Čeští
Zemana
doporuč
Taky
kolegů
bojuje
Chá
##rické
ochrán
vyrábět
##jízd
Nemám
přerov
Chelsea
výsad
fotbalových
reprodu
předpisů
zvuk
signál
##alová
Vídni
##gl
kousky
závislosti
volba
autoři
vlasti
##pisu
částech
opery
##inné
určitý
francouzský
##ward
##cování
předmětem
úvěru
Eliš
podílet
##něným
postrá
školou
Ane
čaj
literatury
odně
vykou
hý
zákazníci
učitelé
líčí
sor
zřízení
Vstupné
mladého
usnesení
kláves
zvítězili
reklam
opravit
zho
zabi
tance
pacienti
Ska
znásil
Teplicích
prochází
trou
psaní
Čína
kanclé
Systém
Sovět
představy
Drá
##ME
pará
##oba
Informace
Janou
Žádné
##hlíží
Budu
Lékaři
Paci
původních
##vaným
pouhé
Ford
samostatné
společný
##zeno
Up
milióny
zklamání
žijící
střetu
##inout
sešli
reperto
Moder
Microso
pracovnice
Mý
získají
nůž
##alík
považovat
tržní
##tivním
Či
sebevědomí
dělí
malo
##chozím
Washington
startem
Vánoční
cyklu
cítil
##advacát
##anské
opakovat
podílu
teorie
územního
Matěj
britský
Rovněž
žádat
cestách
##nového
podnikatelé
DIVADLO
PŘÍ
Tlu
##šovice
architekto
##čnější
vají
čísle
představitelů
kostým
Rychnov
předlož
zdán
07
Saz
nava
inscenace
Rakuš
um
rozděl
##IČ
vyhnout
##tre
Vav
krátkodob
Jiřím
písnič
Nek
##hůru
Chcete
kalendář
Gó
lesů
vzájemně
Dukly
umělé
architekt
##nální
##cími
revoluce
epi
##jdu
rop
něčím
Ali
slovenský
strategie
teku
Komen
Rekonstru
##CO
##national
neopráv
dvojici
##covat
zam
přehlídky
deska
##rnou
##kora
IT
##ness
možných
uspořádání
navi
Mluvčí
díly
svědky
vedlo
lak
nepřes
Haná
záměru
přiznání
##meček
SOU
oborů
pravidelné
prsty
92
zábra
koncepce
ekonomika
Tradiční
řešením
spoluž
##stral
##stava
patře
postupem
Odborníci
##čkovi
finančního
Černá
UDÁLOSTI
Wi
napadl
bát
obdržel
##kot
některým
údržbu
Druhou
Afgháni
Topolánek
##nerová
Kel
prostře
jednatel
městskou
Ram
vznikly
srazil
metra
snižuje
šaty
ČNB
zk
zazně
Kladně
extralize
vstoupí
podlehl
fondy
důkazy
telekomunika
souborů
Rá
nádvoří
psal
pokusí
volných
##šova
současná
##igh
Fra
Mistrovství
filharmo
##asedm
dveřmi
vystud
lodě
kulturu
renes
Studenti
##kant
SN
dělo
legendární
přijat
##lné
bel
premiéře
Původní
demokratické
rys
pořádají
zanech
hold
900
Mostu
sad
##lně
ponech
##itý
##dia
Mali
Jelikož
zabav
Vrá
##zeným
ústavy
zabrá
##bie
přemě
argu
Americký
SD
Edu
Vikt
seznámit
zahrál
04
nevidí
nápo
kalho
naruš
unik
##poli
irá
promí
rou
životu
matemati
zdravotním
Dyna
##entálně
uchazečů
obchodním
chvilku
projevu
starat
##pali
##chopení
odchází
utekl
bohaté
Pom
vedly
##res
prvků
##kovala
figur
##rium
##bici
městský
##dím
Ok
naproti
##vel
spách
Marka
##hodný
porážky
odpočí
klienti
kanceláří
odpovědnosti
trojice
polské
potřebovat
míče
rekordní
##inger
country
Krás
výlu
##wag
##ctav
##tečním
narodila
Hoř
popular
Pražské
stříd
##lony
##ller
##řského
##ceni
školního
šetří
Daniela
válku
Egyp
tajné
Minulý
Dej
Kluci
spořitelny
napsat
celostátní
Fl
hli
##OH
trávníku
##skupení
řídil
mladších
##řek
dobrém
##premi
Sobotka
mužem
##zla
Radní
rozhodčích
demokracii
Náklady
nejsilnější
##ržel
Stre
komunisté
hokeje
velikost
palestin
Pacha
důchodce
chů
utra
odevzd
procento
dřevěné
##ďa
lidech
živé
nevěří
sídlišti
Chybě
##low
plí
##rodním
##vár
mém
teplota
sledování
Hlavá
podobná
ČSOB
seděl
nominaci
Hospod
lidská
přátelé
trasa
schválili
odborných
zablo
předních
kontrolou
slavného
nepomo
čte
prohlídky
připraveny
trav
nepříjemné
manželem
ankety
kapli
doprovodu
ačkoli
kratší
##slanec
duši
jakékoliv
gymna
von
příchodu
##istka
ZD
probíhat
cigaret
hradě
Moz
nahlá
##UN
zůstali
přidat
Is
Fol
kř
HRAD
pravid
Zaměstn
Hoře
šedesátých
odhaduje
tito
##andra
totéž
hrů
Bas
krásně
##entuje
ukaza
necí
##jezdem
poklesu
pta
Paříž
spory
penězi
prázdninách
vytvoří
remízu
Růžička
##mák
Tru
##lalo
učitelka
medailí
humanit
neztra
napadlo
setr
Neuman
majitelů
relax
Poku
debat
multi
mrtvých
Sportovní
##cker
předpisy
česky
deleg
pokračovala
značku
zpest
##dějící
závad
splnit
Mně
zkontro
##enechá
modelů
plném
##bala
postavili
uzávě
bezpečnostních
obdrží
tiskový
Prodej
kosti
Paul
##lich
Hokejisté
představi
neří
nástupu
elitní
##tíme
bydliště
HDP
##vézt
##louho
databá
##tkách
státním
dohoda
Ministerstva
Hradišti
lídra
##řál
##fest
Poč
šer
Oz
gest
Libu
BA
studovat
mužstvu
nařízení
##GA
##lami
##cenou
lyžích
Petrem
##níme
##ls
##řuje
intelektu
##nesli
knihovně
##zkum
##pila
vašem
vnější
##zující
vládou
##attri
hoře
biolog
Vlastní
týdnem
Basket
havar
##sion
Říká
##umím
##něme
úde
členských
blíže
důsledky
známky
jednomu
čaroděj
datum
Viktorie
Der
psycho
zimním
##ier
vyzval
tématem
parta
připsal
Krnov
luxusní
okolní
Bes
##sáno
##ÁZ
cítím
ekologické
vítězem
sympat
##ous
otevřela
##jilo
Havlíčkův
##lement
policií
##adla
zachovat
vysokým
odjel
vlaky
Můžeme
spojit
zrekonstru
dohodli
francouzského
Univerzity
doporučuje
krásná
##stily
doufá
rozvoji
neskon
kober
přímý
jakékoli
vyú
Mexi
zajistil
wor
pokusy
jeli
##mice
nastří
motoru
zvyklí
zaslouženě
jezdec
Kvě
sleč
Nevě
obory
Monika
provo
proběhla
devatenácti
necháme
##myšlen
Žádný
##mentem
##ica
Im
zkusit
elektronické
##dáme
##stickým
překonat
úraz
Stalo
##zory
##tochví
Svobody
Kamen
##dectví
Opav
oslaví
nehrozí
demokratů
Diva
císař
celkový
historického
##růstá
hrdin
korek
AP
pravou
deváté
stáří
##luk
Konečně
zítře
nefung
##érem
##bík
Bern
##dera
Čt
pravý
divu
aliance
vysokoškol
výpad
nechybí
Správ
pádem
Chrá
VE
privatizaci
Úřadu
pití
##amí
dívek
Soupeř
produktiv
Cer
Patří
##čeny
lásku
tábora
podmínkou
export
##znamy
kvar
farmá
Svůj
##čující
platnost
evropský
klavír
letecké
bývalá
nejmladší
názvu
##ovem
Zná
nezd
Brodu
potla
těžká
zdravotně
odměnu
centr
##DN
zvítězila
Raj
Hře
odchy
bance
podoby
budování
##lenou
tramvaj
##ény
večeři
prop
Řidiči
znění
Londýn
##oviny
Don
záchranáři
tráví
zájmů
nechod
Luděk
nastal
odhadů
chránit
energií
meta
poza
zro
Městě
osmdesátých
připravené
bilance
mlu
podpoře
nedalek
tradičních
EX
ambice
nazývá
náhradu
plave
##žď
Zastupitelé
zásluhou
##fiká
sjezdu
zábavu
dáme
##KU
Francou
Ander
stoupá
vyná
pilot
hudebního
##nutý
##střel
##kovského
záhy
asfal
##urt
kaná
##boř
##ouští
uznání
Vino
změnilo
Manch
chyběl
kým
##sků
Univer
správu
ofenzi
sešlo
scéna
zahrada
koli
##adel
startuje
radí
OFS
##mas
tvrdé
úst
Premiér
Slunce
##itz
Opravdu
kompen
kurzu
hrách
aj
dív
odborníky
učitelů
přinejmenším
Vltavou
Vídeň
mezinárodním
International
##tru
výchovy
Dem
vévod
alb
184
Zach
blesk
ir
PC
chová
padl
radosti
ostravské
posed
půdu
rezervy
##stoupilo
Hlad
##mentuje
unifor
##bulan
Výbě
##emori
Rot
Janem
Koup
přidali
gig
znojem
Komise
přiznat
Příběh
MP
Pub
říkali
Silvest
paliva
Volks
##livosti
soubory
nezaměstnanost
sluneční
##tivu
sná
PP
kontakty
jestliže
stačil
státem
motivy
románu
meziročně
plánované
současnou
Ind
uspět
Postupně
utí
oš
Alespoň
prohra
závisí
horizon
mimořádné
##gii
##enom
dikt
War
pozdější
Antonína
krajů
představila
Letní
peči
sekretář
##staly
Královéhrade
dni
Šťast
tahle
varianty
ima
neje
Ara
Jakuba
JAN
ostrově
##hoten
špatná
spolku
uvědomit
nejnovější
píseň
potvrdili
tot
vloupal
vracet
stížnost
Morava
dvor
týkají
svěřil
vyrazí
Chla
91
zemřela
dobrovolných
##síd
Hr
kart
recept
##enách
velikono
Nejdříve
##átko
hospody
desáté
kub
setu
##raných
svate
Zám
Dře
##niček
Evropu
zbytky
uzavřena
dorazil
přál
usmívá
CS
významně
omezit
čistí
schválení
Varů
##skové
zážitky
Labe
##chozí
vlny
Růž
vhodný
vyrazit
automobily
samotný
kilometru
snažila
sparťan
##ladě
dozvěděl
nedávné
Oslav
dokážou
IS
FOTO
Druhé
robo
prostitu
Bruntál
Vyšetř
páteční
kapacit
serveru
národa
##řte
##hrani
naděj
##žu
vyrovnané
investorů
Výrob
koupí
teplá
Ki
nepřetr
kině
##padě
Domní
památku
zmen
maminky
##mono
půjdou
vyrovnaný
posílení
nechtěli
Patrik
plic
##leny
klesl
Rez
známe
##TCE
Zo
##tko
chlapec
ženské
nacházejí
předchozím
##hop
nemusel
##ris
##hám
Kladna
Podobné
Rozhodnutí
dopadlo
konfliktu
požadavek
##hm
připraví
exhi
##žad
kočár
poslech
##tový
paměť
účelem
##celku
Poda
Kre
Top
kamery
expozici
náladu
Zákaz
poznamenala
##tvo
vzpomínky
##hým
nejoblíb
vytáhl
umělci
zúčastnil
myslíte
záku
tématu
osma
Asociace
Rakousko
vzhůru
##gin
koordin
##spi
##gers
kanceláři
přesá
omá
zeď
sma
mléko
AB
zdrojem
vyčlen
Dv
výnos
##taly
Cal
##keš
následovat
věznice
červenou
vinu
liberecké
##divu
počítači
slyšel
##bírat
propag
Prostějově
bratra
holky
Frýd
obez
kolena
sledoval
lokality
lam
postupovat
fe
##žívá
hrací
##ORT
##ložka
##šta
Stro
nastoupili
zdravé
har
jejímu
papíry
vytvořila
chorob
německá
##raly
Gymnázi
Střel
psí
faul
##hyb
Arm
vypí
##akcí
##vač
##letému
##sona
##mostí
spojuje
papež
Soutě
prohlásila
orchestr
přijela
věři
sněmovně
pravděpodobné
##covou
akcích
Hroz
juniorů
Zra
proslav
Angeles
nepřátel
důležitou
##FK
Vej
zádech
##cionali
##anka
##kostí
Prima
fut
AK
zraněním
ačkoliv
rozmezí
úsměv
jakmile
trasu
Blažek
Úvod
epid
postu
##ako
cheb
hrajeme
spát
vzestup
zakladatel
vznikají
##žem
dráze
##lemi
pet
Hlas
Barbora
##áže
Udá
obyvatelstva
příchod
snažím
počítačů
obrázky
chrání
ruských
letadel
mříž
##sper
podvečer
##ceného
uzavřela
témata
nepochop
OE
letošních
efektiv
Vás
##ČE
##držet
Dlouho
##niny
kopí
touží
připraveno
právem
m2
poc
pardubické
lidu
vyjít
rozhlasu
čekalo
##šák
nezí
##turní
zábava
Těch
lavičce
ztrátou
podobnou
Ptá
sálu
změnám
Such
Nejvíc
hus
##tep
dotazy
Ide
##ánský
Celkově
Starší
technikou
##nin
zahájila
poměry
Šárka
konají
informovat
vlakem
##ču
člena
generaci
nervy
úvěry
dělám
RAD
zkouška
kontex
125
##mund
otázce
##vaku
stoprocent
chlapci
design
jmenován
##kazy
poří
léčbu
absur
##cal
dolní
##bíral
uzavřít
Uvidíme
probíhají
oheň
##mach
nepochybně
bohatý
neustál
sbírku
##nechá
##tahuje
krvi
uskutečnil
94
černý
státě
společnou
Drob
přesvědčení
solid
##stein
##řeně
protá
##ovna
prodejní
měřít
branka
plavání
Blá
Lys
##zovaných
ústavní
komerční
##živa
Záme
Podmín
opatrně
stíhá
Parla
Místku
vesmíru
příjezdu
prezentace
našt
kluky
čelí
podílí
##vanější
Zví
Il
##kující
obsazení
transforma
obrovská
##mena
konstatuje
ledu
Blansko
kurzy
vašich
neudr
Potřeb
mála
stole
##čtyřicetiletý
prodal
Lovo
Vedoucí
##vab
sháně
##icí
##deb
Cap
vlivu
uzavře
##gas
##peme
chodce
radu
přispěl
tyči
odstar
čekala
experti
Svá
rybníka
dráhu
slavný
##livými
nedokáže
historicky
##atuji
netradiční
note
vrtulní
výměnu
novinářům
dokázat
výpla
obviněn
Rokycan
třicát
##dio
Vrati
Význam
narozenin
déšť
pustil
složitější
Přerově
Reu
pracovala
zákazník
prevence
##rův
pré
povodně
provádět
kaple
nehoda
změnou
prudce
únor
##krý
štaf
Konkré
##jiště
Kovář
podporou
synem
kníže
nehodu
##rná
Poslanecké
olomoucké
report
Kláš
správě
příkladem
Pořadatelé
vesměs
upozornila
##itá
vychut
hostům
pódiu
vlna
přítomnosti
spadl
téhle
projevuje
invali
obličej
přips
významný
bezpečí
##lehl
dová
jednotka
komunistické
ako
##letých
kolektivní
##LÍ
pum
království
ušetřit
přízemí
##ida
přivítá
##atolog
Še
argument
KON
odpoč
meteorolog
vyko
pochopit
těhoten
Oni
dekla
zahrád
inflace
schrán
Augu
chodil
trub
oběd
kopce
##hně
SI
ekonomických
radši
rolí
##tuře
##kar
Las
93
##až
policistům
utkáním
ambulan
důležitější
elektráren
Nadě
Znojem
zloděje
pocházejí
pěsti
radio
ponděl
samotného
standar
nízko
Kratochví
##máhá
přislíb
nejtěžší
Otro
Louny
Mikuláš
pětadvacet
zády
Uherském
cestovního
palu
Harry
##šelo
vd
impul
pozornosti
##tých
okno
Zástupci
osobě
uklí
spotřebi
jimž
barvu
Kob
Tal
##terý
Celková
výpovědi
belg
nohu
zóně
lidského
zájezd
Zvý
silnou
ulicí
##inásob
nástrojů
morál
okupa
míra
Bohumil
##platek
zvolit
nenápad
##dii
nedostatku
hudbou
##pili
princip
pravomoci
zmoc
Dostál
##nií
významnou
souboje
zapojit
##cií
pokuta
poma
##onář
určitých
shodují
Trochu
skan
vraždu
##mické
##hart
Stanislava
##žného
speciálně
zakázek
pronik
##zeny
##ňovala
připravovat
příště
##árna
Vrb
Výsledkem
Bystřice
nedůvě
##letým
TIP
##čar
najdeme
##ánem
líčení
Místek
tratě
bojovali
výjimky
svědků
výdajů
světle
pětadvaceti
uživatelů
nekomp
##láme
##jelo
nedosá
zahájili
čistý
bezprostředně
##znají
restitu
komplikace
##has
definitivní
Domažlice
##labí
##livou
úpravu
úklid
patři
volantem
##letěl
##gna
pilí
Spartu
místnost
##sení
##rátit
Dos
##sice
voliči
přesné
zadrželi
##tná
nezbývá
Kniha
repor
účinky
větru
zastoup
##jních
manželky
prask
metry
##vec
TE
trů
brut
křižovatce
Bohemia
Mou
vozem
Svitav
cizinců
Mlý
Způsob
Investi
##isa
Existuje
##ticích
komer
Até
loupe
telefony
Lub
Městská
architektury
příznivců
vzděla
optimální
přivá
##líková
krav
obrázek
nevíme
revoluci
##éhož
dokumentace
zaměstnavatel
psychicky
nádrže
##zovaný
Blat
Strážníci
ovoc
##tečných
##nský
Prvním
##šeného
##stát
kauze
jubile
toleran
##TER
##fun
##loužil
nechtěla
Mohou
jímž
Fren
běžných
kompon
vysvětloval
Nemě
aero
komor
pomohli
přenosu
##pku
##kle
##kobrod
zaregist
##anová
hospit
celkovém
Cenu
vidíte
Problémy
významu
navaz
##BO
celků
síni
sníží
##nia
1988
185
##tří
FI
stačit
odehraje
třídu
ztratili
absolutně
nale
pronaj
##atur
##tav
předeš
##právní
smůlu
dneška
Zbyněk
Šumperk
požaduje
Myslíte
poděkovat
nabízet
zmrz
##bení
##álky
obsahem
děčín
upozornit
zvýhod
vydě
značka
východě
Konec
potřeboval
Tre
jezdci
pouště
odmítli
Holub
barokní
Výkon
##inační
přírodních
Stará
německém
##bory
říše
##rují
celkovou
plnit
sezónu
Fon
pová
pono
úřadě
autobusů
##řines
kontrover
Účastní
propojení
talí
Ukáz
uš
obličeje
vylé
řece
##tivou
##ňost
jihových
strojíren
nalézt
ustav
uvedených
Kapit
##dělala
srd
ziskem
stíha
Kraus
##kujeme
obsta
Takto
Zato
turistické
výstavní
##pii
vyjmen
českými
Aktu
nabit
zlata
odhadnout
nadace
Novou
možný
jednoduchý
způsobit
##chi
##ZEŇ
##ruktu
##landu
Polo
králové
##nského
pomohlo
Sar
center
charakteru
pohlav
vydavatel
sedět
odstí
křídla
komunální
##ING
přenes
ztratila
Nechce
děde
rozhodnutím
##týká
penaltu
brněnský
kapsy
son
Rena
Kva
Divadle
##šské
veřejnou
uskutečnit
##ktech
##ničtí
britského
dozorčí
Andrea
##ng
##děné
##ovateli
schopna
Navrátil
následné
Skal
##dily
##ŮM
vag
vzrostl
porodu
vyprávění
špin
##LÁ
Matu
zvaž
vzdal
byznys
Škola
Litoměřice
domech
##rol
ničemu
břevno
nemění
soustředit
personální
##rátů
Andr
naprost
Ona
rozdílem
Klubu
vyměnit
médiích
probud
adap
vstoupit
hmoty
nedostali
##gera
pochvaloval
obč
zprávě
vese
odo
službách
stři
raket
Deset
infrastruktury
##inského
pevné
očekávají
kolektiv
užívá
Masar
nejrychleji
nabídkou
kláštera
dálnic
Pár
##oné
tomhle
kontrolní
Nest
senát
opuště
podlehli
nejisto
nestačil
##těžek
Kruš
novinářů
náležit
chyst
nejza
nemuseli
zastupitelství
Chotě
přáteli
Osobně
intenzivně
##redit
nezvyk
##četl
##berku
##aneme
nedostatky
stříbro
trestního
##itelný
komunistů
rozsudku
##afri
zaplatil
zpravodajství
problémům
západních
Výji
reálné
Nas
##ití
zkoušku
##ret
fotbale
Bil
udržel
obrátit
##lovým
sená
málokdo
Gaz
vypá
jeví
stáje
aspek
dráž
##trž
vstupní
varuje
fre
ol
renom
Soukup
sezonou
prodávají
přidáme
některý
Music
Doporu
zahájena
PAR
##rovým
##ovníka
olympiádě
##pliná
Vyu
Španělsku
otcem
##nářů
##isíce
manželé
ujít
praktické
večí
##mii
Starost
nervózní
daly
Doležal
dějiny
##lywood
trenérů
vystoupil
Masaryk
Krimin
##skách
slovenských
##ráty
zbývající
Pát
potenciál
palubovce
lát
##moravské
akad
buňky
rezign
církev
interiéru
poptávka
sorti
ministryně
podstatné
osvě
světem
nevědí
spoření
##žovali
šéfem
pokladny
##cházení
náměstka
globální
##90
zajistili
Ken
podpoří
##hneme
oblou
moji
Japonsku
posun
bloku
##ňský
předal
pracovali
silou
zastavila
Divi
Cit
##obození
maz
vyme
##pustila
rozumí
duchov
##jdete
##lete
Klášter
šťastný
Nadace
odvod
lesy
mam
němuž
sportovním
Times
ohroz
kapitána
rozvá
zakázku
metoda
vazbě
Trest
jakési
rodák
paradoxně
ski
nejslav
##rozumění
korupce
drobných
##skak
##krou
zasvě
parlamentní
##can
zábavy
Phili
samostatně
šňů
##imper
minimum
zmínil
zastávky
Mur
linka
říkala
Váš
vcelku
##oboz
##tus
Výraz
##ÝN
jarmar
nějž
##plň
zákonodár
Komá
Autom
interpreta
##loh
přihlásit
Pán
Alois
##linu
##wi
principu
dorazí
hattri
kali
dobrodružství
Zu
##měrné
Štědr
Kamil
Štěpánek
rozsah
převa
teplé
Ture
##jo
nadcházející
ovládá
podali
konflikt
Rusové
vybrala
odborá
národních
řá
mladým
žluté
brz
este
nejraději
Fun
pohlaví
OSTRAVA
Un
vojáky
kriminalisté
přibližuje
náru
##zdvi
sud
Jab
vezme
##ital
zaměstnanec
sklí
##ake
##licích
sedmdesátých
Mareš
články
vývoz
##talo
Spartak
##tář
sbírek
kdybychom
klíčové
##rak
##vange
inspir
##érie
planety
podlé
hezké
nahradil
tah
ekonomiku
neur
bři
váz
tebe
návy
myšlenka
mor
souroz
Smlou
vytvářet
příslušné
příznak
rozhodnou
máš
vzdálenost
rameny
##řící
Ostrov
##redak
hůř
##ČÍ
zavě
nespo
rubri
navázat
jíž
testu
Umě
výkonnost
Flori
novému
zajímat
DĚ
Marcela
Schwarzen
nedokon
dopisy
##nojmen
pej
##líte
publikace
##ück
Pražský
go
bral
posud
##vii
##šťál
drti
skok
Žal
vylu
Washingtonu
TO
Západoče
##hlašuje
nejed
provozovatel
potvrzení
vín
utkáních
obr
nábytek
statistiky
kontrolovat
firmám
odra
vybírá
##čo
normy
Petrov
úkon
zimy
kořeny
odnětí
Opavy
tiská
vodních
přistup
odehrává
United
##11
Němců
Volkswag
pražská
nemocí
získává
zmat
tepl
koš
lož
Matou
##meňte
dešti
kameny
##řídili
úspory
zúčastnili
úkor
střela
nepříliš
předsedkyně
##řitelné
rakouské
vychy
zdravotnické
křižovatky
technického
zdát
Suchá
##átra
Zemi
krém
##nan
umělce
vytě
atraktiv
##jmen
léčby
zjevně
Slovin
##ránu
nápor
evaku
PLZEŇ
visí
##manová
Nebud
parametry
vánočních
nevin
nedodr
zákoníku
##mátu
opon
vyrobit
odvezli
výška
drži
vli
zasa
padla
stabilní
kontrola
potíží
dosažení
soudy
potý
národním
##želo
pustit
Panny
Komenského
##gue
klobou
Vlasta
navštíví
plzeňského
komunik
odkou
dřívější
uznal
výhodné
připomenout
Varš
horských
Vznik
Honza
##istu
anglicky
Finanční
Akadem
Afghánistánu
Sti
##nné
Nějak
filma
tmav
alternativní
tyče
vypově
vůd
##RES
volebního
Komu
vyznamen
srdci
Komuni
Sociální
Profes
obchodě
es
##ŠTĚ
zvyšování
Chtěla
Kod
VÁ
##MI
transpar
přijali
Teplic
čili
##kupe
poprav
necelé
Jablonce
Park
úle
Romů
slovenského
##mno
násko
##anější
ovládání
poskytování
Histor
mysliv
##book
Hájek
system
intenzivní
##ketě
##ovají
Sama
nab
zdravotního
letadlo
gran
Christ
staršího
jinam
odchovan
nepova
bek
##šeny
prostran
VZP
prohrála
pozdrav
přehlídka
odmítají
fará
přítele
kabinetu
Petro
Nechy
vyjadřovat
Jac
svědectví
##ečtí
podobným
Klíč
chleba
studii
tvořit
rejstří
##zová
důkladně
cokoliv
hvěz
nejas
cosi
povzbu
ANO
nechceme
perman
začínal
bonus
stvo
Blesk
Chrudimi
variantu
##xí
Besky
zrušil
nesouhlas
příjemně
ruko
##VĚT
páte
Spíš
Voz
kořen
##60
otevírá
West
přátelství
Vš
záležet
Arno
spánku
poznal
##of
závodníci
opí
zajímavou
##KOV
dodržování
výběrového
černou
zpro
Chalup
úřední
##osm
Indie
tragédie
##novém
Pil
##apid
snižování
sing
typů
Běloru
pose
hokejový
##lům
velkými
postupy
prozradila
automobilky
nárů
ekonomický
hrabě
zapůj
fenom
našemu
smo
JIH
hřbitov
řadí
##inus
Rub
běžný
porážce
důležitých
reality
Kaf
skrývá
posádky
vojenských
NEJ
Břeclavi
ochotni
##nko
##ládají
hromadné
##ZD
krádež
rybář
##telným
obhájce
hmy
vyhod
pochlu
Bole
poni
##gon
##ťa
kotní
Homo
příspěvku
##bla
lázní
uplynulém
vybrané
JA
klesla
majitelem
vhodná
komplikov
Jor
hrani
Zábře
okou
Spartou
letu
##životní
diagnosti
odůvod
Zlaté
Lang
##jičín
Slou
##hově
zásoby
##LAN
##ras
Fry
navýšení
potřebovali
rozsudek
předvolební
americkém
##nát
austral
nestojí
protiúto
##stavil
dluží
přijedou
Radě
stejnojmen
trvala
přizná
slušně
Znovu
vyloučit
Draho
Nu
##jímavější
las
speciálních
zata
Brun
##FL
Málo
agresivní
##enská
zvolili
vládne
setkal
kritiky
Austrálie
##žiště
Moste
obal
Pech
##rálním
##bíč
nebezpečný
Stanley
Albrech
##bram
zákazníkům
investoři
tunel
platné
##hlík
dobrovolně
přineslo
##oviště
částkou
##typ
požadavků
konkrétních
tvůrčí
##nadva
příčiny
Šul
informačních
napa
provin
mld
dobách
postava
rekonstrukcí
divizi
žili
přesvědči
připravený
historický
zdánlivě
ruční
sur
vymýš
obvyklé
Turnaj
##žeh
Kalousek
výzvu
nafty
kapes
záhad
legi
zavraž
prostranství
##ftu
Rol
Afriky
##CK
hlasem
květin
Zpě
##jížděl
reklamu
fit
základním
Trá
utkají
přirozeně
##brala
Fanou
Začíná
strategii
BBC
ženám
komedii
##cedes
Těší
mladíka
archiv
uměleckých
Palackého
##mát
##slavě
##sady
Stavební
##čtu
##áková
odborů
zimního
přepadení
kvě
Mac
ohňost
##tům
##naje
nekončí
dodavatele
porazila
přehrady
zeptat
##komuni
arci
astrono
spotřeba
Vzá
##ýš
Každopádně
Hudební
##nková
bato
strachu
snahy
##klou
prozraz
##žba
Pru
postavu
spoluhráči
zimních
předpokládat
vyhlášky
mobilních
síle
tresty
velik
Koncem
homosexu
Ludmila
rozbit
##padne
##dych
Tor
Svazu
zraněn
##PA
Všeobec
hlasovat
ster
komentovat
zátěž
##jmy
životo
výuky
energetické
cy
sdělení
auton
MM
Otec
##sána
obzvlá
výjimečně
světová
Štern
sousední
původním
vědy
##otou
Podrob
realizovat
iro
##tis
dojel
daňových
nespráv
##EB
listů
##meno
přiměř
nemáte
Rekonstrukce
vepř
##dalo
rozto
proboj
jižních
apa
##pp
zbytku
##tiny
lahví
anglické
dílu
sportovci
Dobré
sportovců
##nostmi
Policejní
finali
stanoví
technický
##setín
všemu
vesmír
##krumlov
středy
Piv
MHD
Bol
produktu
činy
dav
##ýna
ochrana
RO
chutí
filmových
užívat
umožňují
hudbě
Janda
jednoduchá
chodníku
výhrou
##árek
klientům
dohodnout
návrhů
3000
##lam
Plán
rychlostní
vyhovuje
vrchní
Mlá
nedostane
maga
exklu
##šování
náročný
##jer
připouští
podezřelý
podotkla
Junior
Ondře
Nebude
uvedení
téhož
##way
Dvůr
##cl
platby
cokoli
Mikulá
más
rekreační
zorgani
kulat
Austra
výhodou
děvčata
mise
odběra
Joze
nemožné
haz
zasí
##fí
##emie
pochy
##žely
vzdělávací
fronty
spolupracuje
stoprocentní
KRÁTCE
##hev
##LÍN
##cova
Juli
investory
Plo
Jean
fajn
výtvarných
projeví
##geti
dějinách
stín
##finál
Institu
Bayer
##roub
napá
Zeměděl
analýzy
nadějí
prodejem
příno
##mej
Počítá
obklop
##taru
přemýšlet
novinář
Jednání
##taz
odpadů
severoče
koupila
zachra
Psych
##rog
Duch
##vič
vizu
Prostějova
##ickému
mni
##rozumi
Podnika
halu
věnují
seg
Oli
konkurenční
##cových
USK
nářadí
modr
obchodování
dnešních
##region
BK
filmový
oživení
##slou
provede
##stor
nepočítá
Klára
##sey
##růbe
Kadlec
vyzved
##fikovat
líp
kilometry
burze
##con
občanství
Černé
zeleně
hledal
způsobila
Kno
##sahuje
fungují
číslem
##rotech
skládá
Švýcarsku
dílů
##mala
##tnou
lásce
imuni
Kutné
konfron
těhotenství
melod
šok
ničím
cenných
##nadě
šíření
index
proběhlo
prokázat
kapacity
vytrval
navrhuje
otevřený
Okresního
radar
Zam
divit
regionálních
ministrů
dcerou
##kos
hno
Letné
středně
PS
kolín
Celsia
balon
seniorů
##anty
Ori
Buri
Prachatice
spekulace
##šeným
nohama
nedokáž
bombard
##BOR
zakončil
vít
využívání
náboženství
pořádání
##KOVÁ
ží
jezera
Zcela
3D
##ŘI
##halo
zpěv
obecního
bilanci
zareag
promluv
kamera
##tejte
chemi
považován
stávají
matku
World
některými
ROZ
Slavnostní
Blo
##vaj
hono
##verpo
veg
předčasně
mistrem
americkou
koupání
rodinný
správnou
bližší
##OND
námě
Ladislava
fu
ekonomicky
pravil
Horák
verdikt
##těj
Africe
Těm
připomínají
nenechá
##vostí
cizích
rozliš
prohléd
chodili
prošla
inkasovali
volebním
komunismu
životy
##anti
##bul
kabinet
magne
Dostal
ukry
##NOV
vytápění
Hein
paláce
##alice
##grafii
pokračují
##ťák
nováček
zavaz
uzavřen
Bill
ukli
kultura
##cos
Větší
oc
záchod
vodo
euroz
příznivce
Prakti
Produ
Dál
##prí
čisti
Jenomže
způsobilo
Oko
barevné
sun
##kel
Železný
##řichohrade
pauze
odešli
Divadelní
Hart
jednodušší
publika
černého
zemře
Machá
hydro
Plat
tradičním
napsala
nejpo
nimž
##ezie
ocitl
##čnice
nadsá
Nico
Americká
vis
Cas
##pé
pochopení
profil
čtvrtka
realizace
BMW
##eck
ŽK
dával
Nebyl
hvězdou
komunálních
venkovní
##brid
Obdob
Rosti
Kontro
Bure
zhlédnout
výklad
panuje
podá
detaily
dívku
líbilo
založena
##tiště
náročná
##bilní
##ráček
##části
minulost
Šev
pozitivně
jezdců
děláme
Úda
ritu
Sled
úspěšná
kapacita
##žte
hodnotit
rovnová
dele
snížila
surovin
##čáři
samosprá
procenty
##ght
##alá
jíst
##její
nabídla
Langer
úplat
Asie
přichy
zaměstnavatele
Meči
přepočtu
obsahují
fakultě
věr
##vativní
rozměr
Popel
Polák
Cen
potru
Lep
vysokého
překlad
vítězné
zmizí
Členové
##tových
páry
Masarykově
radoval
dočkali
##mově
potěší
##bší
jistou
třebíč
posílit
mladíci
Jednot
chomutov
Berlíně
Dvořáka
Světové
vozovky
uher
odešla
zdravý
Face
Šmí
dorostenci
pohledem
zákazu
klubem
##verné
šéfredak
major
tor
Vele
uhel
bílého
manželku
nějakých
klíčových
brzd
přiblížit
shodli
serví
novely
atle
Švej
##ničkou
přítelkyně
účastí
kusy
Mezinárodního
houby
včerejšího
strou
expertů
moderních
jevišti
hezky
čištění
odha
##čtější
nájemné
obžaloby
šká
Vlastně
##práv
Jura
moderního
popra
##sporu
##čtyřicet
ČK
Jem
Radho
Slovácko
##zii
benzin
administrativní
motory
Beck
##stěhoval
sdělit
podotýká
nerov
tari
umět
ZP
namísto
such
jídelní
##80
chrámu
čtvrtou
ostra
výsky
rallye
Zat
bojují
rozk
chytil
Bavor
krásy
příčky
Londýna
pravdi
zdůrazňuje
žádají
počítačové
základny
světu
etapa
uživatele
úlohu
klade
##hodně
zastaví
vynu
transport
##řování
technicky
Ronal
jimiž
##lely
kresby
bývalým
komplexní
##velo
zájmem
##ctvo
ČMFS
AM
1969
##erob
dopoled
víceméně
Reži
DNE
simu
porušování
mezd
Čun
naru
zakončení
volejbali
##jního
uvedli
France
kupní
Sýkora
vyhledá
OH
##dan
stah
investici
porota
Zkou
dočká
dostanete
AS
zeleniny
##ovanost
##rovský
skvělou
Prokop
sád
##toni
##ovar
##tina
ohra
Arsen
Podařilo
##hraniční
vlastník
proh
##říte
kuri
exter
##sadili
##ánského
oddech
ilustra
##čítal
stag
zaparkov
##ÍR
návrhem
Chic
nastud
SC
prožil
různá
nazý
redakci
konstatovala
detektiv
sochař
##40
představa
senátu
Mili
##tík
Malí
natočil
nervoz
čínské
##obchod
jezdil
zákrok
##lických
##ape
Marta
dý
Třebíči
##ÍS
překvapením
Nelze
zamys
jedou
celková
Pravda
##ograf
Asii
Obecně
plateb
právního
brambory
katastru
##onářů
studentka
Vilém
představili
jednotlivců
ticho
následuje
včerejška
dosavadních
##cionální
kva
zaplacení
Upozor
solidní
hledali
dvora
základy
toale
##kvi
nedělním
světovém
vybere
##CÍ
##lův
##mocí
knížky
Následně
spotřeby
##luvě
##dražší
UK
váhu
ambici
Sobota
sejdou
menu
vydí
malíře
Zapo
Fede
zahradu
patrné
Glo
Ner
Irena
plánů
##OKEJ
kapacitu
Gambr
dělala
##DM
Starý
##žující
ročníků
Hotel
dokončit
##stej
atlet
rozhodčího
narazí
svobodě
chuti
##lab
zpracová
##jci
zkoušek
Bod
##NY
zvládl
stály
střelce
##pilo
léčení
vykra
ukončit
činil
směs
rezerv
bodem
čekání
taxi
pozvání
jdu
vynalo
dvůr
ligové
hluboko
##veze
##ňat
ses
teroristi
##rce
Koru
předčasné
trávě
národů
přečíst
Bag
mik
témat
šetřit
vypr
nit
##alita
##itelná
emoce
přívě
nejh
gy
Jmé
báje
šik
Bárta
obý
pražskou
Krajské
uvažovat
##kopu
pojišťoven
zlatou
lokomo
with
pozval
klienta
Band
kapitálu
nezač
medail
Javor
vsetín
hrály
Prov
##cházku
Student
stránku
cigarety
##ňané
etapy
obyvatelům
plánování
vyjednávání
##orepubli
pochlubit
přeru
##cují
improvi
##sl
Dvor
zemědělci
audit
naps
jednotlivými
Rath
nelíb
usly
##vl
radikál
přímém
Špa
Buch
upřesnila
očkování
nesku
bitvě
lázně
##uge
Svitavy
Horvát
setkat
Milev
podrobnosti
##mace
situacích
Příklad
zpívá
Tatra
Uherské
uvi
kouření
Mark
Bílá
otevřeně
obsadila
placení
symbol
Galerii
##novské
ado
psi
nákla
##žovala
sek
argumenty
jakými
##lerová
1980
paříž
kucha
##pala
Mateř
vym
##NICE
##jely
HOKEJ
Reuters
naka
##rním
doplní
##zvu
školení
odborník
licence
skep
Sek
leas
zájemcům
kamarádi
Celé
Bratislavě
Putin
vzdát
Microsoft
Veš
dočasně
stoprocentně
ovlivňuje
Boru
neus
intera
##ženi
záchranného
herců
##gresu
reakcí
zklaman
službě
vypadají
uveřej
##ňany
##lora
##šci
omlou
půlhod
zasla
kyseli
zabil
přiznala
službou
Jur
kotel
dosáhli
styku
netradi
nein
průměrné
tuzemských
klimati
intelig
Muse
##ENÍ
Tímto
Obje
Pražská
pustí
Cam
##cový
##dské
##léb
slavnostním
Prim
kroků
jakýsi
vyrazili
##staví
##EV
zapí
Adol
dozvěděli
nejrychlejší
hi
noví
Doubrav
Každé
Sab
zahrají
bratři
##ceň
obav
odborná
špatnou
efektivní
postele
##zn
továrny
neposlední
žalobu
Kní
##kař
služební
určeny
upravit
zhodnotil
Nechá
podává
Šaf
panství
lepšímu
inscenaci
středisku
Expozice
Mladý
složky
##lická
aktivita
Lar
##žce
vstoupili
Kutná
##pan
sci
Bre
##zeních
jednoráz
##hodná
statistik
trhů
Otázka
uvedeno
zakaz
různě
Straka
##hradišť
všiml
útoků
finančním
##tyš
závěrečném
##rovaný
poslali
odví
##láštní
zdražení
průvodce
##zec
ploš
Mul
tyhle
##cara
1986
vyvolává
450
pronájem
##ysel
ekonomického
drůbe
Petru
kandidáta
délka
padě
##TV
##akes
anketě
padlo
uskutečnila
závazky
potrubí
přestávky
##hovor
dluhu
stale
nejkrásnější
petici
panem
člověkem
Nejdřív
MB
odpadních
Mohl
Uh
jmění
odvolá
čtenář
našimi
ujal
zahraničního
##wyor
##vist
panu
druhému
průběžně
koncovce
##vidím
vytváření
kuchyň
Bystři
Čtyř
Jelínek
##rozá
newyor
atmosféře
Vrchlabí
civilní
sbírka
##kupectví
##romadě
##vkách
##ide
sankce
zprovoz
valné
srovnat
pěkný
formace
soc
##tálu
akční
Víc
provádě
##tahu
stán
Zají
táta
##isek
sídla
obnovit
komisí
Národním
chov
Kova
##nor
interpret
odstartuje
##cia
poskytl
##vkami
poskytovat
##vém
měsícem
fanouškům
prezentaci
BY
Kučer
charit
##znal
Dominik
info
##štině
Senát
Posled
intenz
základního
Europe
vstupenek
tvrdý
##ónů
zraněných
Varns
##isu
zakoupit
půvab
##lované
AL
varování
průmyslových
nápady
##ION
##šic
##ira
padesátých
čerstvé
většího
1938
Valent
##jedeme
##šově
Ev
pátém
pustili
rány
Lav
případem
značkou
napříč
Alexandr
obvinil
##RÁV
Ekonomi
prosper
##telnost
ostr
kritéria
barvách
Žáci
##ovězí
##šovský
##cus
čelit
splnění
eura
znemo
Běle
opatr
brazil
propuštění
KOM
jakousi
Domu
příčin
lesích
rozman
zachránil
Pohled
Bos
dokáží
výbornou
vymá
##STAV
Vlček
Drn
okolnosti
závodník
##antně
Karl
##AVA
širokou
rafin
lístek
předsedu
##kument
sluš
struktury
Black
záchy
hmotnosti
manažera
##ola
##štiny
kvalitních
restaura
odes
##STÍ
Snažíme
přivezli
Chem
Müller
##pond
Poš
polí
pasaž
##pci
nezaměstnaných
mandát
nežád
##stků
Smetan
zdaně
stár
bránu
##lovali
kód
příroda
Prostřed
parkovišti
pracovním
ox
Pohád
ČESKÉ
##tely
pravomoc
##ardu
náraz
opě
šílen
odměny
dočkal
Gabrie
babička
kříže
třem
mané
převzala
dělníci
Bělo
křeh
obsadili
poranění
##ovičtí
cyklisty
##ener
zpoždění
dostaneme
spod
vojenského
tvůrci
##dán
Plav
přispívá
požá
Bit
obleč
logicky
úniku
Správy
##aga
stupni
Pekingu
pokládá
Neznámý
perfektní
##vaném
přestal
použil
vítá
levně
pořádek
##dělní
nájemného
hraní
kuře
zvýšené
lap
Husa
něčeho
Maďarsku
přijala
texti
miliardu
Rangers
Jazz
související
tváři
vyšetřovatel
šestý
zákazníka
Bauer
havárii
Uvedl
havárie
Mrá
Chlu
přibylo
Skvě
mladist
studoval
zlev
anim
kurs
dovez
povědomí
kuku
hmotnost
regionů
##líku
pečovatel
scénáře
upev
stání
oprávnění
neup
půjčky
pěšky
1939
projektem
uplatnit
Hasič
Mohu
manu
osad
postará
##hlédnutí
hrdina
Narodil
odraz
Květ
favoritem
poškodil
Štra
držení
##číka
Setkání
ocení
nutnost
střede
odvahu
převzetí
celebr
doplnit
progn
ostrova
radikální
obráz
Wer
Pravděpodob
zelenou
vyhraje
Viz
tuzemské
##pomín
cizinci
Hlí
Režis
pomohou
skvr
##vó
cyklus
umístit
##LOM
čtvrtého
Pova
otevřeli
Luka
novinkou
zřiz
úspěchů
##ROD
potvrdilo
podporují
##členné
odpovědí
debak
##anky
th
přivedl
autobusové
drželi
parlamentních
lesk
těžkou
zemědělských
chtělo
říkáte
chybělo
vypadal
volebních
přísně
nákupy
sousedů
silničního
záření
úřadem
přeci
##fie
kontextu
Krajského
Chal
##inga
nejúspěšnější
balení
partnerů
pronájmu
##zim
střída
evropskou
##knou
Telec
Sara
Rest
vězeň
1985
htt
Turnov
TÝ
kompak
##hospod
Green
zásahy
ing
##kovacích
právník
pocí
refle
tipy
##kládal
Kulturní
StB
##átorů
kandidatu
výměna
spa
spr
morální
podala
podepsat
brankáři
##řídka
nástupce
Návrat
populár
stáli
upřím
Toy
vycházet
věděla
významným
litr
##meš
##hák
filmového
školních
redu
##lelo
Potřebu
nábytku
zvláštního
termin
sektor
dodavatel
zamířil
myšlenku
nožem
mistry
užít
skutečný
přehledem
##ovač
##chvá
celostát
vyhlášen
##12
rozpo
##stavení
koncepci
barié
schází
osvoboz
prach
Zlatý
jinému
##SKA
EC
nevo
přivezl
##lách
obmě
divizní
vášni
##vátní
nemusejí
technologii
IPB
kopané
přednášky
komunisty
##likovat
městském
nedot
jazyků
tvorba
##verozá
##vojnásob
##lot
lidovci
snow
obejít
blíž
zahájením
Bratislava
medvě
vzadu
Znamená
aktuálně
kras
chaty
trvání
##plav
základu
stri
štábu
##átem
vracejí
žadatel
##vard
##lika
Olga
konalo
vyloučen
Ski
##hač
vídeň
##kovič
výjezd
Dé
Leon
vydělat
Nabízí
Telecom
přemí
předložit
projevy
nakupovat
KUL
Šla
##rátora
##nica
Liverpo
Fakultní
univerzit
obyvateli
##kly
účastník
klat
vul
Podstat
##skohradišť
realiz
Kryšto
poznatky
Nejčastěji
volání
vstupem
Aha
##vín
čtvrtiny
neprů
##činou
##tislav
Přihlá
sazeb
obtížně
formule
Chovan
Španělsko
Čeká
strý
##vál
Němce
mateřských
volbě
##hraní
Vladislav
prvé
útulku
Och
žádného
minulostí
##ační
kred
Jarmila
##burgu
inze
hotové
Romové
vycházejí
vyři
motorem
postoupit
vychová
##skot
naj
blon
oboha
##dam
krátký
vyhrály
##álek
černá
výskyt
##dent
##ózu
Sněmovny
příjezd
okresních
Jiřina
Vypadá
experiment
postižení
dostupné
mláď
obrátil
policejních
zátě
zpívat
Změna
##rování
##lémech
Pad
##báři
Evropskou
nízká
Lor
předpoklady
Radio
spojených
nikam
zleva
zao
Moj
uply
Hil
webové
nátla
vaření
##žních
předváno
zahradní
pokusit
farma
drs
čast
##dělají
zavést
##ins
##říš
tatín
krásnou
Bartoš
##éně
René
vrchu
SL
signali
nápoje
nastí
posoudit
hrůz
Vimper
Of
Lau
tanec
##lady
1987
organizátorů
kolon
exoti
tvůrce
kvarte
http
Kralu
nařídil
klasických
nosit
časů
jednička
slušné
ekonomickou
uvolnění
Syn
##čího
dávek
Působ
Leh
počty
##dney
Musel
Rý
Slovanu
založen
Kada
stížnosti
slavit
příčce
recen
personál
hůře
##akespe
##lníci
vodov
zemětře
Severo
MĚSTSKÉ
výkonný
navazuje
Jméno
advokát
##andardní
politicky
ženami
výpočet
##jížď
spolek
Přerova
předali
bílý
Bezpeč
prvnímu
##énuje
Pho
nachy
kolekti
pováleč
zraněného
kužel
ohodno
ministři
##até
papri
posy
novináře
odbory
Španělska
jest
nemluví
etap
Východoče
návrhá
##lynulo
sloužil
hosti
zastán
##árně
uzdrav
staletí
stavbou
vítězi
kondici
##emen
kolekce
označuje
nutná
Octav
##iner
svaté
volí
odbornou
ochutná
Typ
##post
osmdesáti
Tob
##řová
##iness
počítají
starostou
napoví
ukrad
Die
skladeb
##rukturali
organizační
Musil
naznačuje
strávit
lask
Televi
##ICH
výrazný
jmenoval
účetní
Táboře
papr
upozorňují
průjezd
kapelou
##lovy
Spou
stovku
žádným
zdobí
Žádná
Írán
Ústavu
ducha
Mike
##rovy
Prahou
vyskyt
nezmění
##jec
problémech
vydalo
průměrná
Počí
nemocné
množstvím
pres
připravilo
##řízené
Real
Jiskra
##heim
##hoří
ČD
##ČNÍ
div
řešili
formátu
Nikola
Mirek
Ludvík
operací
Zvo
##ánů
Magist
doch
posily
##ktorů
zázrak
##měři
zhotov
Mom
výroky
##imbled
vyma
postře
klesa
usilovat
nastart
##livých
vlasů
##voda
telefoni
prohlídku
Inform
nepřines
závodní
Loun
kruhu
Staroměst
Pražského
olympijský
buněk
předá
zvítězit
koň
Goog
trávník
pochvaluje
zvedl
Chan
cílů
Španě
celým
vápna
##elín
schválen
příčinu
##letní
výpravy
1984
vší
protěj
krátkou
Žďáru
blok
patřilo
spisovatele
##měrem
lho
spotřebu
##laly
##sadit
##ktory
zasloužil
běžného
odpolední
Museli
atrakce
Exper
lout
JIHLAVA
hovořil
konstrukci
Pavlem
##tvá
##vra
lem
Sydney
absolvovat
Brož
typické
##vajícím
trop
Proje
##láře
arbit
selhání
pový
nepov
krevní
Poslan
##žností
Moskvy
sóli
oranž
Kdybychom
přidává
kritiku
PŘED
##ivně
parkovací
pětkrát
křeslo
tisíciletí
natr
komora
čtve
navrch
pěstování
marihu
zaměstnancům
značení
výuku
vystřídal
##zivní
##ličky
židovské
přehn
neobje
##field
##padek
Tolik
##jád
zmizela
slevy
karta
##ovanému
korupci
nástro
vlastními
##RAT
nejvýše
totali
##bohat
Jičíně
##tickým
konver
Hanu
##DE
plach
VV
autobusem
odehráli
holo
##alogu
telefonů
ústecké
Centra
Jediné
vsi
nižších
mužstev
##enali
##neři
Brzy
ign
mapy
##ezu
respektovat
Svaz
Mol
zčásti
drav
tiskového
##číte
orchestru
aplikací
pravidlo
Milán
Eliška
otci
Rakov
##šany
volném
průměrný
započ
Paříže
##číková
samém
způsobuje
skladu
##zujeme
Svým
zavin
gril
glo
Kino
Muzea
potoka
vystupuje
kaš
volbu
Práva
vyšším
hokejisty
kongres
sídlem
válkou
záplav
Wag
Ono
Špat
Památ
##ör
slávy
obratu
prodlu
##ktivně
Jaromíra
středeční
##knu
šlá
přístrojů
zvon
deště
vrstvy
motivaci
živí
určení
jmenovat
soukromého
fotbalová
Kanadě
Zvláště
##zan
devát
Navr
kuchař
Odpověď
Stí
##šeň
##růsta
zkrach
Havlíčkově
voliče
oddě
opor
##ťte
hygienické
Ple
##aj
Téma
##fii
##vák
patra
premiérem
bitvy
##pele
hladinu
neoby
stánku
stínu
poskytují
sebevraždu
rozhovory
##tečnost
jasná
AV
všeobecně
podi
OR
bydlet
obnovení
Poj
viny
##čitel
Holeš
básník
certifiká
##stiku
pedago
učinit
domluvit
rozpad
osvobození
kory
obilí
##ingové
těžkých
okresním
scén
Kin
Ježíš
hračky
fotky
zodpovědnost
sousedství
kinem
Novým
Test
##žejí
Brück
Pravidel
nejzajímavější
##cm
Sedláček
táboře
##berger
přepad
nejznámější
schopností
komisa
vybojovali
bál
ré
1970
Ofici
Chra
společenských
jednadva
##ings
Ful
##řiná
Radhoštěm
Boris
managementu
Mělník
##meň
historik
FN
##jský
otočil
Gor
Jim
bre
uspokoj
POL
japonské
plzeňský
dítěti
závěry
Mary
DOM
LET
slabo
licenci
podepis
zeměmi
ručně
Cykli
převzali
##řadech
vědecké
##tečným
##éna
Jindřichův
mobili
##ánka
předposlední
Bílé
vyrovnali
názorů
##ávna
##livní
Československu
ničeho
Mes
kohou
otevřená
##tovou
překvapil
zneužívání
##ňujeme
vystou
obnovi
Th
Skot
analytik
James
##něl
Jedinou
hladiny
postaven
bolí
Nezá
vodovod
použi
Spor
dálky
Rádi
##udu
sklení
díle
triat
Najednou
studentům
##bank
##espond
Strany
Píse
schůzce
nekou
zdejších
vystavuje
posteli
Kolíně
Jediný
prosazovat
Are
##ština
sekce
Alžbě
reaguje
textů
chorvat
Šen
##sson
Celou
kabiny
##vola
hokejového
ochoten
opravě
veškerou
poskytne
líd
Krem
Děkuji
slibují
koled
Nan
otro
Zámek
šperky
##lida
výzva
nadst
zlínské
červená
##TOR
cení
Mladík
léčbě
návštěvnost
##biskup
Sedl
##inění
koší
návod
obecné
zkušební
symfo
dámy
Maria
portfo
vlastníkem
Sly
##wor
Hi
předmět
nehraje
platů
pravdy
vysílá
##jním
Blíz
##nava
Fiala
##kre
##čeli
ublížení
term
zabývají
veliká
Zbytek
kari
Chomutově
##mánek
##tero
srde
středního
zahájit
Žat
přitá
omlu
papírů
přirov
Ped
úkolů
##zínu
zasáhla
Vítkovic
zmíněných
bezd
Alp
otevřen
bytové
nováčka
Volkswagen
zaměřené
##rovaných
sester
evropském
Získ
vytvářejí
čtk
tvrdit
Šin
##lánu
desce
vyber
náročnější
základem
špičky
konkurenceschop
Beat
##unda
Jirka
zákuli
zava
boho
nevrá
vidíme
květiny
předání
bílá
Platí
##udo
Mare
##míme
každodenní
jednáním
Kost
Johna
sportovce
##řeným
žila
jistá
##nicku
preventivní
##ící
českému
Nob
Historie
Kontak
##avské
odporu
sup
investičních
##TY
kandidáty
rozměry
##lezl
Všem
každoden
##keta
rozhodly
údržby
vp
##burk
bohatství
lyže
vítězný
zvyšovat
##pora
hle
##BY
dodržovat
pojem
zápisu
Sym
blý
HO
##ÁŠ
##ťané
krv
Jednalo
režie
popří
Roberta
černých
##ay
Akademie
##OVA
##aky
Reb
nezávislých
ule
studené
cenách
##ago
##TÍ
Lidi
vzp
spoje
##čící
Ron
vlák
menším
vyf
minus
dráha
stanou
napí
##lešov
pláž
JS
krajem
politickým
házenkář
divadelních
napodob
trojnásob
Simona
ková
přelož
hodnotil
organismu
islám
##žice
##dami
zaplně
skot
KRAJ
člu
váze
provozovat
Velkého
Volej
komunikovat
přirozené
Ústeckého
úpravě
SPORT
brýle
nehodlá
subjekty
kopa
projde
ZUŠ
skvělá
uč
zdat
pobý
##hodnou
##mírem
objevilo
Stad
auten
klasický
symbolem
LOND
##gó
jasnou
německou
popřípadě
##orka
snu
přesun
##toto
vyb
hluboké
odvolal
##cově
##čítání
dokumentaci
náčel
pozmě
št
Výro
##řeného
Jedn
ústup
městy
těsné
samotném
obchodníci
převzít
restrukturali
armádě
matkou
Podobný
poezie
podpořil
polovi
##běžně
niž
##rari
kriminální
trolej
zavede
##SE
##mova
5000
lék
gymnázium
přípravky
VEL
un
provizor
umožnit
##nis
sestavu
##oprav
pervit
potravinář
platu
zvolil
Dvou
majetkem
##členná
Maďarsko
uspořádat
pohonných
LIBER
##valit
zakot
##oupa
##onomi
##zovaná
leck
Pracovníci
nepotvr
McC
srdeční
Tony
Pila
Gambrinus
##čicích
ptáků
zařízením
Budape
přil
Lux
postoje
nízkou
sociálním
##obí
převyš
varoval
Ml
potu
zkušeb
Zimní
zhu
Obrazy
Nut
Třeboň
stěžují
odpovídat
Zvláštní
kanonýr
sady
##nostem
vytla
Rostislav
napoj
libovol
zásadě
Vyšší
neřekl
peněženku
mysleli
Pern
výlety
rozpor
žlou
sledují
obchvatu
bývalí
odehrála
mladoboleslav
Pane
Model
##cely
##živ
##menut
uzavřené
Začal
Konečný
##chaj
dosáhly
podíleli
##70
lod
partnerství
Ústavní
ostravského
vedoucím
klíče
reci
##pot
zatep
zaznamenala
výhodnější
druzí
ikon
ony
krů
posteskl
Ferdin
napadení
Žlu
kompletně
zvědav
inje
přiblížila
##ražd
Ústřed
Extra
bojoval
atom
bezesporu
nepůjde
loka
bíl
##kerá
hluk
druhých
Kněž
edit
odlišné
doklad
Gabriela
Českolip
předchůdce
regulace
podpisu
poradil
šly
vzoru
Palest
Vor
##vald
Plzeňský
ideolog
pokř
Peč
kandidátky
proku
muzikálu
Kolo
sedmdesáti
Nerat
církevní
##zvou
vinou
Maďarska
Radost
vězňů
přešel
Liberecký
přitaž
##sau
bezpečné
##ladit
Bílek
##šťan
Boha
zb
Host
ocenil
Blanka
Účast
Stě
##šovat
krajská
##ESCO
CN
tech
Výběr
novodob
vypočítá
výrobek
důstojník
vražd
Vloni
##vaní
agent
Austrálii
pronesl
postavila
##jaté
VA
zaklada
##mitu
nutnosti
KULT
kanál
všední
zisky
##tori
Slavií
Št
##slech
tlou
pomysl
komod
##gicky
výtvarného
střídání
jihlavské
Lhota
topení
horské
jedoucí
ležet
Sobě
##jme
Šance
##AMU
splnil
hard
obdivu
##hodu
obnovy
Zajímavé
##iller
##rokra
zajímají
Francouzi
Lam
##robí
Partner
##hony
čtvrtinu
nemohlo
##může
lůžek
vytí
##ella
přídav
Přímo
##šeni
stálé
sop
proprac
##alismu
věnu
určitá
neov
přetrvá
##vacího
krab
nábřeží
Pochop
BO
sluch
investora
175
heslo
designu
výměně
Us
Juventu
due
pořadatelů
anglického
utrá
##vědčení
nerozu
křesla
evange
profesionálních
##yd
Obchodní
nejvýznamnější
##ediální
bob
Jičína
Jizerou
konta
LONDÝN
přinu
kach
Švédsku
##telích
##wan
Ráno
##vedlo
střelecky
kdykoliv
##mir
rozsáhl
mnohých
akciové
hospodě
usiluje
Trans
regene
Stru
Alf
perfektně
##nuty
proběhl
daném
věřil
Vyše
skóroval
Ele
Pokorný
olympiády
##éle
Anděl
##dep
přizpůsobit
blaho
konzum
zkoušce
konečném
cizině
oblíbený
Hraje
schůzku
tuzemsku
Doba
horké
kyslí
##novým
stihl
přehlí
pneumatiky
tunelu
Strán
##ider
Rozdíl
zjev
tiše
předloni
záběry
odvezl
1976
##menou
zka
věnovali
přítelem
splat
SU
velkolep
Belgie
upí
OLOM
Moderní
shroma
skutečností
nebezpečně
venkova
##títe
##ford
##riti
limity
zaměření
Městský
čerstvě
mizí
##ákist
Události
zabít
dluhů
humanitární
vojenskou
chore
fix
OLOMOU
Velkých
kriminality
Ach
##hoj
kamaráda
##líci
povzbud
přemo
Nejhorší
spojů
protis
přejít
##nutých
dítětem
zábradlí
##liví
Zlí
##inter
beru
Svatop
##IKA
kontrakt
##Dr
##berta
Reag
Archi
##západ
zez
plánují
Čist
POZ
voze
uspoko
vloupání
mouky
pojedou
letním
hlídky
trénuje
trvalé
##leň
Víme
pásmu
Organizátoři
Znojma
Špidla
dohledem
Berlín
egy
jednal
Vltavy
Útočník
hřbitově
problematiku
Hané
firemní
Plzeňského
vyprod
##rární
výsledcích
soukromý
líbit
vydržet
diskut
zhrou
společných
Vítězství
nominace
Devět
rozdělí
##edo
##idi
##tiků
zvykem
zatížení
zmír
Leoš
Avi
Cvi
pomáhal
Celkové
Brusel
Nemá
Eduard
otví
zraněný
##radi
přežití
hřeb
vyhlásil
diploma
naří
obránci
přivítají
Maso
posouzení
blues
protoko
183
stěží
neskrý
##plet
Masaryka
##AF
dou
silným
##orií
Otakar
Navzdory
Šumava
chodníky
dávali
Klas
Fanoušci
##usu
úvahy
##hého
pít
##elt
roků
paliv
příslušníci
##adlo
zásady
##hnul
másla
trofe
Dráž
##jížděli
pátrají
Lat
uveden
pozorování
břeclav
tramvaje
105
zneužití
jela
dřev
vrstva
Spol
nezajímá
Lípě
##enem
postavena
legendy
##účel
##advacetiletá
reprezentanti
Vídně
nedali
zaujal
spáchání
Slovenské
dno
rezigna
potkal
discipliná
naučil
závodem
Tesco
vůně
##enecké
schválit
mimochodem
Kara
Zásad
dostání
konzervativní
tréninky
Dlouhý
Koc
Zdeň
Chomutova
akcept
nazvané
Nejsou
celkových
vnikl
britských
refer
Titu
##hvě
Pákist
nepovedlo
Eden
##bodový
Zastupitel
##terií
muslim
koncentrace
znalostí
využitím
bezmoc
divák
dopustil
kdykoli
přisti
tatínek
##hodli
gynek
##levnější
krátkém
provedli
chyběla
Sol
Změny
stavebnictví
chodím
potvrzují
##peče
Brazílie
obávají
##prode
umístěna
nakráj
##leček
španělské
svěřila
vicemi
brněnských
Žatec
pojistné
Iveta
duševní
##nau
koncertní
##etou
Regionální
velkému
Čáslav
operačního
statu
##něni
Největším
reforma
široký
archivu
car
##dar
brněnském
ON
##hrob
zasáhnout
##tok
hrozilo
tehdejšího
stručně
točí
##dné
přípravou
Dvakrát
##nuly
tanci
takzvaný
##rí
snů
okr
posezení
Gold
viceprez
Druž
novela
vteřiny
sníd
poskytnutí
uvědomuje
vězně
##win
právních
nedostatkem
ukázali
Kopecký
rozvíjet
##cházím
zamýš
##torátu
znalost
netuší
Sedmi
Thomas
vyzdvi
Port
postě
##stero
dramatické
SSS
##víme
výzvy
Ház
1972
Stálá
obecních
Stejný
management
slušný
##ičtější
poradí
procedu
vstoupila
nejvyšších
milá
schůzi
spořitelna
Rodina
##puště
cukrá
nevěděli
Mezitím
Rej
Přá
Radovan
Přece
jazyky
úder
tradičního
Kopřivnice
Vánoc
velvyslan
nemůžete
vyprávěl
Skon
architekta
snahou
Hosp
romské
hodinky
Hot
##onců
##vci
poloviční
nějakém
propagaci
LIBEREC
promítání
dvoře
Režisér
##pře
##slanectví
sděl
středověku
##inek
software
##oevrop
##valu
Dat
##čiště
odva
plot
##aše
Slováci
italského
Jozef
Jmen
skupinách
Matka
neuspěl
##novský
Jany
Vit
pleti
image
stoper
Mgr
zesnu
Land
past
Ježek
dojmem
úzce
televizním
ekonomická
vře
zmizely
desetitisí
zaměstnává
namě
Existují
##ejde
Post
přesnou
##naté
dol
překvapilo
nenapadlo
Budete
nezisk
Režie
chráněné
revit
Dig
kolegyně
##dorfu
subjektů
##hrn
Chybí
zvolení
Disku
uděl
neub
##instal
filharmonie
utaj
příchodem
Semi
zasti
1982
prodejce
Seni
pozorovat
Úřed
klasickou
prevenci
##čova
Mala
podtr
Půl
##vrat
odškodnění
##RAM
Pic
účty
resortu
220
lež
##rodi
Sho
prozkou
aplikaci
Většinu
##meme
občanských
that
Vsetína
postižením
nejdel
Pražané
stejných
Vik
léčba
Zemřel
osudy
pravém
##inový
výkonů
Šimon
Japonsko
zdravotnických
Litomyšl
Vir
zlatých
svahu
##ardy
Míru
Děčíně
prázdnou
Výjim
Nám
sehrá
KRÁL
soudního
lab
táhne
Povodí
teplotu
respond
Kir
časté
Fotografie
hel
##alizovat
Reg
přijímat
koni
těhot
leda
geolog
čino
předat
develo
zavolal
inteligen
Magdal
Ny
##lané
Vaň
přijet
diskutovat
loňských
přeč
Slavoj
750
Vyhlá
hotovo
ohrozit
postoupil
Bedřich
SSSR
volant
##booku
posílat
zařadit
dokončena
sestři
##gramu
##žité
Golf
příslušníků
##cházejícím
Lup
současném
krmi
opačném
čehož
Stal
provedl
poruchy
nadšen
ostří
Prix
uživateli
neset
##sily
meč
pořízení
nouze
směsi
Radi
Fan
aktivitu
Pohár
Strom
maleb
neuvěřitelně
úspo
dolaru
##meran
Chví
nadp
klimat
chovají
bytových
DNA
ruch
##tát
Indii
Nev
Čtená
onkolog
kudy
nehrál
Znám
##lující
Domě
Detro
neut
##štát
známým
poledni
MŠ
##stickém
koupili
ukázaly
##ložíme
##livým
zařazení
Spíše
##dlem
chlapců
svr
Nepří
předchozího
Karlovarský
posunul
neuvěřitelné
extrémně
úplné
obil
Christi
hudebním
chytr
zapad
lidský
soustředě
Skó
Chlum
zámoří
nezapla
bys
nenašel
##šicích
mše
straš
kampani
##urtu
ŠK
včela
veterinární
##lič
##korej
pojiště
Thaj
dosáhne
posádka
československé
ultra
##ventní
označit
##vaně
vyrů
##wic
vchod
##čními
finálové
Brá
##žkou
nechte
navštívili
osamě
##iser
vzruš
televizního
koše
poptávky
neznámé
##zeni
##tového
kvalifi
láskou
Nemyslím
zdokon
trendy
Kanady
##esel
2016
pochybnosti
Mariánských
##istou
nedaleké
Tajem
nechává
prověř
Uhlí
inzer
bezú
realitní
úcty
##ele
tržeb
lidovců
##enských
muzika
dostatečné
##řicát
Valašské
KP
podzem
rázem
olympijského
##EŠ
skaut
kupovat
Přišel
černobí
někým
Lázních
komplexu
sestava
##enzí
##jedu
palubě
##lian
pepř
špatného
spotřební
prostředek
naklo
pohromadě
##tování
lov
motý
Audi
Mob
olympiádu
##pané
školním
technickou
dluž
sluní
Druhým
trap
##klidu
Es
Lev
směřuje
italský
Ton
polep
oplo
Hrozí
malými
Brat
americkým
šíří
naslou
domovů
nočních
končet
##fej
1967
##tvrté
schůzky
##ismy
vlek
mladšího
##tění
bývalou
##ÁD
uskutečnilo
hotovosti
přátele
Street
korespond
##ode
výjimečný
Živ
úmyslu
chodníků
nádherné
Rec
elektřinu
bibli
roka
Stříbr
lékár
eroti
Bednář
přežít
udržovat
střeše
pyrotech
stříbrné
poškozené
Zmí
borci
séri
negativně
průměrně
odpovídají
dvací
diam
statku
kávu
nacionali
objednat
cyklista
##sík
Naproti
motorů
##ván
##skutku
ministerstvem
prona
úvodních
nestačilo
tlumo
Web
Vaší
Roy
okouz
komorní
Zpočátku
##icích
povodní
brali
porno
přírodu
silvest
přípravné
Mamin
Jav
účetnictví
přeh
testů
neoček
modernizace
##děte
licen
Kdysi
poeti
absolventů
Divo
špatném
kávy
hity
zaměřit
Příprava
nemocnicích
generací
florbal
tělocvič
Fond
znaky
tragédii
##zenou
Troji
Slaví
cizince
podnikatelské
Čest
Skoro
##prese
Beran
DJ
Firmy
besed
zasáhl
Om
Albert
linek
mozek
cister
vztazích
zvěř
bodovat
nepora
dopadla
lince
mnohokrát
výraznou
etapě
Občanské
krádeží
##inkou
pánové
postarat
ušetří
Jones
současným
##rátoři
lokalit
##bulu
semináře
Účastníci
nutí
Šumavě
##lecké
následujícím
havari
manželů
zamíří
##dové
##haz
prezidentské
##titu
Maxim
podvodu
lokální
Závěr
přek
vyřazení
novoroz
Kultur
soustavy
Doz
Martinem
suk
Lepší
Václavem
futsal
památkové
vyvolat
prohrávali
technik
ptal
Big
příjemný
úspěšnou
AD
podávat
Mělo
sebevědo
Hrají
životním
##jové
kovů
Vývoj
Union
naučí
sněhové
novinka
dopady
Pachatel
Strá
kotou
elit
geni
matce
rezolu
postaral
prapor
párů
Kolína
zakou
tramvají
Nejstar
politolog
Čecha
poři
požádala
jog
turnajů
Vešker
spokojenost
##ENÁ
bitva
poutní
smlu
##ning
infar
zpracovat
##atě
chovatel
Státního
##RY
stylem
překážky
požadují
činit
##ryho
koření
pokrý
nešet
nákladních
nesprav
marek
##most
uráž
vládních
nerad
1981
##IO
koši
Kamila
nebrání
nemyslím
Anny
usmr
vily
fab
nezákon
sklonku
hovězí
navždy
dán
zvažuje
kluků
##níně
střely
volbám
sledovali
hem
##eli
cestovat
vítězného
Evropský
Vzápětí
Kuba
##19
nedob
##ženými
překladu
soužití
příběhů
vyloženě
radostí
shrnul
uvádějí
postoupí
výnosy
Újezd
Záchra
připojit
herně
shodně
svit
mřížemi
úrovní
společní
pál
##tivě
požadovat
Legen
vlaků
stojící
pokoušel
vandal
čo
termíny
hodo
Emil
štít
##cto
##ovskou
##píše
##vacích
východních
VĚ
vyvě
řetězce
krvá
protip
brankami
výraznější
dokazuje
obvi
##veru
Týden
jaksi
zálohy
1983
tuny
znemož
Požár
Možnost
Nejvyššího
klien
opilý
pohledávky
Slavo
obrázku
volá
sloup
prohled
nejspíše
kouzlo
stolní
nálada
porážka
olomouckého
vědců
naleznete
skokan
1905
dostupných
grafiky
mnoh
rozvinu
Dalších
nedalo
zemětřesení
Jednodu
časově
##viditel
banku
hladce
Mercedes
Jeru
Škodu
překvapit
Smit
zůstá
Japonska
##nikou
Lukáše
oře
provinci
dětská
1200
##čeným
it
Nebez
padne
diskrim
spolujezd
vynález
koleje
kritika
##rovo
sebral
nečekal
ztratit
královéhrade
iniciativy
odpočinku
podzemní
krk
Dalibor
Mělní
##žního
Pitts
sponzorů
ztrátě
Shakespe
zachoval
##esa
dočkat
Zlatá
prezentovat
##rnění
zločinu
shromažď
kalhoty
nemusíte
akorát
jezdce
odchodem
známou
Pojišťov
Ukrajině
prota
fakultní
nenabí
jednáních
zveřejnit
parkovacích
Nemu
opouště
čerpací
uvádě
Finále
srozumi
##venci
rámec
Doktor
ciziny
DŮM
fotbalovém
povzdech
rameno
provozování
bezprostřední
##ujícími
##bila
letního
pásma
##zové
hokejista
neče
východu
1975
inva
budoucího
tažení
orgánu
značnou
novinku
učiliště
vyrůst
ČB
dospí
modernizaci
vnímat
guverné
Renault
odkry
hlásit
Sest
týkat
##něném
Husto
hájí
remíza
##enár
republiká
Krumlově
závi
síň
nevidím
tradicí
bavor
Pardubického
Dítě
##IZ
kanálu
##ROS
soutěžící
##gové
útěku
ohlas
fascin
##rik
Franci
dně
linie
Dokud
garáže
zch
protek
Metro
dostávali
##plní
nepřijatel
Tla
profesora
středoevrop
##čanů
veřejná
bale
eufor
Námě
Lich
hromada
uši
zasy
sateli
lavičky
Jednu
koncernu
existovat
ústřední
udě
hlídat
bázi
kanali
##itace
##ön
maličko
frekvent
vylí
profese
vzkaz
civilizace
pacientům
střechou
##daly
výhrady
byrokra
budovat
kadeř
výměny
##čci
zvol
rival
Blue
vrtulník
##čic
zveřejnění
iP
francouzských
##chové
spadá
Sobotní
ret
evidentně
modu
podoba
Tit
##reg
##niká
pondělní
nejoblíbenější
legenda
sklu
souhlasit
alkoholem
Jakou
povinen
trpělivost
projevila
Gala
bas
Nemáme
opustí
##dust
technická
ležel
neofici
nezvládl
##czi
ujistil
odstupem
vykři
nebojí
##loví
##eckonců
ředitelky
pohádka
##obě
Kadaň
poradenství
karlovarské
věznici
lékařka
Mnichov
padá
bílou
Ant
sedmý
##LU
náznak
Hof
potřebnou
asij
Přemys
jihomorav
Mužstvo
##řín
kilometr
Frankf
##vizi
Řecko
Švýcarsko
kempu
stanu
podzemí
1918
přidala
přesvědčeni
bytech
Majitelé
##MO
referendum
MÍ
Peuge
dorazili
Dneska
##riel
Dosavad
založili
nevyz
poštou
manévr
takovému
1978
zapomněl
trénoval
nejdražší
tuku
vyšetřuje
Ředitelství
vzbu
##blízka
Jež
vztek
určený
Třinci
adrenali
Uherského
LE
Kašpar
##hových
obsahovat
##lubu
kvalifikov
Měsíc
něčemu
beznadě
##bol
we
Zdravotní
představiteli
spoléhat
Kalifor
zaprac
týdení
##goni
vysti
diab
repertoáru
nastoupila
muzikant
způsobené
výhoda
instalace
depres
##iera
##díte
neznámého
dočkají
blan
Belg
UNESCO
##tnice
##jou
Vlád
přihlásilo
předeps
podrobně
gymnáziu
náhoda
1974
chyt
soudci
vyna
##peu
1950
##Star
ponechá
Německý
zaps
prezidentovi
##livější
výtrž
Moravec
rozhraní
RS
Technické
potenciální
jazykem
základnu
##sor
Humpo
vyhláška
dobí
věnovala
chybějí
protesty
Agro
inciden
1979
##ensku
Šumperku
Koukal
poštovní
Viděl
zajít
zasahovat
stěhování
portu
nenávi
koloto
##leku
Reprez
řeknu
jaderných
dorazila
stanovení
Vale
sadech
##štit
oliv
prohlídce
gramů
dřívě
goti
neplat
nejvyšším
tet
louce
hasičské
stezky
Kryštof
zákulisí
zpoždě
veterá
tábory
upou
informuje
veřejném
##škovi
##padalo
Starém
představoval
Stock
Plus
salát
někdejšího
sny
Přij
1960
měny
rolích
Chtějí
čtenářům
Kouč
výjimku
seznámil
výkup
##být
disple
čerpání
rezid
##kován
ukládá
běžnou
postoupili
posad
miluje
pokročil
Všude
pomys
otřes
městečka
úhlu
##já
grand
##ture
útočníci
Znojmě
##ÉM
##čkovou
##centrum
výt
modlit
zven
Mečiar
expan
náskokem
##bauer
poukaz
Kostelec
špičce
Nezapo
##ders
okup
spoluhráče
prvoligové
vč
zájm
připomínky
AG
rozdělit
##hoře
poplatku
sobotního
kamarádů
Memori
Skóre
sáhnout
##sé
##cembur
členské
léčit
Teplo
záchranářů
zezadu
těžby
vstupuje
historickou
pohotovost
videa
jedovat
představitele
##manem
samého
ČER
určí
sumu
umístil
přímého
biop
nedovol
Slovácka
##FOR
zlatý
pátého
loupež
partneři
##konce
hladina
Naším
ujišť
housle
KA
činila
Zkrátka
dut
##ffe
agentur
parádní
Štědrý
##ostech
projevil
Jejím
motivace
bílých
##váním
nejmoder
palác
##věta
OKD
stere
zadání
##žívají
nákupní
čokolá
Hráli
otisk
##skov
poslala
stráví
Pittsburg
Velkém
##hradí
##ür
cyklisté
Třebová
kvalit
##kovská
##jezdech
##pisy
extrem
patřily
písemně
dáno
##zaných
podmínku
##novského
Pur
##jíždění
nepřekva
##nedávna
zvýšenou
Viktoria
dna
posel
univerzita
ztratí
Lim
různým
rybník
dostávat
mistrovské
lidových
výrok
Jarolím
vývojem
určených
podnět
Ada
##lině
teda
##lecký
##táže
##pouštění
##havé
##ála
orientaci
vyloučeno
vzrostla
pouli
ekonomice
##milo
záměrně
Minim
kauzy
Obžal
vyskytuje
rybí
velikonoční
dopadl
Mimochodem
lhostej
bezbran
pohybli
ladě
Vondrá
titulem
##anost
slabé
Rab
##centi
skrze
požární
rozčil
oslovit
nejvy
mer
podvo
kok
krizí
přehlídku
Výzkum
projevilo
hřbitova
Ruskem
##orig
nejroz
zveřejnil
spontán
uděláme
Janáč
Moravu
Ondřeje
očist
Master
platnosti
Švédsko
paláci
##logie
Představení
##mějí
otrav
bol
natož
JIŘÍ
kontinentu
##prvu
mrtvé
nereag
bratří
Wood
hodonín
nemí
zahynulo
##zápas
Pier
##ničce
vlastností
objevovat
devadesáti
Dale
kluka
Uli
desek
nabídli
designé
doplňky
Termín
Rost
##olí
opozici
##financ
interiér
Zvlášť
##rovali
karos
AU
milión
##lex
předví
haví
sklou
spolehlivě
##elů
poroty
##ovnu
Švýcarska
vystěh
##ečka
donedávna
vyvolal
lehčí
##dela
mířil
předměstí
178
##wski
Adé
ohla
Igor
majitelka
sekundy
##ilý
přip
Pora
hydra
jízdou
##bová
lec
čtvereční
##rusla
Hvězda
##pochy
IB
slavných
zbou
zahraničním
čtvrtě
Vratislav
řadách
##ij
stovka
inova
Jednak
sponzo
postavou
nemovitost
pošta
##nicko
budí
##bach
##átorem
vypadala
hon
nesmějí
barevných
dozvědět
OT
##busy
věkové
##rkou
OLOMOUC
neprod
D1
nekompromi
vzdá
##neku
zavraždě
zatě
složek
##dík
##ÁK
bará
jejími
VAR
##entují
##vory
gala
Kocou
zemřelo
zpev
fou
likvidace
prvními
truh
hodit
založit
Vlá
velvyslanectví
ostré
##boři
Nováková
##dů
Českým
známí
přestupek
poukáz
vnitřních
##pice
společném
zbývajících
poslouchat
disciplíně
názvy
prodejně
železnice
logické
stezka
##řicetiletý
##itých
Mráz
##tého
Vietnam
##chta
Kaza
zaplatili
uvědomil
lidskou
Třebové
délky
studio
vypadl
odjet
cyklistů
zastupitele
Nováka
servisu
prsa
kard
##ovicemi
petice
konaly
Obama
nesná
Ukrajiny
nesed
SS
vězni
explo
Vala
##řiny
EP
zamy
jezdím
muzikál
příspěvků
textil
Klatovech
##cházejících
kultuře
##ňovaly
##bioti
nebem
rekordy
severozá
##livého
emise
nájezd
##enství
##vením
dávku
britská
úspěšných
nekvali
love
komisař
Renata
Libereckého
##maji
souhlasu
občana
##ECH
prachu
zoufal
##letém
ČSA
víkendech
Benz
prodejci
myslive
##říkladu
ignor
##kusu
legrace
budovou
##pána
Bratislav
bubení
##stara
místu
##ration
##ecé
vyhlaš
hranicí
mýt
dovednosti
přínosem
vrstev
tělesné
legislativní
Respek
viet
svátku
konzervativ
##vacím
Současný
##hánět
##římně
ujel
patri
##byly
čtyřko
Robin
tudy
nepředstav
Gól
bývalém
Vítězslav
Vez
##pravách
##menty
koruna
Jung
protisměru
##řáb
##rani
##stant
##čanech
levné
reprí
reprezentantů
přístupem
List
účinek
závažné
##énem
výrobou
narko
Nechtě
ozd
egypt
vydržel
kanoný
listiny
jarních
##avých
hrdiny
slavností
pravdou
LU
dlouhém
hasiče
Ján
pověsti
Smut
chodník
dvacátého
hl
##skij
##lostech
##ump
##ll
zóna
Středi
Předtím
podíval
využije
emisí
##ejme
pochopil
SZ
##říková
potřebných
1973
Jelcin
disponuje
lístků
oště
autorka
popsat
kvalitou
touha
Benát
tenisu
Dlu
zelená
Tane
azyl
##inecké
verzí
Kohout
Řecku
Nedělní
##metrové
Sty
Bir
načer
Vytvo
nabídek
snížili
##hard
Sbí
##25
##šíte
Louis
##ovkami
##gol
ptačí
Název
spokojeně
ujali
nedočka
odborného
All
Poslanci
##ors
evidenci
vině
probíhala
divoké
Što
##tkou
místností
BUDĚJ
DDM
pleť
Dopl
daný
nestane
Málok
Příjem
poctivě
kliniky
domovní
šar
nastane
absence
vyprávět
Dro
##drželo
##ánky
konkrétního
##ODA
spoluob
##jištění
ema
vskutku
Gros
Smrt
únos
absolvent
brzo
##INY
šoku
jev
##IDS
Tomášem
rockové
četl
Davis
Karlem
testování
kuřá
zastupuje
masivní
suverénně
##nících
řidičům
##hovat
Amerika
diagn
Krkonoš
##ANA
nazvaný
česnek
odráží
napravit
převodu
##balo
##sus
Andrej
personálu
##háme
kinemato
Poděbrad
ničí
LED
prohlídka
podklady
zapojení
úspěšného
stěžovat
Knihov
sportů
svi
zblízka
pátrá
Sněž
zásil
položil
odhalení
Hrom
nápisem
startovat
pozic
Čermák
neoz
řeku
Nobel
vedoucích
křídlo
vyhově
smutné
vzácné
##nel
oknem
víru
výskytu
skutečnou
pochodu
problematice
##BL
Kongres
trvající
utrpení
##knutí
knihkupectví
##sové
##hlásil
Hrubý
vyjadřuje
##níková
##ýn
##ign
Představitelé
vizi
hojně
odhalit
##chám
Jeruzal
Alexandra
neuvědo
##oman
rozbí
disciplíny
sraz
platfor
minulou
informačního
kastel
proměnit
Izraele
STO
volal
nádobí
upřímně
otevřou
Starého
dopravním
Holý
Závěre
všudy
členům
prase
písku
požádali
Technolog
Gro
arcibiskup
odbyt
Moravou
plyná
ub
prk
1977
hotovost
nejčastější
šup
nevíd
předpokladu
projednávání
Dlouhé
Beránek
##žene
##prodá
propadl
výslov
But
nádrž
##valech
kapelu
nemocný
televizí
##zur
triumfu
židle
##anásob
Bli
##orně
##šin
kandidáti
rovině
týdenní
##stie
jemně
západoče
##cht
nejbohat
##erem
nárůstu
nevylu
##lovala
pse
summitu
některého
##havý
předložil
Nau
německým
nepodaří
zlé
##dost
podlahy
Jediným
Ferrari
240
pohodlně
zavz
zastavili
zdejšího
dopisů
##ovatelné
jádro
začínající
Američanů
fú
##klon
hranicích
konzult
Zlínský
pachateli
Kim
nezapomenu
##naly
získané
chvílích
zařídil
##ádou
hodil
vize
hospodářských
rezervace
##lijeme
zaměřuje
angličtiny
úředníky
##lovu
##řskou
nastat
mód
akvizi
strážníky
článků
##ló
##timní
styli
staří
##odivu
##líkem
Lisab
vážná
změnách
defi
##chali
IC
Stál
Včer
nahlas
zpěvu
Mladší
Sokolově
##mínám
omít
Seri
Ideální
vyzkoušel
císaře
samotná
pohřeb
Deb
##waru
##smem
nejvýznamnějších
takzvaných
radních
hlediště
rychlou
sporty
Pozem
Nejlépe
Hruš
ožen
Luce
vyžádala
evidence
Momentálně
astro
úroky
Sami
##sity
široká
bag
Chi
Wimbled
Zbo
střílet
smířit
usmál
##anům
posila
Pozi
kytarista
Odhad
ochranné
ČÍS
ambas
Křes
Přiz
DOB
Lotyš
Vsi
přítomných
dokázaly
obchodníků
Konkur
plátky
rejstříku
rozhovorů
Generální
##wit
primář
Reich
kritizoval
polského
banko
jmenování
slevu
Otázkou
stáhnout
##lovic
##olventi
čistého
Současná
zříz
Neček
nezávislost
##volní
zabra
asistence
demonstrace
dáma
regionálního
odstoupil
##puštění
##tující
##anov
přístupná
hrubého
umělec
šk
kvó
Špid
HK
##DUB
zklid
učinil
Marcel
mužstvem
##13
neumož
tempu
požadavkům
ruší
Oprava
slavil
Libuše
1964
Toron
štáb
DOP
bili
##atra
Moráv
přípravném
namal
ztvár
Víken
Kauf
prodra
pracovně
oslavil
Řád
žalud
Oce
béčko
zvládne
##svě
německy
Nechceme
Jun
##lari
KRÁLOVÉ
##lehlé
filozo
měřítku
uskupení
Nepomu
hospodářského
výrobních
vyhlásila
bohoslu
nejdéle
čtvrtá
počtvrté
tamních
##árních
uskutečně
##opravdy
otočit
květy
nebezpečných
##gran
zaváhání
Brazil
##pevně
pořadatele
vlastníka
Roze
stanovené
nezávislé
##finálové
pozvol
##lovalo
mužské
polikli
stimu
koj
žada
##vače
Tim
Anti
historií
##tara
dialog
jezdili
stanovit
neřeší
kned
##opar
zadržela
nezávislý
vlnu
PARDUB
##emu
obdobím
mzda
Bezdě
Mnichově
##ňovou
upřed
jazyce
##lechu
obrazovce
Jacqu
Zlínského
přestala
pops
Zlo
Německem
Brückner
překrač
spojená
##ákům
##žemi
přistá
Fotbalový
##24
zlepší
úrazu
šumper
volnou
synago
Google
tras
nedokázala
##zai
vrcholí
veřejností
Schwarzenberg
politikou
kandidovat
pochybení
otřá
Mikuláše
Vald
postiženým
ceremo
baterie
láh
absolvovali
vyžadují
Dort
agentuře
prodala
reformu
Vot
nápojů
viditel
chodbě
vnímání
pravého
Bílý
počin
neve
rybníku
reží
tká
objektiv
Tito
budeš
pokusů
thr
přežil
výděl
1944
Červený
procesy
pred
kartou
cibule
úseky
vojenský
problemat
##žným
##etní
prolo
posk
Neměl
jedničku
krajích
Požad
rozhodují
budějov
přesilovce
strop
značný
Hynek
Hrát
zvyklý
##arová
manažerů
vyskytují
doporučil
starostu
Anebo
Kud
ZLÍN
žď
bezb
hypermarket
bílkov
instalaci
##kev
Volf
suroviny
aerob
uvedena
titulní
správná
obcemi
stoupl
pořádat
lahve
včel
##álku
pátou
Sie
##lkou
chlape
##šlá
Veče
##místění
spadla
leden
Vědci
zeleninu
obává
oslavu
Buff
Tot
svíti
ruská
##hrada
pomáhali
Ústecký
##BÍ
bránil
KULTUR
##desátiletá
žák
celorepubli
organismus
Kö
plasti
radovali
usmíval
BUDĚJOVICE
pohodlí
nepřišel
určuje
STK
holka
zažili
Ral
konečný
příru
považoval
mítinku
Maro
##alitu
nepozor
slzy
tělových
Organizace
jednost
Tahle
##prodej
absurdní
záli
oddílů
vyčíslena
Odtud
veletrh
výjimečné
nouzi
##namu
předvést
spokojená
Natu
medicíny
neúspěš
##vačka
nejhez
přesný
Dosavadní
Půj
##16
##roví
špičkové
Odpoledne
příbram
Liška
peče
podříz
Harra
sude
gratu
atrakcí
divid
Club
chovu
##inálu
nevyuží
Mohli
Restau
##14
Mohel
udržuje
nevyšel
Vaněk
shled
stěžuje
transplan
##atikou
kursu
vchodu
jisk
nedojde
hrubé
kalku
##paci
Hels
povstal
pavilonu
působící
##rážka
litoval
Temelí
pomoct
tragické
budoucích
Tábora
##KEM
filmech
marod
Som
Hovo
Vstupenky
##žuji
grandsla
ref
Přízni
##řici
sociolog
##vený
##varu
komentuje
Pátek
výměnou
##centra
Klid
Cat
AIDS
apo
firmách
Valenta
domků
##ZS
vyšly
dvojí
eko
##buch
dřevěných
klíčový
ministry
uspěl
utrpěla
Poláci
Bad
muziky
mix
vlastníků
rozšíří
deko
##vědčí
##TS
##sách
##álech
Oblíb
nebudete
Nen
zajistila
Bala
vědom
pronají
nevyhnu
Hruška
nainstal
začneme
Krista
##nutou
##rných
levice
EURO
neobyčej
Snímek
Dobrovol
##encem
vystře
podepsali
vyslovil
Temelín
vylepšit
##decko
Ztra
přispěje
Vacu
otevřenou
sazba
neudělal
knížku
##lný
Jilem
gro
Vánocích
Lob
příznaky
Bio
uté
nejhor
##skev
ležící
EXP
Prod
Poříčí
literaturu
přírodově
výbuchu
##zdil
nasá
akumu
češtiny
epiz
záznamy
strukturu
narod
##ream
bohatou
Těsně
tratích
Nádra
volná
věnována
Ak
porovná
Kana
potápě
ateliéru
pracující
prvek
lahů
##esteru
ligových
trénu
##mující
Černého
KB
polský
Výstavu
síně
##LY
Vsetíně
##ění
starají
uvědom
##ražď
procesů
avi
odvy
tek
Sha
oké
průhled
překážek
novinek
koncertě
##illi
SRN
toku
lákají
vrah
čáry
chybějící
žer
qu
dálku
##test
Silnice
polní
důchodci
vystudoval
dým
Mau
dokladů
hattrick
schopný
sněmovna
Úplně
##ďme
nymbur
úzké
lák
##ajícího
zákonu
rozšířil
##manna
jdeme
Lázní
udělení
charitativní
SKP
sepa
dopustit
netrpě
faktory
##anic
zod
retro
diváka
##antů
Děj
žďár
zác
##zší
úspěšní
vzrostly
uleh
##niho
Publi
Belgii
potřebujete
učil
přístro
odehrát
Moravská
bankro
Lize
jazykové
Vas
organizuje
##caj
šu
##VV
##mek
##fak
neprac
Tyr
tvrdou
Dodnes
pravice
vzdálené
Polí
působila
Hala
choroby
1949
nazvaná
přep
kopci
metodou
přešla
odejde
Muzi
udrželi
velitele
##tujeme
lokalitách
Aero
oplá
ptát
dopisu
Pů
Pali
Zubří
Seznam
obcím
veřejno
##dární
povrchem
Kapitán
angličtině
vykonávat
##lovicích
HAV
Obvině
nedají
zařízeních
##MS
evropská
hostujícího
##růstající
1942
1946
rozpa
vynech
regionech
veliký
Cír
úředník
doopravdy
Svato
##isen
##chen
nále
Roudnice
##tinu
STŘ
varují
179
Mariánské
##leze
Vysvět
Františ
zeptala
##ŮV
paragraf
záměry
Cim
ryze
pohotovosti
kulo
páru
důležitým
Kari
dluhopisů
rychlá
halé
##rovaného
držitel
mince
##age
##ovníku
soukromá
##ládat
různo
Izraeli
Benešova
vzniklé
vývozu
žár
2020
Zelenka
vypořádat
dovozu
houba
##měje
stávajících
čtvrteční
přerušení
psychické
System
vzorků
##kánu
suché
##pulár
BER
hlavičkou
vysvědčení
dani
Pec
dovedl
Sky
válečné
VW
chemické
Jugoslávie
##hlídka
##vetě
##nutá
úterní
osaz
rodné
zvané
akutní
UP
Got
koncertem
##ženém
přejmen
##sích
##nesou
starším
vzájemných
Speciální
samostatných
obtěž
Kriminalisté
Demokra
nestačili
Počasí
neho
depoz
portugal
##látor
vytip
Charles
Ští
Koš
fax
milovníci
ukončila
Hadam
tamního
Heřman
Bart
kočky
##deo
pomohly
svatební
láhev
Bat
západním
Pobor
##000
Gri
souhlasil
VS
nač
institutu
##ther
sehráli
##mid
kontroverzní
dží
hollywood
víkendové
kame
Rozhovor
Půjde
##ták
abstra
potýká
nepočí
dešť
NEW
obohat
pociť
Mnohé
vyplý
Opera
bill
podržel
odstartoval
faktu
Berdych
##TON
prozrazuje
Primátor
připravujeme
##rovnání
důkazem
startov
ES
stavebním
##zován
Neto
Velko
##ICKÉ
odehrálo
##char
##stého
hlíd
úřadech
projednání
Vacek
pohádku
karvin
##íz
balkon
výcviku
dostanu
přibude
vystoupením
Rudolfa
výslechu
##ejší
záložníka
STAR
##začních
prova
debaty
čerpat
##DI
benzinu
##decké
##šou
##tahy
prádlo
radnicí
##rup
Sup
Sony
##stný
##ovin
vyjel
Sav
přestane
možnostech
Výborný
scenár
Natá
Římě
nemluv
nejedná
fle
prohru
Konkrétně
vybrá
odtr
rodí
plody
knižní
záchraně
výstavbou
Lokomotiva
odvoláním
pardubického
duely
##úhel
##nickými
extraligové
hospodářskou
smál
zatop
Špič
Spartaku
koři
##statek
TOM
Velice
éry
##mor
rozlišení
větve
schůze
výběrem
provází
planet
oboustran
##tickém
češtině
vesnic
Team
##sány
označením
bavili
Mobil
dopise
##metr
příkopu
slovní
bosen
oborech
##áta
##itoměři
Středočeského
boxer
Tenhle
poskytla
zákroku
veřejný
##koš
bronzové
Zahá
procentech
akademii
Baroš
krásu
disciplínách
Josefem
Chodov
Domnívám
Světový
vyvíjí
stanoviště
litoměři
jedničky
stý
Správa
kamene
písemné
##leného
miminko
vaří
rozmys
Marii
automobilka
##bírali
atmosféry
Joe
anglický
přesou
traktor
autory
Holand
českolip
čemuž
trum
Brankář
osobám
svítí
Apple
žlutou
onen
rat
cizího
odpověděla
půjčku
Kristýna
nastala
##ric
##fér
telefonicky
hospodářský
Novotná
Zbý
##nevě
litru
##agog
prioritou
##ozí
rekordů
MIN
You
hraz
nul
nevyda
Richarda
umějí
Jednotlivé
maklé
nájmu
##ague
nakoupit
kamenné
pořady
Pé
omezené
soudů
Bron
výcvik
Šil
Fondu
##22
řeka
střelců
zajímavosti
mzd
účelu
společenského
klubech
zahynul
rozdě
radovat
dodatečně
konstrukcí
##rátorů
Stati
pomůcky
Desít
##nějšími
kara
zpěváka
Hadamczi
##šovicích
ledové
cou
šatny
blázni
příznivé
##lymp
##anda
vnímá
doktora
udrží
rozhoř
bankovnictví
Zep
Syl
studijní
air
##TC
##organ
Přiby
hluboce
tis
incidentu
pel
podílejí
rekordu
Nejstarší
důkazů
veškerá
výbuš
Jáchy
činitele
skoku
##leho
Jihočeského
##mod
##deník
nájemní
##wald
nádor
rakouského
Kosovu
Turecku
hradí
krajině
průkazu
Okam
antibioti
blížící
##gner
zlomil
Zé
špí
dostatečný
marketingu
vysloužil
nechají
##varo
##hodných
sejde
severových
starém
##onáře
##kejte
Deut
Mont
Cou
Objev
teoreticky
Československé
##com
Všechna
postupuje
klesly
zane
nepřetržitě
olomoucký
slovenská
135
##advacetiletého
Tatran
Příčinou
násilím
manažeři
socialismu
našlo
potkat
##hující
Hlou
Došlo
jeviště
vybojovala
##procent
Třince
Věděl
koloni
případný
Dun
čaje
zaměstnanosti
stravování
zasněž
dejte
Neděle
prošli
manča
1971
Uz
hnoji
Americké
##asebal
výprav
##skočit
šťastná
sau
praví
zvedla
hormon
Karlovarského
##nicím
řemesel
##cně
dlouholetý
půjčov
##ovanosti
hora
vojsk
##tér
udělají
víry
nedává
Alice
pras
dosahují
pohl
Havlíčkova
příto
oživ
zdí
chrudi
stanovena
##jednat
##čkal
##berka
Říkal
Dvaná
trio
Vancou
fakta
tón
##35
HRADEC
náboj
mistrovský
Komple
írán
Maty
Elektro
vrstevní
Hun
##nicemi
připsali
změnami
solidar
KAM
vysílat
subjekt
vydavatelství
kolej
kapacitou
polštá
vymyslel
obava
chrám
kůň
Opak
SA
Mars
Hejt
##minutov
smluvní
zvýšily
oddíly
večeře
armádu
Sigma
vyrábějí
přípravek
Čečen
##lio
zastávce
Hoff
grant
srovnal
##premiér
týdeníku
dokončil
pozastav
Obce
##váb
mrtvého
Obvyk
trávy
zařadil
spatřit
##šují
Nemůžeme
nefunguje
stresu
žur
Dívka
rozjet
přihrávku
delegace
sep
ohrožuje
umístěny
proměn
konečnou
##novy
norem
##telům
plných
Dokončení
přihrávce
vakcí
barvou
osíd
pošle
vydávat
Děčína
hromady
##IG
zničil
Raději
vyčist
zvednout
Gen
Baz
##šující
SVĚT
Městském
menšin
zvyšují
místopředsedy
Uj
volbou
čar
vet
Štěpánka
splácet
polských
ulicemi
##čkám
##ya
115
##feld
válečných
několikanásob
##řicí
lobb
Čín
držela
zakry
komín
##ett
zabýval
domově
kvan
bylin
sté
slovem
terčem
##razení
Litvínova
veteránů
burzy
prokázal
nalož
převaž
##ismem
schopné
konečných
demonstran
##hlejší
fronta
živý
hráček
firmami
upřednost
integrace
malby
milovníky
Wel
zažila
dívá
softwar
Mnohem
přesněji
výchovu
Dost
připomněla
čelo
příbuzných
##ávala
vzpamat
dirigent
každopádně
##macher
jistotou
extrémní
složil
pokyny
PETR
teorii
Občané
ztro
vojska
Kroměříži
nepřítom
skladatele
odpočinek
zlepšila
obvinili
##švi
katast
nahrávky
kolegou
pořadů
utě
střecha
Staň
Hyunda
sovětské
KOL
špion
##škách
Výhodou
přímou
##áše
Plu
cestovních
##čnými
útočné
náhrady
vyučování
moravských
kdežto
konkrétním
úžasné
Žili
umístěn
převed
hodlají
tarif
povstání
Zbroj
minuta
##ŘÍŽ
##czy
senioři
obrazovky
voják
oří
expert
Son
kreseb
asoci
zdvi
kontaktní
krásných
##žném
Zprávy
neudělá
udělalo
hody
píší
resort
nebezpečná
imi
##čivé
##budou
kosmi
##MP
Spousta
ruká
zbožím
Fla
##bín
##astní
##klubu
Čís
hotelů
znamenal
##tečného
cimb
diplom
svaly
katolické
Parlamentu
Kotr
pravá
##vědčuje
Mirka
zahájen
Republiky
zdvojnásob
##ect
královské
##šů
máma
Třebíče
platil
##ire
nejznámě
Noc
rozbil
cti
##anec
Hov
posílí
citron
Litoměřicích
nahlédnout
Náro
##ejbal
Vaj
Ukázalo
připomínající
Špind
čtěte
##úd
Sestava
##álková
ztrácejí
vítězové
##CD
##řelého
##loně
setkali
netre
Západní
životních
porodnice
reprezentovat
##ceu
mojí
připravoval
přepá
##ketu
karne
Pes
Pardubický
##mic
délku
pohov
veliké
opustili
Masarykovy
zoolog
##ravý
kaz
přístavu
obsá
1965
##dělil
1947
muziku
zlobí
##gs
##rovské
Chud
schválil
zaujala
extraligu
Vina
##rij
vystoupit
porodnici
popisoval
sak
čokolád
rádio
Blšany
koleno
##ceným
dohad
výky
opouští
##enc
Ludví
##ORK
převezme
střílel
##tet
##erie
##cková
podmínkám
vybaven
##čítat
založené
přijme
ČL
Body
Zmi
PŘE
Ekolog
babičky
##teče
##righ
Lípy
zmíněný
dotázaných
upravené
domaž
##TP
návštěvník
stabil
JED
písniček
samostatný
jakkoli
ráj
##něch
lad
bomba
Kř
účinnosti
zvuku
propuště
NBA
dopravou
uvidíte
neome
##elli
Nejdůležitější
žádal
pravě
Finance
Čaj
##ďan
ověřit
vernisáž
tajně
Zdejší
vážnější
informovali
Dok
dary
sporů
Tren
poče
přivést
mimořádný
##spěch
zónu
stavy
Celkový
Irá
filoso
dokola
olou
##rálně
Pomoc
##KON
podstaty
příslib
duo
prodalo
##trest
uplynulé
##18
pohrani
JUDr
sjezdovky
lám
turistických
sedma
domnívají
domácnost
##ředí
O2
měrou
chválí
maraton
Jindřicha
Areál
Fortu
chodila
konstatovat
trouf
Šťastný
gang
Jihočeši
kardi
myslela
hladké
Poděbrady
vyžádá
nevyře
prohrály
nechtělo
obyčejné
tamním
Čel
střelecké
##zán
Uvnitř
účinnost
##tery
Lidem
rozdílu
královna
##káží
evropským
pěstí
valaš
pauš
##timi
##tona
Zloději
preci
Vendu
trofej
leč
uspořádal
mis
slalomu
motorových
obyt
##hlédla
šéfredaktor
fantazie
nezav
doprovodný
byznysu
##edice
bytového
##ovském
příčka
ubývá
Hudba
Rozhodl
BAR
dvojic
Hnutí
##17
Liga
znamenala
##ív
povídá
ostrovy
nepotřebuje
sídli
záměrem
##hany
##zovaly
##nčí
PPF
Ig
##čové
230
lukra
zajišťují
opakuje
nezměnilo
sema
Irák
Octavia
nostal
příjmení
rádia
pokusili
##rající
Prague
zraněné
Chystá
Vrba
libereckého
agresiv
##tající
probíhající
##ement
##sná
vlně
bodový
příbuzní
spolumaji
uhradit
Horváth
##alismus
namá
dodávek
Power
Přibli
podlož
nepřekon
osmifinále
propuštěn
dor
pape
pohro
rozpou
formální
##síte
Kras
##stovi
Ráda
rytmu
náma
##iladel
nadstav
spravuje
polohy
Nabídka
##solida
podnikat
starým
Íránu
##roblém
##žbu
##pisuje
Ope
zahráli
moskev
ostravský
rozsáhlou
daného
##over
Poško
profesní
vymez
mistryně
přejí
předpoklad
HOD
hazard
starostové
Masarykova
##ČÍN
Caro
misi
studuje
nemusela
##říka
##šků
převezen
taktiku
##seň
Včerejší
Ec
léčí
informati
##jete
NK
Petrá
napůl
přírůst
vypůj
VLA
som
mlýn
##here
##pík
Hur
školáci
##RC
Snímky
Ciz
##cového
Uvědo
VOL
banké
prodejen
posluchači
jeskyně
vrácení
komunikační
BIS
##mela
Dostali
vajíčka
hip
obranou
tendenci
doplá
Premiéra
Olymp
stránka
bitvu
##bají
půjdu
děkan
##žitý
Švan
##mura
vydají
jezu
apart
odhadu
plynáren
##OJ
inteligentní
Pul
sídle
řediteli
návaz
##sklad
zdanění
točit
podívanou
začátky
Hodnocení
navrhla
Základem
brigád
##ligy
jedenácté
nezaznamen
spotřebitele
přivítal
##óze
hoří
Islan
osobou
Kapela
nejdelší
Ostro
##káme
odstoupení
výkonného
balík
Pravděpodobně
Zru
seminář
Kolum
půlce
krajinu
zavítá
šíř
1966
etapu
Defin
světo
energetiky
##rále
získávají
plamen
Prosím
pohledy
sprch
vzkázal
faktorů
mladíků
oznámili
Bém
masak
restauracích
filmem
odjeli
nepamat
pódium
domek
provozovatelé
##maci
pohádek
priorit
stříbrnou
putování
slun
hlavič
CEL
ileg
levněji
standardních
pš
Tabu
Nepře
tělem
##rö
##bové
liberecký
King
podlehla
zlobil
Laz
tvořily
seznámí
klep
##zeném
##celi
##rovaná
noze
hezký
Abra
tabule
MAL
děkuji
poo
předvedla
přímých
nakrájíme
exportu
oficiálních
uvolnit
mužům
zpožděním
uložení
komentáře
hvězdu
Monte
Martí
únik
izolace
naříz
soch
adep
náleží
developer
mizer
západě
svěřence
nakládání
penzijní
jihovýchodní
Jasně
Suchý
##mag
zají
nabízíme
Dlouhodob
Snažím
pořádající
obdivovat
##pochyby
litví
ovládat
živel
schodiště
Veškeré
Rosický
silami
výrobku
běžná
dopadnout
Vávra
TA
zh
jarmark
kvalitnější
vařit
Brnem
palce
brankářem
##pin
dopadli
odleh
Náměst
##ózou
hloubky
cenové
znásilnění
rozkaz
Sec
umělecký
zaujme
hesla
Úvodní
##DĚ
Gran
Obvod
starostí
konkurovat
snižovat
zeleň
Turecko
žilo
##výš
doplnění
majitelům
kompromis
nah
terénní
umy
Schumacher
Sušice
asistenta
úmyslně
##lko
Moravskoslezského
spokojenosti
okamžiky
žel
##ivit
komentář
##ňových
rychlého
židli
##hový
stranami
Rozhodující
husit
synd
Nehoda
nezji
historická
Stejskal
Abych
Aut
přistoupit
chole
##plej
##kupu
pevnou
Mrt
Adri
festi
Bagd
##telného
dovolí
balíček
analytiků
tát
Hyundai
sousedy
myšlenkou
prospěšné
schodech
spolupracoval
střelcem
herecké
vyrovnaná
řidičský
##istky
hym
##louží
##manu
Eston
Paradox
metodu
nepřímo
##HC
Soňa
zaují
tahu
přihlásil
mladou
burz
##drži
##kováním
kvalitního
Jersey
mega
čekáme
neopak
prožívá
##SLED
PAV
přesvědčil
hoj
Někde
přestře
určeno
##EF
vnitřního
místostarostka
přinesly
táborů
Ana
uložit
zed
##ecký
pneumatik
kostí
níže
Plzní
vyhodnocení
nezak
nesl
deficit
Horním
přispěla
Baby
Energie
záně
schová
zazá
přehodno
bratrem
stálá
##comu
králem
Media
otočili
##gová
dechu
podcen
pohledávek
Jarní
zadních
##osu
kurzů
odpočinout
průzkumů
Kanada
Šulc
Nejméně
žákům
obdrželi
nedostanou
mrazu
dobrovolné
uvolní
exkur
oblíbená
Chval
155
##bon
odvolat
##íš
bundes
zhodnocení
##enkou
obvinila
Ac
Právní
samotných
literatuře
chtěly
komfort
těšil
působi
Zase
prozradit
vyroste
geomet
##ránce
sněmu
CR
zanedb
elimin
leb
junioři
zpětně
sousedním
operátor
dveřích
nezkla
nastavit
konkuren
splní
právu
##kaři
Potřebujeme
posudek
upozornění
vyvíjet
dlouhodobý
synovi
Jiné
netají
zesí
ligový
Holding
##lovými
##tam
reli
významná
Peru
HOR
droga
nenávist
projekce
Litov
cedu
##láci
samet
došel
ČÍSLO
zopakoval
##láz
##lt
výdě
kytaru
vysta
##opa
kopie
ranou
##ečer
potvrdily
Silvestra
databáze
Dam
nemohly
společná
vytáhnout
grafika
vyjížděli
##líčka
útokem
diplomacie
hostem
Prvo
výborná
165
povodních
Mluví
východoče
strikt
ohňostroj
bezvý
podpořili
Oblastní
hradecké
forem
##lehlých
Neo
způsobí
##venční
realita
zkoumání
přístupné
dotáhnout
lokál
usou
proro
potrestal
##stonu
kladi
zkres
Stojí
linii
##cing
principy
předstihem
tabulku
městečku
FAK
##tovi
Bečvou
nejcen
neurčit
nepřijde
Romy
Českomorav
Zrovna
zastara
remízou
komedi
registr
FA
nejvhodnější
analýzu
výprava
hrozné
Průměrná
našly
kauza
fungující
anděl
##ENA
princ
jednostran
Bohat
##jednává
Láska
hotová
lyžařské
##lohou
přestoupil
těžkým
Šk
Házen
Seb
##pií
##CHOD
sev
pokouší
##žov
statisíce
Takovou
lídrem
poslouží
Vystud
chápe
Kutnohor
zachová
Tenkrát
otvor
univerzální
ozval
uvolnil
vítěznou
časopisů
výtvarníků
##tos
##fikační
##LET
Ober
rozměrů
zviditel
zprávou
zre
obávat
hnědé
přidané
Obra
##atole
pokrok
ekologických
##řan
anonym
Cru
rakouský
jedince
přinášejí
popředí
Turecka
stačila
individuálně
##ďák
Bara
hlasu
bůh
##avého
faktor
umožnil
dvojnásobek
##kovalo
účinné
projevit
horizontu
prok
ženská
Fed
okny
##hlédli
mraz
momen
slávi
transakce
Bať
podepsala
zoologické
Ohří
odvetě
Evy
závodit
namo
nástupem
##trem
rozdílné
příjemná
nabízel
hromadě
předávání
Dřív
stadiónu
##rovná
1963
vystřelil
Simon
##nictva
Dopis
##pková
Mlé
načas
bohatě
stažení
May
dařit
tašky
zasloužili
havaroval
sborů
prohlou
Play
##škové
významného
Syno
Lužnicí
##enští
stánky
rakety
určitým
ukr
moderním
besedy
pojistného
poslání
Obraz
odpovídal
zítřejší
propouštění
ochotně
hlasitě
správního
věřící
posílá
volna
##otě
vzorky
oddá
nedoporu
can
místními
dětském
Nejvý
dosavadního
skandál
FB
vyhledávání
Cra
zkola
speciálním
předstí
Hong
folklor
Kola
přát
##HY
1962
provozovatele
rodinném
profesi
zpronevě
##INÁ
##mentace
vážný
gynekolog
##randa
dětskou
Hranicích
nepřiměř
liberali
partii
obličeji
Hrádek
##oven
expozi
pořádný
nula
##mořské
##rs
vyhrávat
hero
Graf
dlužní
vich
##cenění
důrazně
stád
Přemysl
děsi
##níkové
vykáz
Dž
Jirásk
Edenu
nelegální
nenašli
Karolína
trestním
mrazi
vyvrcholí
Sin
konzervato
vklad
Jugoslávii
zpřís
pásmo
mex
Manchesteru
zemědělců
##hují
supermarketu
příchozí
##ohled
##entali
##entý
##bírají
kut
přilákat
##kia
##nejte
referenda
elegantní
##xa
##začního
nájemce
povahy
střelci
Dov
Sel
Manchester
##losrd
Ever
Zpráva
Míst
KV
prošlo
amne
##řou
nenechal
žurnali
##xní
přivítali
básní
nebezpe
kariéra
Nováček
francouzská
ukrajin
##šného
Schwarz
##bát
nedostala
nasazením
potřebný
Philip
nadná
následků
Obrá
University
nesla
uchy
hluku
nátě
výstra
##jdoucí
nástav
rumun
dobří
udeřil
Mrzí
kritérií
červeného
nejhů
žaloby
nemusím
##valem
Fried
Dle
zpomal
kritizuje
##sii
sliby
čtvrtina
Tichý
Bohuslava
FR
bohatá
Vet
Chvíli
##blo
##rimin
rozšiřování
gastrono
letí
stavem
##erou
soudců
Energeti
holand
začáteční
nezdá
Lád
Finsku
církví
Metují
naviga
Být
kroměříž
kavárny
##blíže
jedu
##meňme
prosadili
možnou
mrtvý
vyno
růstem
naplnění
neode
eventu
odd
nejzá
danou
Plan
HR
anonymní
1953
Mozart
Brazílii
obranné
housli
Montre
jedeme
středečním
registru
počínaje
Zik
latin
umělecká
skříň
Vran
znečištění
jednali
trez
159
Britové
Novojičín
Pin
##skar
##imi
vystupovat
vracel
##basti
Sokolova
##áté
komunistického
VI
ROM
vydírání
řízením
nevíte
eti
##pet
##rátem
obrát
věty
odvola
Slaný
audi
nastínil
ang
Umí
oficiálním
##enále
1941
směrech
vyšetřují
střelbě
##ledek
trenéry
##měrný
odz
nejlevnější
skály
občanský
Chovanec
Havlíčkobrod
srdcem
Mistr
##ačtyřiceti
##gosláv
přestali
FIFA
protagoni
Příliš
##tým
zabud
zkušenostmi
podezřelé
##pětím
venkově
Židů
ústeckého
zaplatila
Hara
zohled
Plané
pochválil
eurozóny
využi
účinku
Automobil
oso
dovede
exponáty
projet
nadíl
přízeň
předko
zákroky
##rovn
jižním
##invest
##tíně
Diváků
fasády
Joh
deale
pokyn
žijících
sešel
požadoval
sezení
##ďka
stu
facto
koncept
Koller
téže
nevyšlo
rukopis
Arab
premiéry
uživatelé
##box
vojenská
malování
zvěře
přítelkyni
zodpově
Olomouckého
uhá
preferen
##ENÉ
živočichů
ročníky
startovní
Dlouhá
nadv
ráje
zot
okur
Istan
zmínka
sladké
sňat
kolejí
##áčka
Benda
Indoné
Benátky
kvalitním
příklady
nacvi
konfi
##rození
umoc
hlášení
hájit
Pivovar
EN
věro
slyší
non
financovat
inspiraci
vyzývá
Mount
Spokoj
##onald
tvůrců
přestupků
##boli
##telka
korid
zavolat
ženský
atentát
žákyně
zemím
vino
Barrand
těsto
srovnávat
vyřeší
Olomoucký
ukradli
band
Vítek
Popu
##vla
nedi
vystoup
vydělal
efektivně
vyčerpá
Výše
Adolf
přestupu
nanej
hraniční
Ústavního
Menší
překladatel
odbav
životů
Sw
##nus
naprosté
jihočeské
##covi
husto
Slad
nebi
považována
Nepři
dospěl
netýká
mši
##žá
pozorně
adek
oslovil
paro
vztahuje
Nezávis
##far
vzdor
##fice
celoživotní
##coval
Favor
##totož
cítila
Jednoho
nabád
zpěvačky
rušení
osvobod
kauz
Hitler
##sev
obsahující
Karlově
plaz
##vádí
##ün
##lovaly
naplnit
##list
modi
Klen
žijeme
plnohodno
Hospodář
Mladoboleslav
syny
vrát
##činí
ústavů
protipovod
tmavé
Stadion
Předná
League
pozůstat
vychytal
Agentura
AF
úvaz
kasáren
pozdní
soutěžit
počínání
fakultu
vyjet
nákladního
##espek
jakožto
neplati
špičku
Gry
veškerý
oblastní
omyl
##řany
kopec
akcionáři
odrůdy
pobě
##sadila
federální
potřebovala
uspěli
vyhrálo
from
Sigmy
Jihoafri
##zovaného
důsledkem
Začali
Šve
důsledně
##back
finální
tenista
připojil
máslo
##vícení
Filo
Skali
##ČEK
##povat
právním
kalendáře
kamionů
beroun
osamo
nemusíme
Rallye
odpady
básně
TŘE
Schrö
expres
pravidelných
pamatuje
nadprů
prsten
druholigové
Bosně
##lany
pouti
##rázd
##phy
zánět
opustila
zámecké
respondentů
struktura
fotbalem
##pkou
1940
##petro
žánru
životopis
Budova
##lout
lékařem
železnici
Hlá
Kyn
manažerka
připomínat
věži
Věci
klasického
##táhl
filmová
Abychom
zmínku
volat
##ish
šampaň
kolektivu
##ráti
pokutového
cup
Strakonic
chát
cizím
##zející
souvislost
zničit
zmizelo
poloze
Zdroj
pachatelé
farář
Zápis
skládky
##onové
pardubický
jugosláv
##vadž
Bureš
ztě
svatbu
znali
zvrat
Oscara
ccm
##atá
následek
##enském
nemalé
##klub
##čovice
Malo
stoj
prodloužit
Kateřiny
oddělen
ČSAD
vyuč
sadu
Bří
takzvanou
ryba
##ALI
boční
stopu
Frýdlant
závislé
##mová
Bílého
Luhač
doplňují
doráž
doporučují
svátcích
ble
pracovišti
generála
teplotě
mask
zdejším
učitelky
HIV
repli
kritické
silného
čtyřicát
závěrečný
Beneše
##žním
pouhý
Hů
int
Benešově
##telské
činitel
zapsal
Unipetro
květen
lis
PK
nálep
určitého
Mohlo
SuperStar
Lucembur
tvrdá
##LAT
Peugeot
ukázka
Československo
využila
zákoně
##žou
Krásné
snowboard
BEZ
krasob
Řecka
Albán
##apar
zvolí
látku
složitá
nasto
##šník
přitah
inkasoval
nezra
Využí
##tkem
##hlížel
multim
všestran
posluchačů
posunout
Strnad
autogra
výzdob
honorá
hrudní
děd
poše
šestém
ucházet
netušil
fotbalovou
adventní
riskovat
útočí
vápně
prot
Nag
některou
LID
mráz
úrokové
brod
jedničkou
##oli
##rostl
zateplení
chyběly
Fotbali
rozšiřuje
středním
zahrn
Bry
stupních
nikým
žele
vítkov
neškod
Vodní
konkurzu
##hřimov
art
hotely
Tchaj
agenturu
prosazuje
blízkých
partie
váhy
LAB
##ravé
hledišti
101
Dospě
stopách
Podez
nesmíme
stabilitu
Forman
naivní
ige
sousedních
nechodí
čtvrtině
jichž
sumy
koordinátor
##mením
Ruské
sněhem
pyrami
získávání
##plod
operní
##peti
ZÁM
dokaz
neodpovídá
náměstkyně
vypát
Sbor
zkouší
Švédska
##elle
Mobile
nezpůsob
vnou
##loučení
divadelního
geo
krajina
vozíku
zmíněného
Vysoká
Prostor
Myslel
##richa
2500
##STVÍ
lesních
zajímalo
Zbra
SLAV
Inspek
sanit
odvezla
vynik
cenami
skanzen
ději
krajin
##čské
vydávají
Společnosti
věkem
smíchu
bronzovou
proté
hospitaliz
nejvýraz
poslechu
fyzickou
Zaměstnanci
klubové
Magistrát
It
kvalitně
připojí
sedad
Lokomotivy
2x
##měna
výšku
pelhřimov
oslava
##tkám
Říha
Málek
tvary
zapal
Rem
Nemůže
vysu
kamerou
komí
Made
přesahuje
Účin
pána
justi
uchová
##fan
##zím
polích
signály
Šrám
tvoři
analýza
rysy
Bam
zopakovat
díval
Věříme
nalezli
takoví
nazval
londýn
kolekci
rozbor
samotnou
bulvá
sportem
mluvili
Domažli
podtitu
neschopnosti
##ládal
PV
populi
dohodl
DS
Hrál
##řují
terorismu
Poločas
Ome
Osud
##mak
jménu
Spr
mořem
američtí
daňového
Vati
##ovedu
Sei
jednotlivci
Architek
reprezentačního
upadl
zklamaný
spojena
labu
Filipa
##skočila
##račních
mantin
priority
##ROP
oživit
works
##polní
památka
spekt
nejlepšími
spojí
obrázků
##alit
##ICKÝ
vzhledu
spokojení
zvýraz
pokračovali
léčebny
zanedlouho
zápor
Hap
obuv
Ahoj
zabrat
nádrží
Pošt
pomeran
Zden
##yně
dolož
kotle
Tělo
zkvalit
NOV
##picky
Šo
##drou
##paní
napojení
čp
lihov
nastává
příslušen
##třeba
typický
schopny
věží
ceremoni
##pru
##aver
baráž
pud
generálním
debut
##ód
kombinací
svazek
Pev
Rodin
ovládl
postel
motocyklů
říkalo
čtyřiadvacet
mimořádnou
flét
dozadu
Bej
monarch
společenský
korunami
čtvrtým
počítačových
připravovali
týrání
portrét
přijíždí
přeplně
právnické
Nebyla
hed
smyslem
východi
##ňuji
předběžně
ponor
předposled
lac
napadne
MÍST
použitím
vyvolala
obzvlášť
domo
oženil
stříka
##HRAD
lhůty
sestře
nejk
závěrem
Šel
##řichov
nabídnou
Západu
##mlouvat
následovala
kavárně
věkových
##atelem
##PL
##sse
Otto
##máč
zlínského
Zkuste
obět
velikostí
nadšením
výrazným
##štík
Výtvar
zemědělského
vynes
##ročním
vážím
okresů
Sáblí
tvrdili
##kovaly
##jednání
moravské
biat
stroji
Sazka
přednosti
zásu
hraček
uvedeny
kvalifikační
bouře
##ental
vysvětlovat
##kolik
##gio
vyplynulo
vymyslet
prodejců
chřipky
líčil
##značně
pobyty
oceli
podnicích
plemen
iniciativu
zlodějů
slunci
káz
stánek
rozhlasové
názorem
sliv
rakoviny
##borá
poměrů
nebýt
##tičky
čtvrtí
##letem
##štejna
posílil
basketbalisté
##kovaný
odolá
strako
příliv
dokonalé
zaměřením
Feli
páteř
1956
českobudějovické
Víta
pocitu
renesanční
##21
chápat
rty
vpředu
hygieni
zapojí
recese
##eho
milé
##alkoho
penězích
Libereckém
##řovat
##kována
stávku
hodnotou
zajímavější
NĚ
členka
defici
Citro
virtuální
klik
potvrdí
Trén
Scho
##měla
nájezdy
vybírají
zvou
zapomenut
pátečním
##ffer
Plí
popisu
soukromou
módy
zvláštním
##chnout
##busu
Mini
rozšířila
FRAN
poznali
Macek
raně
čtveřice
dovolená
Šmíd
Gö
samosprávy
novelu
Julie
večerních
odměna
ochutnat
soutěžících
barvě
následoval
řemesla
prohlašuje
##film
svoboda
zlínský
opod
neodpoví
obývá
výtěžek
podepsalo
zkušeného
rybáři
šermí
nemi
Sovětského
startují
kapitu
potomka
pohyboval
Pavlína
vyznava
nasy
##ziště
převrat
mistři
líbil
650
Nájem
Ků
vítězka
Petera
zajat
neděje
##třebují
osady
Tamní
uzavřeli
##stupuje
dusí
emocí
plyne
budoucím
desátý
Obam
tempem
dobrovolníků
nastupuje
Litvínově
chodu
sav
YORK
hlubší
pláži
městečko
třicátých
osmý
zabývající
Vzni
obecním
napín
převý
vyjeli
lacin
výzd
střídá
přesvědčený
jízdních
nezávislosti
Brandý
velvyslanec
Elect
výroční
kutnohor
##tions
##get
##čeném
sestavit
Politici
specifické
vhodnou
Postav
big
Žák
zkoušel
##TU
objektivní
tísni
Českokrumlov
přepravu
odborný
gru
##cs
Skand
nechávají
taktéž
splátky
##TM
mafi
doufat
Lounech
ubylo
zatčení
Nymburka
vitam
remíze
peněžní
pravděpodobnost
výtvarník
USB
UH
##23
životnost
rol
zemřeli
##vace
##iti
severních
zlepšuje
přestávkou
Alexander
##rice
dnu
vegeta
vzpomínám
řešil
##aki
žalobce
stěn
popál
připomene
pohyby
početní
rozmno
##slaví
kupříkladu
zachytit
dvoubran
docí
draho
Podmínkou
laser
trávit
časové
poloost
oblíbenou
Příkladem
umožnila
sláv
Předpokládám
Fakt
ptají
bydlel
podráž
fat
dnešek
administrati
obrovským
Siem
Pivo
lavici
vejde
##sman
vrcholem
Lanškr
lázních
Hvězd
smutně
rády
psem
označují
##kety
sortiment
legraci
pochut
Ozná
ovlivní
kormi
##rostla
1961
Betlém
klasická
MART
třetili
##běji
Cr
Berouně
pasivní
prodali
Líbí
zúčastnila
##kátní
koncertech
přistěhoval
##tosti
##CA
Východní
plakáty
Žab
##skla
salon
rozloze
pravdě
poselství
provedla
zajišťovat
Blair
nejste
Těšín
dezin
Horažď
##enstvo
silných
1958
ovlivňovat
možného
poškozování
uspořádali
##měte
##ariér
elektrického
Lékař
keramiky
potřebná
kancléř
##pus
##pová
předprode
závodníky
Bláha
kno
Investiční
boží
ratole
Kolá
konop
sportovně
nádoby
uviděl
spravedlnost
infekce
##měli
nanejvýš
Sala
znova
Glas
##rio
popírá
Průvod
vstřelit
Mýto
výpadek
MČR
##het
bezvědomí
pistole
chráněných
takzvaného
neviděli
Svobodová
neuvaž
Dor
krouž
##CHY
loaj
blízkého
Dce
průvodu
##bytkem
##ecké
177
vysokými
přijelo
Německá
brusla
zkusil
netrouf
zábavné
bruslení
Opel
Úspěch
uznat
KLUB
Žene
##fel
větu
##chuť
jednotku
vkladů
přírodního
zón
##EG
prstů
přesilovku
Začátkem
##chyně
dramatický
##vant
Gabriel
Pres
mluvilo
ČKD
muzikanti
jablka
seděli
MÁ
Císař
##zera
Vlašim
##fou
opravovat
Vrchní
došla
udělám
použije
RA
obrátila
Uved
chytit
ordinace
4x
jarním
Jackson
Kosova
KARLOV
motori
Musíte
zdolal
bří
přestat
##telnosti
bránili
dílčí
vodního
arog
zkompli
přechází
Vlk
Thu
##berga
Veletr
komplikací
Desítky
použili
informacemi
technologi
připojištění
výkonnosti
Havířově
##sudek
dostatečnou
##ovost
Noční
##ÁNÍ
totálně
tašku
živá
Richter
##DY
komunity
mandá
Trag
##čeně
PARDUBICE
##entace
##tman
nálezu
nežádoucí
letoun
omluvil
##dustri
##řicích
posluchače
čerstvý
záchranář
##terapie
sčítání
logo
zakrý
adresy
tombo
měřit
nevním
nezku
karlovarského
ženatý
fenomén
zřídit
nadš
Metropo
EL
vypracovat
vládního
##tína
kontinu
spojen
potrá
Laur
Dokument
družstvu
##gene
sbírá
tmy
fakticky
uvažoval
vyzkoušeli
zaš
##átcích
##kantní
Cítím
němečtí
Velkým
vypočítává
Libercem
krása
zalí
pasu
##jaz
Cestou
možném
bankou
rozpadu
Kandid
Nejlepším
prezidentských
odvrá
bulhar
##ceném
chápu
provedena
domácímu
vánočního
navštívilo
fal
medvěd
kupují
klidné
basebal
Průmys
počítáme
1920
rezignoval
nadých
Jihočeské
lhůta
účtů
Osobní
dopravce
Kněžnou
přístře
nerespek
ofsa
přítelkyní
##ovským
ranních
Jeseníku
jam
včerejšek
##ovští
bezpochyby
zásahů
blízký
GB
porucha
kultiv
##ÁLNÍ
##ÁŘ
##enic
zamítl
haléřů
starostů
Dětský
jezer
Nechybě
Lidové
jádra
##linou
písničkář
obháj
přetí
komplikuje
##žské
představovat
dorostenců
popoví
##kovaných
Rytí
pitné
levou
##zání
medu
WC
ks
terit
Budapešti
Novotného
spotřebitelů
pani
mírné
pracovníka
112
auty
##brusu
kostýmy
platilo
GE
útěk
ustá
fyzických
Taneční
tebou
Varnsdorf
svazku
dělníků
Zkuš
##rne
Bö
určená
kritice
try
##álová
stěně
Turek
zabal
360
##stickými
víceúčel
věta
##alové
##bera
##ŽÍ
neproměnili
Nizozemsku
nízký
specializované
dechové
chutná
propagace
závislost
zlepšovat
CK
##stojní
věčně
##čujeme
kamenů
Zahradní
you
praktických
Obvykle
funkcionáři
kongresu
Rozhodli
pyšní
Pražském
##rada
nezvládli
Přibližně
online
vyvar
Novinkou
faktorem
řeknou
##řeném
Hodoníně
prasat
nevěděla
stanoviska
schopná
Pok
odmítnout
##ravě
domluvili
svědek
nelíbilo
pěknou
uměleckého
reform
zít
FAKTA
vyčleně
##sten
stížností
Žižkově
odhadují
##ath
profesí
školce
Tipy
reálně
Trou
Ose
rezervu
akcionářů
doprovází
mostem
Jindřichohrade
##kazil
Bay
OKRES
ležela
jedinců
aukce
Havířova
zavřít
interní
podpořila
zástupcem
Ras
Gy
##bry
rozvodu
frontě
Koment
původem
břicha
obyčejný
ochu
sebemen
růže
Nejsme
##lovaných
hybrid
Ústeckém
počest
nálezy
Šet
poká
trojúhel
běžném
Tyg
širým
Berg
říjen
solí
##ovečer
kaza
zelí
omylem
kapse
záznamu
ručení
absolventi
metodi
suma
záchvat
zastává
##vadě
##áti
nečeká
ročním
srpen
Ztrá
Kamenice
královny
ukončí
zhou
Několikrát
přihod
obojí
##dium
pirát
mostě
čtvrthod
neohro
tajemníka
DK
##deva
##čuji
horu
materiálem
vyhrožoval
účastnit
navštěvují
Bernard
##ismů
Podboř
vyspělých
nař
příslušný
daních
Ilona
sat
##eniště
sloužila
favority
dominant
##1A
##ovače
očekávané
zdůvodnil
březen
výbuch
Gali
krych
Karlova
leasing
celní
krátká
vlivy
tělocvičně
třicí
jednoty
Toyota
běžel
špici
brankové
Italové
ČFL
takovéto
vyří
ruskou
##99
##enějších
demokraty
mladými
farmaceu
rezignaci
přednáška
přiblíží
##roze
##estu
Kaj
izraelské
uložil
bankovních
odcest
Václavu
ÚSTÍ
laboratoře
##chala
Dalšími
Širo
odnesli
přírodou
míčem
otázkách
velcí
zásobování
sochu
Kapli
##niště
##čově
nejvyššího
architektů
Dobeš
Místopřed
Následující
absenci
filozofie
publikaci
HP
##lovský
MMF
##funkční
lepšího
přátelské
##ňského
plzeňských
věříme
##lníků
ztvá
zbar
rychlých
hrozil
spousty
nazvanou
epidemie
sbírat
Autoři
nepříjemný
integraci
##OVÁNÍ
položek
uplynulého
přilep
nápadem
##ctor
televizor
Che
##leon
Business
nálady
šib
Žeb
reagovala
pozvali
náboženské
Koncer
trápení
drahá
##opr
víz
Benedi
Kratochvíl
tranz
Polan
Doh
Američany
regulaci
Šar
útočníky
dominantní
hněd
neznají
tvrdila
Lomnice
##und
zprvu
Krč
prohry
tvořili
brána
##ville
##ýmař
nejslavnější
Krou
snou
jednotlivce
kolegům
Daň
##gmat
##xo
diviz
přípravných
She
Pej
Tar
výživy
majetkové
##lese
šťastné
ac
##měří
zkušení
MET
distanc
Stříbro
obrace
věnován
sekretari
vzpomněl
historickém
Ples
nečist
procházku
křesel
Marian
zodpovědný
Zahraniční
hřištích
disciplinární
Wh
hostit
Nechtěl
##ICHA
tajných
pouhou
podmínkami
##CHA
žárov
přemýšlí
stáhl
čáře
Souboj
hrobu
Burg
Bezru
připravily
dobových
##tivního
transformace
domé
pouští
terapie
útočníků
neko
přihrál
užívají
Trav
střešní
Vlaši
liberální
neúspěšně
##bilo
výchov
##šovského
úpravou
Jelín
projevem
ramena
hradit
##RUM
narazila
Naděje
rozptý
##běhne
incident
ovlivňují
plukov
způsobily
narazili
vysokém
Prázd
letě
dozvěděla
herectví
získávat
Krajská
ambiciózní
Boskovice
Fro
lyžaři
##řic
kabelku
dec
Žam
tre
kolemjdoucí
nadšeně
Klim
Spa
křest
bílém
156
bakal
##OST
Neob
poštu
málokdy
kano
svod
Kuchař
písnička
předloží
Ferdinand
Předsed
Ondrá
##vému
dokládá
neexistují
nevadilo
##lujeme
situ
koule
zkoumá
mléká
Cab
hájil
pomník
motokro
skočil
##řizuje
trávu
Vlach
zklamá
rekordních
humoru
ED
Mimořád
Aš
##žur
##metrový
Dušek
Miloslava
Aleše
cyklostezky
stoupla
bezproblém
vyjádřili
##obor
vozidle
Pamě
Cir
hláš
Hrádku
nedělního
neumím
##hrů
zjištěno
Wen
##šovic
Gil
Škro
Potí
##zovanou
##pěst
nabou
znamenají
Slune
Blues
zadržení
londýnské
4000
Gymnázia
odložit
povedl
Sci
čemž
zúčastněných
hranicemi
Švec
odcházejí
obchodník
dostupnost
nepomůže
Kyjov
možným
Brabec
##chet
spád
zuba
##buji
obnově
víš
celníci
Poznám
Šal
projektech
Janeček
fru
havlíč
pěkná
odstoupit
Sněmovně
Výtěžek
bri
##leni
Špaček
soustřeď
opev
přihlášky
##moder
divadlem
znáte
##ačtyřicetiletý
taktov
automaty
##ózně
##lákat
jakoukoli
severozápad
nedala
Situaci
vyvolalo
důl
docházet
slon
Vánocemi
jedinečnou
##regionu
štěstím
##rážel
pomníku
##ránka
Bára
dít
nestá
červený
známek
mobilního
vysy
berlín
Ruský
míň
pruhu
Koby
##cina
přímým
obdržela
házenkáři
srážce
střelba
automatů
zaost
publikem
heslem
Ou
##OO
maž
##cer
Atmosfé
gar
otě
kurátor
zvyky
srážky
docházelo
Soubor
uměním
Siemens
pokojů
prostředím
Aténách
Pavlík
##amu
##rika
##rey
sousedé
odvet
##čes
pěvecký
Vyp
Výjimkou
Povo
známku
Prakticky
vyhlídky
Mly
##skočí
nedbalo
mohut
##well
##roje
ptali
##GB
pokrýt
Jisté
jednotné
levém
registraci
šéfové
rukoj
displej
padly
nezam
Čermá
hřišť
předpokladů
kapra
odhalili
##rovod
stereoty
fakulta
odsoudil
protivníka
poděkování
##TRA
Mik
soudob
gum
obětem
zbylo
statistického
korig
##itost
##rálu
zvládla
podivné
rovná
hovor
válek
svateb
SY
Sub
odrůd
rozumné
zářij
vydávání
##prodávanější
plným
tendence
básníka
##elka
##NOST
odpadky
přezkou
VÝSTAV
##inářské
jízdenky
děláte
rizik
Ný
nastěh
obžalovaný
Začala
Lesy
Hongkon
Vyz
##zvy
Nejed
nejdůležitějších
E15
##desátiletého
stěnu
sejít
boxu
Mattoni
pevnost
provozních
Hans
živě
Ston
pětatřiceti
Bom
tax
Holan
pachatelů
repertoár
kamiony
Věk
##stávající
sloučení
svobodné
Dvacet
symbolicky
Šebr
Barcelona
Však
použity
##padesát
##anovi
Copak
Penta
rýs
kompetence
##zíme
peklo
považujeme
Chaloup
##uli
power
podniká
##demokra
růžové
Tipsport
hyster
Telefon
pojí
doživo
legislativy
havlíčkobrod
Sat
herečky
##ROSLAV
řádově
Haj
váha
Vyšehrad
protihrá
##king
ptáci
stánků
Telecomu
odvézt
##natý
RY
vpřed
zvýšili
##torát
odpůrci
poklid
nulou
zakázáno
celodenní
odved
telekomunikační
probou
stranické
spuštění
juniorky
Bystřici
počáteční
horko
nade
přivedla
hokejová
##řenými
dodávají
Dak
nevš
Britský
pistoli
##hera
Nápad
nečekané
úspěšnost
kanalizaci
kasy
elektronickou
naby
navrhnout
Pracovní
##ument
Svatý
Bená
kontrolovali
soudkyně
klidný
průměrem
střídající
Wagner
distribuce
Berger
Školní
Kole
tribuny
slev
devěta
Jihomoravského
číslech
Milena
ca
kamion
Výstavba
##ÍM
soupeřům
vtr
počítal
pevný
zveřejnila
příslušného
exem
posvě
zákoník
sedmém
##HOV
rekvali
ideálním
Sezi
zájezdy
##entýž
##táře
rent
chemie
softwaru
Fišer
tox
Potě
Franz
kontroluje
výrazněji
montáž
##boji
Gon
bezdrát
leccos
Odvo
zakončí
dotý
vnímají
anté
##platky
očekáváme
kolikrát
závěrečných
##ILI
nepřiz
atak
##tary
##rovského
Jiřímu
rozhodujícím
kapele
sportovec
nestačila
semafor
stanovil
reformě
vyjádřila
kolegu
Beatles
slávu
známy
plastiky
Bližší
přečetl
závazek
tvorbou
soudních
nepřál
Výroba
lehký
##dosti
časopisy
Paroubka
pronika
##rozil
##rop
dálniční
##kovaná
koutů
##cyklop
skříně
cenný
##zalo
třídění
kovové
FIL
elektronických
výsledkům
nádherný
Klobou
hereč
er
důstojní
šle
Erb
hvězdá
převést
##BS
##peri
##ťáci
čs
##raví
maloobchod
záchranky
nespraved
zan
samozřejmostí
způsobů
zpomali
Vari
překvapila
Aspoň
Řeč
zámin
vylepšení
sympozi
Stockhol
##idů
reforem
Trávní
oblíbeným
Rece
rodinám
Náměstí
zvuky
kolejích
italských
trpas
Dynamo
Lak
údržba
##lenu
##KÝ
látka
přesilovky
neznal
##krást
Dir
podr
Mikulov
2017
Hron
trestnou
##bab
##olon
náplň
1959
Vzpomín
pistolí
dokážeme
mobilu
prázdno
##sun
recepty
nepořádek
zálivu
únava
TH
##prou
zajetí
volají
buň
Wale
1952
hrozi
Havlíček
fla
##ánských
patent
Dobro
Zdůraz
radaru
odstraňování
Méně
##jeva
dokonalý
102
moleku
zahrála
##něnými
Nejspí
požadované
##blou
fotoaparát
CENT
Denně
zlikvidovat
cukroví
komunikacích
Jame
nuceni
##fr
Vernisá
##MU
cestovatel
Matt
odsouzení
Podmínky
##neš
poškodit
zrodu
smutný
trendu
nevlád
stihnout
##abili
Alfa
sportoviště
jedny
Strakonicích
jmény
Papež
kněz
naměřili
##bíček
návštěvou
Rade
Dodala
Martinů
vstřelili
##cházejícího
tyg
schody
počítačem
##lát
kontejnerů
##dně
severním
##FR
sýr
orientace
##LON
vystoupila
slovu
skalní
##EP
rakouských
užitečné
##kaře
leteckých
očivid
justice
Čáslavi
106
zvykli
##álnější
Štefan
##rip
hladině
Otta
hodina
Vážení
##jícími
hráčka
předcházet
odsud
Toté
středa
hrdinů
##tské
Vítězem
IBM
vyrobené
SER
bolestí
sponzory
##brání
##hodl
vycház
zvýšený
jihozápad
##něla
Banky
bin
Háj
mání
lehká
##vyklá
lyžařů
pocházející
středem
železa
signálu
kdosi
Totéž
ese
Intel
zkoušet
hřeben
cihel
Míra
podnikateli
skladbu
potravy
bojích
hotový
svet
vyšli
rozdělena
pobočka
charis
##teře
##štice
DEU
cibuli
celému
Fle
##upl
úspěšnější
##haus
103
EV
Hü
remizovali
##prázd
TEN
břeh
loňska
Slovenský
nepřemýš
nevidom
naučili
orientační
vyznamenání
##zována
bolše
##tl
##NIC
trůn
zřetelně
Foj
změnily
předvedou
Defini
apel
sety
##vencí
##rané
jediném
alp
Podívejte
nárazu
Toma
progres
odvě
nezad
Ústřední
Kometa
prokaza
Sebasti
vytvořily
Čin
slavili
výrazem
jihlavského
##cující
slan
Vietnamu
stacion
konstrukt
začleně
odhady
poště
znepokoj
šestou
ztu
Pomocí
soustředí
filmovou
Nation
přehradě
graná
zatla
dceřin
vyrazila
přítomné
Oleš
Nena
kartá
dočkala
bezplatně
Von
##lána
údajné
mému
chválil
Vltava
příslušných
Love
smlouvou
symboly
postavené
reportér
figuruje
##resti
církvi
znalec
zámky
přihlásili
Nových
Jacques
Eliáš
##tost
škodí
potok
domácími
Realu
podílela
##poko
česneku
##vené
Zvě
umírá
flo
palivo
balet
matu
radiká
vyzvednout
Škr
was
zasahovali
Jam
trvají
Oto
Chybět
čip
pečovatelskou
pohybem
Juraj
postupů
přijímání
bloky
sezóna
##antu
##přítom
viceprezident
Sum
předvoleb
pojišť
Tali
Orlických
flexi
dolar
plane
ložnice
úhradu
Stroj
inde
písmen
obrábě
tanečních
Zelená
Philadel
##ŽE
zvolila
čáru
snazší
nedoz
Rela
krátkých
##šovi
Oslavy
podzimních
doporučit
dotyčný
řidička
postěžoval
##betu
tradic
výkři
jezero
dokonal
výchozí
Slezska
porozumění
republikou
Krkonoších
Lukeš
režisérem
##vic
##ónem
##linky
výpovědí
##inů
oceánu
stavení
Praz
##gre
speciálního
spojený
Řešení
elektrárna
odběr
přehá
díry
Samotný
krádeži
depozit
trochou
dlouhého
harmono
Liby
stoupání
přísnější
Současné
bojovnost
klíšť
Bun
Nemohu
1930
Vystav
větví
neúspěch
vzorem
biom
hospodářská
rozvr
udělen
zámořské
bala
přispěli
položky
Neumannová
##ťu
neform
běhat
hradeckého
všeli
literatura
zkratce
sjednocení
Domin
pohodu
předvánoční
vele
varhan
výstře
tablet
Věděli
loňsku
záruky
##hánek
schránky
osl
Šumavy
Svatopluk
pořídil
stropu
odčer
##chody
vystřídá
sexy
320
Luc
neusku
##dle
zařídit
neoprávněně
Hřeb
Kate
bodech
Valašského
srovnatelné
Volby
sféře
##alistické
vodohospod
uznává
Lok
socialistické
svěřenců
zachytil
nejná
ochla
červených
silničáři
mírný
Koudel
Taj
Stod
imu
Rozší
rebel
nakolik
VII
loži
kupodivu
nevěřil
slavnostního
##kyň
nemocného
##atuju
křesťanské
UV
nepustili
##ezii
židovského
##lková
##terak
Chorvatsku
Henry
duben
útvaru
mladším
##itt
vyčká
tvrdší
Koho
Titul
znázor
vyřešení
##vozu
Týn
regiony
manželce
1929
Dobří
##lerem
překročení
pohraniční
časopise
Košťál
ústa
##round
##kač
intenzí
ostrovech
pánů
ledvin
dvaadvacet
investuje
desítkách
sousedního
Semily
stěhovat
případném
davu
NP
památníku
##chejte
porcelán
kandidátem
1900
mříže
Design
Šedi
tehdejším
získaných
##ŠE
vzpomínat
zanechal
provozem
půjčit
svědkem
versus
podklad
zachránili
místostarosty
rozpočtové
klukům
Křivo
sympati
##cau
vyjas
Felici
vážnou
odvysí
rozumu
prvoligového
Rö
Lew
gesto
Slovenská
Andy
Mladou
aktiva
Zařízení
1957
položit
neschopnost
úvodního
hníz
Myšlen
závodnice
energetických
slalom
Rai
získáte
legion
##cip
debata
##ranu
##talit
##hradské
pětinu
tréninkové
Záchranáři
##MB
kontaktů
Nar
zoufale
specifi
Světová
zapis
##ALO
##zak
Odmít
vládnout
aktivnější
##bezpečně
sestupu
oškli
KNI
svátků
nebrá
Stalin
##kradl
uprchlíků
maďarské
vaším
těl
Aneta
dimen
rar
##orit
siré
jater
dozvědí
uspořádala
Fig
sněm
sešla
jednoznačné
podpisem
stávky
bezplatné
##sný
vědomím
128
dceři
550
##IF
posuzovat
dohledné
napsali
odstěh
Náměstek
statutá
utéct
Plzeňsku
korej
pohřeš
přesahující
dodávat
bezchyb
VES
chemiká
permanent
komik
Frid
zatčen
Klíma
Topolánka
textilní
Žá
náchod
drahý
potěšilo
uhradí
stavitel
papeže
##hovou
##uber
Ulice
sbírce
nejedno
Olomoucku
NASA
vymy
utop
zákoni
Jeseník
Kanad
vyhlásili
##ŠT
##ovější
Obecní
Babiš
ozbrojených
Toman
Ču
tenisté
poháry
žádnému
skladba
NOVÉ
##fra
cílové
kapali
176
Evžen
##romu
Březina
nevypadá
popo
##ále
blog
##ádka
promění
Oči
nejstarších
Kyj
insolven
koncip
hlásil
kauzu
Kamará
Zr
Sotva
Tradi
odolnost
svatby
odkáz
chalupy
černém
přejezdu
skrz
Madridu
##rance
šun
chodby
průšvi
neot
udělil
##row
svéráz
##stron
kouř
Oficiální
modrá
přirozenou
##čovala
střídají
##ference
prvň
západu
vajec
zaujmout
jubilejní
lékařskou
##KÉ
CIA
Slovák
nejbližším
Ježíše
zrušena
nést
ošetřovatel
spi
kopy
přáním
Těším
alar
ham
##shi
páteře
četné
Hany
##žík
Schne
Počíta
popřel
DU
##atou
##voluční
upravil
Absolu
Proz
frý
dohledu
neporu
stopa
poptávku
kreati
připravená
stěžoval
Akcie
Adr
vysou
##rativní
##sbur
##vici
##cnost
otu
očekával
Eko
seps
čelní
dodávku
Spoluprá
plného
aqu
brněnská
nejpopulár
##vář
pavou
Absolv
Belgič
mailem
Pěk
zapojili
##šedesát
jemné
katalog
shání
chytat
Pochopitelně
stipen
##štil
Liban
beseda
vládnoucí
##éni
zpracovává
moud
pšenice
Literá
zážitků
280
Rie
oti
##delník
Fou
dodavatelů
pohostin
pomal
1943
##ont
FNM
polemi
Obhá
##roda
baž
orig
touhu
elektrotech
jasným
posvát
parní
Smlouva
uvedlo
dramaticky
wh
davy
Tesař
##icemi
odposle
Broumov
přiklo
žádoucí
příslušníky
poslednímu
zaměřili
lidstva
vzduchem
centrech
Sklen
inspirovat
půda
##ánková
prom
Novy
epo
peněženky
střídavě
Benešová
kontejnery
pětatřicet
chatu
ligového
zbě
Finsko
odjíždí
##mář
1951
Davidem
tráva
Skutečnost
nejhezčí
shromážd
##xie
##vítí
napjat
Přikry
tobě
Pun
##onaci
##adi
metrech
rozloučit
Chalupa
sílí
debakl
lom
vazbu
##atický
hospů
zelený
##ROV
##cla
##chovi
nechápu
Dolej
##leno
okupace
automati
Leb
vanil
přála
vlí
##via
Tů
vysokoškolá
##atických
Stovky
žaludku
##hněte
##táhnout
obědě
házené
Zprav
##kláda
Rozpočet
knihovnu
Mert
švest
Němcová
mzdu
##hnete
kvet
Aja
Sarko
Origin
zastí
Irsku
dozvíte
užití
minul
psali
způsobili
##platit
ČV
přemýšlel
napách
Hamburku
##stopad
chata
hej
chceš
předmětu
brutální
dílen
Williams
úpad
##acích
Stejné
samospráv
panely
slyšeli
Křesťan
těšíme
vou
##wicz
el
##bara
dlouhodobého
opla
portálu
rozsáhlá
DENÍK
světel
omezuje
Chile
mosty
##RAF
Norim
##iáš
pozůstal
sprej
každých
##ČK
národnosti
Burian
zpravodaje
klobá
mláďata
obalu
pásu
koči
Strach
Muzeu
účelům
Bech
Tig
případnou
##ican
rake
spoluhráč
oblibě
Ins
prověřit
masky
Merkel
pur
Internetu
##letil
jedena
detailů
Boe
neztrá
úni
Maminka
Macháček
národy
seděla
Tab
Soudce
##hradech
Tenis
##kulov
zvaný
zazvo
##mm
##skala
Hanz
zobrazení
jakýkoliv
##view
2018
tóny
Váňa
Moravského
Pili
Podnikatel
Sev
vile
lhůtu
vleky
celovečer
Time
přidělen
Zdálo
skleněné
##šové
##ingem
Lind
##ářem
směsí
VK
domlou
lip
F1
ovlada
##zovalo
vybaveny
108
Jindřichově
Kvit
ohrožených
navštěvuje
vyplatit
News
##jímal
Gymnázium
vej
Vítkov
blb
Dvanáct
Komedie
104
zločinů
dědeček
zvážit
vzty
rybníků
Ply
Krumlova
cizinec
odchovanec
KULTURNÍ
prostorem
turistům
slog
zažít
Namí
zkontrolovat
id
kandidátce
zakladatele
##ovické
Slovo
unikl
umístili
stre
špičkových
totální
Skalice
podobném
##řinu
zneškod
zániku
##lské
zkušené
gr
pus
nepřiprav
pup
zkušených
semifinál
jednadvaceti
MEZ
dávám
vystři
ocitla
chystáme
důchodkyně
##žák
Baj
stanoven
reagují
duší
uvedeného
zpříjem
dospělosti
dobrovolní
Polov
favoritů
vycházející
hráze
Kontakt
upřesňuje
momenty
##telit
Hosti
vyhlášku
spolehnout
laborator
kostý
lékárny
##byd
Ročně
Okamžitě
vyšplhala
virus
##řiště
potřebám
Obsah
vjezdu
##rychlo
potrestán
odlé
##rské
##korup
1936
konkursu
pozdějších
provádějí
hvězdi
tloušť
Haška
Blansku
děvčat
využijí
listí
pruhy
vystavě
zápla
razantní
Docela
zkušenostech
garáž
nápravu
MAS
Sop
předejít
nájemníci
východním
Francouzský
mostů
Rychle
Bie
skandá
Hem
předpoví
Některá
nuly
ředitelé
##vast
##pold
Dřevě
##vová
vystaveny
technice
neproz
##keř
zdolali
opory
Johnson
francouzském
Fiat
poukazuje
jakýmsi
Uhr
výhrů
splnili
##put
hrozbu
celoroční
exponátů
světovým
námitky
příšer
přesunout
nebere
budd
lékařům
muzikantů
mírou
meziroční
Staněk
kolí
muš
náročnou
Medvě
takovými
natočit
nemyslí
##vami
pochválit
líbila
##stad
označila
stříz
hlavními
znaku
městští
ponechat
Dynama
Poro
distribuci
zněla
LABEM
sw
fotbalistům
Ther
předvádí
pozemcích
Mašek
Aktuální
sdě
poslaneckého
návštěvnosti
vraždě
##nutého
stíny
hudebník
čistou
zřídka
mast
Armstron
Osvě
##polu
experi
neta
pohoda
Jand
spik
vyk
koncern
Martínek
zkoumat
zanedba
Seriál
dobý
veřejnoprávní
Zaji
##při
sváteční
##toku
Švý
navrá
270
bloků
##nací
##hami
osmou
mateřská
propagan
odborníka
železničního
elektrický
rychlém
přípoj
kritiků
##šidel
bomby
sved
Trojice
čtvrť
Ukrajina
##gru
##pole
myš
splňuje
scházejí
Příspě
předsednictví
účastníkem
ztratily
akrob
stáj
Hráč
dobové
návsi
Oheň
starožit
Bot
pustila
faulu
Whi
postavený
silách
pokři
Santa
##diho
zastávka
závazků
regulé
kroužku
dřevin
prohlaš
Dvořáková
##rman
vyfo
kinech
promluvit
seskupení
přípravný
umožňující
GP
##puje
##chne
##beth
výkop
##ádek
tepelné
music
viní
vykli
vyslal
Václa
inflaci
Problémem
##chálek
jednoduchou
Skutečně
jehli
doufají
Banka
##DS
prožít
smyk
##lánek
promo
dolu
večeru
čestné
citlivé
Sarkozy
čl
nálad
ostrý
Uvaž
kyseliny
přírodním
Materi
Řekla
naráž
čečen
nejkra
posuzování
vietnam
bývalo
Cyril
starově
pouhým
Prince
Komety
směrnice
cyklokro
předvede
Video
soupravy
Capital
vzpomínal
kult
lupič
Adéla
Evropou
telefonním
říši
zamez
##balistky
konkurz
snažení
McL
technickým
výtržnictví
jednotlivá
ochranou
vsí
##enskou
zapojil
interna
akcii
spoustou
Vlast
slez
chléb
KU
tabul
zřícen
sféry
nástrojem
chybou
poznatků
##meni
umístěné
zaútočil
neslu
nedávném
motivem
Podpora
přepadl
##kládala
##ovický
##hlížejí
FM
##kářské
##ýma
šestého
sahá
rodáka
Jiskry
limitu
začínala
Michalem
Denisa
prezentuje
ocenit
##press
vnik
Jeseni
##ckrát
posiluje
zó
##ANY
##lečné
působili
pečivo
modrou
neuspěli
REG
jakož
loun
průkop
příbuzné
osvědčení
##plování
ČP
##ECKO
##dež
##skokato
hypote
impé
internetového
##dií
bráně
nájemníků
demisi
Zách
realitu
nevlastní
valná
vědeckých
bezohled
strávili
trojici
odjezdem
zařazen
spáchal
nájezdech
Zúčast
Berlína
Letohrad
Květo
##IŠTĚ
##ensko
vlhkost
podlaze
Pešek
mateřskou
makro
Ala
styk
rakovinu
##kánské
analog
podněty
##ctá
rukojmí
bytosti
##viny
fotografa
schválilo
Hejtman
Křen
patřící
Smith
ozdrav
obyvatelstvo
choreo
##onské
Clar
Palestin
půjdeme
věcmi
poněvadž
Podíl
půlnocí
vydava
nebýval
zahraničními
Wimbledonu
nezavá
tenisové
poznámky
hrozba
politikům
210
##kčních
##peut
sekci
okresech
svatba
##enést
plynů
závislá
chlapi
Dobrou
znehodno
uspokojení
silničních
výrobcem
neobvyklé
neku
startoval
sbory
odmítal
Bukov
Mis
Čapek
##mysli
Slavkov
##vajícího
zamo
Hlinsko
výpočetní
Vojta
porazily
volič
parametrů
##druh
porozu
zastřelil
##álené
Billa
úterním
deviz
čistá
Ondra
PRÁV
soudit
nepůsob
sedla
Flo
Velikonoce
##řském
Dostá
gan
neméně
zásluhy
Christop
mem
Lysé
Egypt
dus
Arsenal
##skobuděj
kameru
##itaci
výslu
slavná
obrací
jakási
Hrb
##ERT
zkouškou
##ologii
ovládli
TU
##ople
čtyřhře
zlikvidoval
##mira
blondý
##včí
klimatu
melodie
krach
petržel
stěže
sklepa
sběratel
##lun
Horší
Antoni
uchazeči
králů
vozidlem
##běhlo
absolvování
jednotlivým
##řenci
vypracoval
garant
vs
260
choval
přenést
pondělním
Říma
koledy
tabulka
neznámých
středisek
středoškol
úrokových
Pondělí
poslankyně
předpovědi
plátně
jakoukoliv
Unikátní
rozumět
##jam
proslavil
Ará
Níz
Objekt
podnikatelům
občanská
neúspěchu
##jezda
Údajně
řecké
Areně
##miliard
email
##líp
minerál
##lovky
rozes
převezli
těst
rozpoz
vypracovali
Kazach
životnímu
zubní
sklář
autu
Kala
procházky
baráže
účastnil
pocitem
globali
##spívá
opačné
bakterie
ER
CEST
##mální
automatické
##etí
svlé
usklad
Hlučín
##atlan
můžeš
svíčky
pivní
optimali
##tivnější
##gement
spustí
vydané
##rap
ztotož
koncentraci
Kem
##žící
formát
Barceloně
upravuje
zastával
##HOD
##ábel
vystupují
[...]
